<?xml version="1.0"?>
<opencv_storage>
<cascade>
  <stageType>BOOST</stageType>
  <featureType>HAAR</featureType>
  <height>14</height>
  <width>14</width>
  <stageParams>
    <boostType>GAB</boostType>
    <minHitRate>1.</minHitRate>
    <maxFalseAlarm>5.0000000000000000e-01</maxFalseAlarm>
    <weightTrimRate>9.4999999999999996e-01</weightTrimRate>
    <maxDepth>1</maxDepth>
    <maxWeakCount>100</maxWeakCount></stageParams>
  <featureParams>
    <maxCatCount>0</maxCatCount>
    <featSize>1</featSize>
    <mode>BASIC</mode></featureParams>
  <stageNum>20</stageNum>
  <stages>
    <!-- stage 0 -->
    <_>
      <maxWeakCount>14</maxWeakCount>
      <stageThreshold>-2.3680696487426758e+00</stageThreshold>
      <weakClassifiers>
        <_>
          <internalNodes>
            0 -1 222 -5.5319055914878845e-02</internalNodes>
          <leafValues>
            7.0811426639556885e-01 -6.8900269269943237e-01</leafValues></_>
        <_>
          <internalNodes>
            0 -1 647 9.0901218354701996e-03</internalNodes>
          <leafValues>
            -5.3830617666244507e-01 5.3630715608596802e-01</leafValues></_>
        <_>
          <internalNodes>
            0 -1 196 -1.3191366195678711e-01</internalNodes>
          <leafValues>
            9.2543023824691772e-01 -3.4341588616371155e-01</leafValues></_>
        <_>
          <internalNodes>
            0 -1 789 2.3395048454403877e-02</internalNodes>
          <leafValues>
            -3.2698997855186462e-01 5.2530688047409058e-01</leafValues></_>
        <_>
          <internalNodes>
            0 -1 520 -7.8614624217152596e-03</internalNodes>
          <leafValues>
            5.4916763305664062e-01 -3.1282812356948853e-01</leafValues></_>
        <_>
          <internalNodes>
            0 -1 188 -4.4502336531877518e-02</internalNodes>
          <leafValues>
            9.0672838687896729e-01 -2.1283702552318573e-01</leafValues></_>
        <_>
          <internalNodes>
            0 -1 55 2.4690343067049980e-02</internalNodes>
          <leafValues>
            -1.8736520409584045e-01 7.1361404657363892e-01</leafValues></_>
        <_>
          <internalNodes>
            0 -1 830 -2.4230161216109991e-03</internalNodes>
          <leafValues>
            5.6184267997741699e-01 -1.8373842537403107e-01</leafValues></_>
        <_>
          <internalNodes>
            0 -1 858 -7.9794172197580338e-03</internalNodes>
          <leafValues>
            7.8577286005020142e-01 -1.5737959742546082e-01</leafValues></_>
        <_>
          <internalNodes>
            0 -1 118 -3.4072719514369965e-02</internalNodes>
          <leafValues>
            6.1945247650146484e-01 -2.0427392423152924e-01</leafValues></_>
        <_>
          <internalNodes>
            0 -1 161 -2.6951763033866882e-01</internalNodes>
          <leafValues>
            -7.9169780015945435e-01 1.5292038023471832e-01</leafValues></_>
        <_>
          <internalNodes>
            0 -1 427 8.0621214583516121e-03</internalNodes>
          <leafValues>
            -3.2497030496597290e-01 2.9778191447257996e-01</leafValues></_>
        <_>
          <internalNodes>
            0 -1 644 1.1519789695739746e-02</internalNodes>
          <leafValues>
            -1.4219097793102264e-01 7.7680110931396484e-01</leafValues></_>
        <_>
          <internalNodes>
            0 -1 773 6.2281535938382149e-03</internalNodes>
          <leafValues>
            -2.6602509617805481e-01 3.9290159940719604e-01</leafValues></_></weakClassifiers></_>
    <!-- stage 1 -->
    <_>
      <maxWeakCount>22</maxWeakCount>
      <stageThreshold>-2.1035246849060059e+00</stageThreshold>
      <weakClassifiers>
        <_>
          <internalNodes>
            0 -1 436 -1.1315720155835152e-02</internalNodes>
          <leafValues>
            3.8041600584983826e-01 -6.5542960166931152e-01</leafValues></_>
        <_>
          <internalNodes>
            0 -1 837 2.9130563139915466e-02</internalNodes>
          <leafValues>
            -2.7940002083778381e-01 5.7996064424514771e-01</leafValues></_>
        <_>
          <internalNodes>
            0 -1 638 4.5398332178592682e-02</internalNodes>
          <leafValues>
            -3.6898520588874817e-01 5.4268491268157959e-01</leafValues></_>
        <_>
          <internalNodes>
            0 -1 520 -6.5283952280879021e-03</internalNodes>
          <leafValues>
            3.9294135570526123e-01 -3.3706831932067871e-01</leafValues></_>
        <_>
          <internalNodes>
            0 -1 194 -8.3131417632102966e-02</internalNodes>
          <leafValues>
            7.8747624158859253e-01 -1.6597482562065125e-01</leafValues></_>
        <_>
          <internalNodes>
            0 -1 195 9.8098605871200562e-02</internalNodes>
          <leafValues>
            -1.0720317810773849e-01 1.0165736675262451e+00</leafValues></_>
        <_>
          <internalNodes>
            0 -1 944 1.6853848937898874e-03</internalNodes>
          <leafValues>
            -2.7142465114593506e-01 5.1421767473220825e-01</leafValues></_>
        <_>
          <internalNodes>
            0 -1 851 -2.7678379788994789e-02</internalNodes>
          <leafValues>
            5.7862716913223267e-01 -2.1628417074680328e-01</leafValues></_>
        <_>
          <internalNodes>
            0 -1 800 -6.3994955271482468e-03</internalNodes>
          <leafValues>
            4.5646464824676514e-01 -1.7817880213260651e-01</leafValues></_>
        <_>
          <internalNodes>
            0 -1 181 -2.0145207643508911e-02</internalNodes>
          <leafValues>
            4.4867852330207825e-01 -1.9539248943328857e-01</leafValues></_>
        <_>
          <internalNodes>
            0 -1 10 5.9907682240009308e-02</internalNodes>
          <leafValues>
            -1.7144894599914551e-01 6.5173554420471191e-01</leafValues></_>
        <_>
          <internalNodes>
            0 -1 19 -4.3222850561141968e-01</internalNodes>
          <leafValues>
            -9.5493155717849731e-01 1.2689824402332306e-01</leafValues></_>
        <_>
          <internalNodes>
            0 -1 323 -1.0115956887602806e-02</internalNodes>
          <leafValues>
            3.7515410780906677e-01 -2.1430972218513489e-01</leafValues></_>
        <_>
          <internalNodes>
            0 -1 724 5.0315216183662415e-02</internalNodes>
          <leafValues>
            -1.2528955936431885e-01 6.7272967100143433e-01</leafValues></_>
        <_>
          <internalNodes>
            0 -1 813 -5.0236391834914684e-03</internalNodes>
          <leafValues>
            4.8050868511199951e-01 -1.9565062224864960e-01</leafValues></_>
        <_>
          <internalNodes>
            0 -1 354 1.1122123338282108e-02</internalNodes>
          <leafValues>
            -1.8701228499412537e-01 4.6224835515022278e-01</leafValues></_>
        <_>
          <internalNodes>
            0 -1 340 -2.0070821046829224e-02</internalNodes>
          <leafValues>
            5.6099015474319458e-01 -1.5527437627315521e-01</leafValues></_>
        <_>
          <internalNodes>
            0 -1 725 -2.3441342636942863e-03</internalNodes>
          <leafValues>
            3.8140127062797546e-01 -1.8897213041782379e-01</leafValues></_>
        <_>
          <internalNodes>
            0 -1 633 9.3954391777515411e-03</internalNodes>
          <leafValues>
            -2.5891736149787903e-01 2.9071071743965149e-01</leafValues></_>
        <_>
          <internalNodes>
            0 -1 939 -2.0925821736454964e-03</internalNodes>
          <leafValues>
            4.3081188201904297e-01 -1.6697643697261810e-01</leafValues></_>
        <_>
          <internalNodes>
            0 -1 438 -5.9763509780168533e-02</internalNodes>
          <leafValues>
            6.1890035867691040e-01 -1.2338685244321823e-01</leafValues></_>
        <_>
          <internalNodes>
            0 -1 622 3.4287020564079285e-02</internalNodes>
          <leafValues>
            8.9365363121032715e-02 -1.0265135765075684e+00</leafValues></_></weakClassifiers></_>
    <!-- stage 2 -->
    <_>
      <maxWeakCount>35</maxWeakCount>
      <stageThreshold>-2.0215668678283691e+00</stageThreshold>
      <weakClassifiers>
        <_>
          <internalNodes>
            0 -1 613 -5.9088687412440777e-03</internalNodes>
          <leafValues>
            3.1912124156951904e-01 -5.7009279727935791e-01</leafValues></_>
        <_>
          <internalNodes>
            0 -1 556 3.6789895966649055e-03</internalNodes>
          <leafValues>
            -3.2464778423309326e-01 4.1162788867950439e-01</leafValues></_>
        <_>
          <internalNodes>
            0 -1 504 2.3020640015602112e-02</internalNodes>
          <leafValues>
            -2.6867333054542542e-01 4.4888493418693542e-01</leafValues></_>
        <_>
          <internalNodes>
            0 -1 461 1.7453536391258240e-02</internalNodes>
          <leafValues>
            -2.3529744148254395e-01 4.7419282793998718e-01</leafValues></_>
        <_>
          <internalNodes>
            0 -1 132 1.7672492191195488e-02</internalNodes>
          <leafValues>
            -2.1759852766990662e-01 3.9831489324569702e-01</leafValues></_>
        <_>
          <internalNodes>
            0 -1 938 2.6462650857865810e-03</internalNodes>
          <leafValues>
            -1.2867195904254913e-01 5.2240520715713501e-01</leafValues></_>
        <_>
          <internalNodes>
            0 -1 988 8.2648395618889481e-05</internalNodes>
          <leafValues>
            -2.3831433057785034e-01 2.9422771930694580e-01</leafValues></_>
        <_>
          <internalNodes>
            0 -1 743 6.6093550994992256e-03</internalNodes>
          <leafValues>
            -1.6756111383438110e-01 4.8236367106437683e-01</leafValues></_>
        <_>
          <internalNodes>
            0 -1 304 -4.8208210617303848e-02</internalNodes>
          <leafValues>
            -5.1937359571456909e-01 1.5994489192962646e-01</leafValues></_>
        <_>
          <internalNodes>
            0 -1 127 8.6916424334049225e-02</internalNodes>
          <leafValues>
            4.5555032789707184e-02 -1.4109889268875122e+00</leafValues></_>
        <_>
          <internalNodes>
            0 -1 777 2.7119718492031097e-02</internalNodes>
          <leafValues>
            8.4100015461444855e-02 -8.6137896776199341e-01</leafValues></_>
        <_>
          <internalNodes>
            0 -1 265 -5.9979278594255447e-03</internalNodes>
          <leafValues>
            3.7735354900360107e-01 -1.4427481591701508e-01</leafValues></_>
        <_>
          <internalNodes>
            0 -1 265 6.1275688931345940e-03</internalNodes>
          <leafValues>
            -1.6903239488601685e-01 4.4552662968635559e-01</leafValues></_>
        <_>
          <internalNodes>
            0 -1 744 -1.5491865575313568e-02</internalNodes>
          <leafValues>
            4.4403597712516785e-01 -1.3422523438930511e-01</leafValues></_>
        <_>
          <internalNodes>
            0 -1 453 -1.9454796565696597e-03</internalNodes>
          <leafValues>
            4.1320890188217163e-01 -1.5653078258037567e-01</leafValues></_>
        <_>
          <internalNodes>
            0 -1 390 -8.5922507569193840e-03</internalNodes>
          <leafValues>
            4.2080879211425781e-01 -1.5127411484718323e-01</leafValues></_>
        <_>
          <internalNodes>
            0 -1 8 -2.0552312955260277e-02</internalNodes>
          <leafValues>
            -6.0292369127273560e-01 1.0256444662809372e-01</leafValues></_>
        <_>
          <internalNodes>
            0 -1 729 3.1556319445371628e-03</internalNodes>
          <leafValues>
            -1.9561676681041718e-01 3.2091930508613586e-01</leafValues></_>
        <_>
          <internalNodes>
            0 -1 730 8.0140285193920135e-02</internalNodes>
          <leafValues>
            -7.2164021432399750e-02 1.0889930725097656e+00</leafValues></_>
        <_>
          <internalNodes>
            0 -1 338 -1.9388524815440178e-02</internalNodes>
          <leafValues>
            3.5229477286338806e-01 -1.5827494859695435e-01</leafValues></_>
        <_>
          <internalNodes>
            0 -1 313 -7.1512898430228233e-03</internalNodes>
          <leafValues>
            3.2782492041587830e-01 -1.8121097981929779e-01</leafValues></_>
        <_>
          <internalNodes>
            0 -1 546 -5.7811301201581955e-02</internalNodes>
          <leafValues>
            3.8225415349006653e-01 -1.3781951367855072e-01</leafValues></_>
        <_>
          <internalNodes>
            0 -1 962 1.0830708779394627e-02</internalNodes>
          <leafValues>
            -1.8173535168170929e-01 3.7772414088249207e-01</leafValues></_>
        <_>
          <internalNodes>
            0 -1 389 4.3712109327316284e-03</internalNodes>
          <leafValues>
            -1.3359327614307404e-01 4.2174533009529114e-01</leafValues></_>
        <_>
          <internalNodes>
            0 -1 679 -9.4990973593667150e-05</internalNodes>
          <leafValues>
            2.2794090211391449e-01 -2.3784999549388885e-01</leafValues></_>
        <_>
          <internalNodes>
            0 -1 433 -2.1457687020301819e-02</internalNodes>
          <leafValues>
            5.3567802906036377e-01 -1.0535231232643127e-01</leafValues></_>
        <_>
          <internalNodes>
            0 -1 932 -2.8506042435765266e-03</internalNodes>
          <leafValues>
            5.3448998928070068e-01 -9.7601316869258881e-02</leafValues></_>
        <_>
          <internalNodes>
            0 -1 979 8.1177371612284333e-05</internalNodes>
          <leafValues>
            -1.6951087117195129e-01 2.5330165028572083e-01</leafValues></_>
        <_>
          <internalNodes>
            0 -1 305 -2.6293892413377762e-02</internalNodes>
          <leafValues>
            -2.7080816030502319e-01 1.9182185828685760e-01</leafValues></_>
        <_>
          <internalNodes>
            0 -1 444 -1.6708518378436565e-03</internalNodes>
          <leafValues>
            3.4748706221580505e-01 -1.3407136499881744e-01</leafValues></_>
        <_>
          <internalNodes>
            0 -1 549 1.0116736590862274e-01</internalNodes>
          <leafValues>
            -1.2767830491065979e-01 3.8694378733634949e-01</leafValues></_>
        <_>
          <internalNodes>
            0 -1 455 -8.7820962071418762e-03</internalNodes>
          <leafValues>
            5.6300890445709229e-01 -9.9224761128425598e-02</leafValues></_>
        <_>
          <internalNodes>
            0 -1 250 -9.9868457764387131e-03</internalNodes>
          <leafValues>
            2.6997497677803040e-01 -1.9036839902400970e-01</leafValues></_>
        <_>
          <internalNodes>
            0 -1 734 -4.5800888910889626e-03</internalNodes>
          <leafValues>
            6.0806256532669067e-01 -9.7444072365760803e-02</leafValues></_>
        <_>
          <internalNodes>
            0 -1 812 -1.7556911334395409e-03</internalNodes>
          <leafValues>
            3.6866170167922974e-01 -1.5178203582763672e-01</leafValues></_></weakClassifiers></_>
    <!-- stage 3 -->
    <_>
      <maxWeakCount>26</maxWeakCount>
      <stageThreshold>-1.8819501399993896e+00</stageThreshold>
      <weakClassifiers>
        <_>
          <internalNodes>
            0 -1 423 -4.3178863823413849e-02</internalNodes>
          <leafValues>
            5.8422172069549561e-01 -6.0941052436828613e-01</leafValues></_>
        <_>
          <internalNodes>
            0 -1 64 -1.1456817388534546e-01</internalNodes>
          <leafValues>
            7.6330572366714478e-01 -2.3125500977039337e-01</leafValues></_>
        <_>
          <internalNodes>
            0 -1 155 1.9870357215404510e-01</internalNodes>
          <leafValues>
            -2.3354461789131165e-01 7.0123684406280518e-01</leafValues></_>
        <_>
          <internalNodes>
            0 -1 888 4.3737702071666718e-02</internalNodes>
          <leafValues>
            -1.6176702082157135e-01 6.7913544178009033e-01</leafValues></_>
        <_>
          <internalNodes>
            0 -1 308 -7.0271790027618408e-02</internalNodes>
          <leafValues>
            4.0160259604454041e-01 -3.0587714910507202e-01</leafValues></_>
        <_>
          <internalNodes>
            0 -1 751 4.7273874282836914e-02</internalNodes>
          <leafValues>
            -1.6399863362312317e-01 5.7798951864242554e-01</leafValues></_>
        <_>
          <internalNodes>
            0 -1 517 -3.6758724600076675e-03</internalNodes>
          <leafValues>
            2.9185429215431213e-01 -3.0482870340347290e-01</leafValues></_>
        <_>
          <internalNodes>
            0 -1 364 5.2464697510004044e-03</internalNodes>
          <leafValues>
            -1.1678831279277802e-01 5.8856028318405151e-01</leafValues></_>
        <_>
          <internalNodes>
            0 -1 651 5.4364516399800777e-03</internalNodes>
          <leafValues>
            -1.6303263604640961e-01 6.1870151758193970e-01</leafValues></_>
        <_>
          <internalNodes>
            0 -1 516 -6.6829353570938110e-02</internalNodes>
          <leafValues>
            5.8629161119461060e-01 -1.2475523352622986e-01</leafValues></_>
        <_>
          <internalNodes>
            0 -1 892 -2.3825191892683506e-03</internalNodes>
          <leafValues>
            3.8152691721916199e-01 -1.8736074864864349e-01</leafValues></_>
        <_>
          <internalNodes>
            0 -1 562 -2.6807598769664764e-03</internalNodes>
          <leafValues>
            5.4224449396133423e-01 -1.2027405202388763e-01</leafValues></_>
        <_>
          <internalNodes>
            0 -1 221 -4.9556888639926910e-02</internalNodes>
          <leafValues>
            3.3727169036865234e-01 -1.9687643647193909e-01</leafValues></_>
        <_>
          <internalNodes>
            0 -1 320 1.9826418161392212e-01</internalNodes>
          <leafValues>
            -1.5663333237171173e-01 5.9026318788528442e-01</leafValues></_>
        <_>
          <internalNodes>
            0 -1 178 -1.0867478325963020e-02</internalNodes>
          <leafValues>
            5.1957345008850098e-01 -1.6184476017951965e-01</leafValues></_>
        <_>
          <internalNodes>
            0 -1 72 -1.1217978782951832e-02</internalNodes>
          <leafValues>
            4.4103237986564636e-01 -1.5390549600124359e-01</leafValues></_>
        <_>
          <internalNodes>
            0 -1 565 1.5670420229434967e-01</internalNodes>
          <leafValues>
            1.1981780081987381e-01 -5.4599559307098389e-01</leafValues></_>
        <_>
          <internalNodes>
            0 -1 400 3.1390436924993992e-03</internalNodes>
          <leafValues>
            -1.3864120841026306e-01 4.1564628481864929e-01</leafValues></_>
        <_>
          <internalNodes>
            0 -1 753 5.0641715526580811e-02</internalNodes>
          <leafValues>
            -9.1496616601943970e-02 7.0529347658157349e-01</leafValues></_>
        <_>
          <internalNodes>
            0 -1 382 -6.2740013003349304e-02</internalNodes>
          <leafValues>
            -4.3680310249328613e-01 1.3338284194469452e-01</leafValues></_>
        <_>
          <internalNodes>
            0 -1 262 -3.5012082662433386e-03</internalNodes>
          <leafValues>
            3.8943389058113098e-01 -1.4074975252151489e-01</leafValues></_>
        <_>
          <internalNodes>
            0 -1 732 2.4424090515822172e-03</internalNodes>
          <leafValues>
            -1.8773113191127777e-01 2.8368347883224487e-01</leafValues></_>
        <_>
          <internalNodes>
            0 -1 656 3.5189639776945114e-02</internalNodes>
          <leafValues>
            -9.4008892774581909e-02 6.0716748237609863e-01</leafValues></_>
        <_>
          <internalNodes>
            0 -1 739 2.2789689246565104e-03</internalNodes>
          <leafValues>
            -1.5005615353584290e-01 3.7789410352706909e-01</leafValues></_>
        <_>
          <internalNodes>
            0 -1 489 2.0499627292156219e-01</internalNodes>
          <leafValues>
            -1.1143072694540024e-01 4.9070352315902710e-01</leafValues></_>
        <_>
          <internalNodes>
            0 -1 267 7.5006797909736633e-02</internalNodes>
          <leafValues>
            -1.4043104648590088e-01 4.2699721455574036e-01</leafValues></_></weakClassifiers></_>
    <!-- stage 4 -->
    <_>
      <maxWeakCount>39</maxWeakCount>
      <stageThreshold>-1.7246725559234619e+00</stageThreshold>
      <weakClassifiers>
        <_>
          <internalNodes>
            0 -1 25 -2.4189078807830811e-01</internalNodes>
          <leafValues>
            3.3589702844619751e-01 -4.7227603197097778e-01</leafValues></_>
        <_>
          <internalNodes>
            0 -1 539 7.2633408010005951e-02</internalNodes>
          <leafValues>
            -2.7034580707550049e-01 5.7921320199966431e-01</leafValues></_>
        <_>
          <internalNodes>
            0 -1 522 1.0929740965366364e-02</internalNodes>
          <leafValues>
            -2.5767681002616882e-01 3.7699326872825623e-01</leafValues></_>
        <_>
          <internalNodes>
            0 -1 505 -1.0124908294528723e-03</internalNodes>
          <leafValues>
            2.8630959987640381e-01 -2.3687689006328583e-01</leafValues></_>
        <_>
          <internalNodes>
            0 -1 829 1.0755008459091187e-01</internalNodes>
          <leafValues>
            -1.4887176454067230e-01 4.2849090695381165e-01</leafValues></_>
        <_>
          <internalNodes>
            0 -1 809 -5.4793534800410271e-03</internalNodes>
          <leafValues>
            3.6160191893577576e-01 -1.4910800755023956e-01</leafValues></_>
        <_>
          <internalNodes>
            0 -1 865 2.2320607677102089e-03</internalNodes>
          <leafValues>
            -9.1025859117507935e-02 4.2231696844100952e-01</leafValues></_>
        <_>
          <internalNodes>
            0 -1 252 2.0611478388309479e-01</internalNodes>
          <leafValues>
            -1.2592051923274994e-01 4.2900463938713074e-01</leafValues></_>
        <_>
          <internalNodes>
            0 -1 107 -9.1353720054030418e-03</internalNodes>
          <leafValues>
            2.7828475832939148e-01 -2.1430468559265137e-01</leafValues></_>
        <_>
          <internalNodes>
            0 -1 337 -4.8207808285951614e-03</internalNodes>
          <leafValues>
            3.5484841465950012e-01 -1.2589989602565765e-01</leafValues></_>
        <_>
          <internalNodes>
            0 -1 95 -2.1717185154557228e-03</internalNodes>
          <leafValues>
            3.0536931753158569e-01 -1.3983196020126343e-01</leafValues></_>
        <_>
          <internalNodes>
            0 -1 632 -7.7100247144699097e-03</internalNodes>
          <leafValues>
            2.4583917856216431e-01 -1.9196552038192749e-01</leafValues></_>
        <_>
          <internalNodes>
            0 -1 315 -5.3645491600036621e-02</internalNodes>
          <leafValues>
            3.1897526979446411e-01 -1.5150555968284607e-01</leafValues></_>
        <_>
          <internalNodes>
            0 -1 859 1.2760430574417114e-02</internalNodes>
          <leafValues>
            -1.5888544917106628e-01 2.7364131808280945e-01</leafValues></_>
        <_>
          <internalNodes>
            0 -1 801 1.3920580968260765e-02</internalNodes>
          <leafValues>
            -1.5233793854713440e-01 3.4964370727539062e-01</leafValues></_>
        <_>
          <internalNodes>
            0 -1 468 -3.1315316446125507e-03</internalNodes>
          <leafValues>
            2.8707116842269897e-01 -2.3614211380481720e-01</leafValues></_>
        <_>
          <internalNodes>
            0 -1 409 8.2962036132812500e-02</internalNodes>
          <leafValues>
            -1.0109998285770416e-01 4.9637147784233093e-01</leafValues></_>
        <_>
          <internalNodes>
            0 -1 374 -1.3242458924651146e-02</internalNodes>
          <leafValues>
            3.5448741912841797e-01 -1.0934149473905563e-01</leafValues></_>
        <_>
          <internalNodes>
            0 -1 563 -3.9228014647960663e-03</internalNodes>
          <leafValues>
            2.5806620717048645e-01 -1.6029712557792664e-01</leafValues></_>
        <_>
          <internalNodes>
            0 -1 626 -9.5683373510837555e-03</internalNodes>
          <leafValues>
            2.5026500225067139e-01 -1.7255665361881256e-01</leafValues></_>
        <_>
          <internalNodes>
            0 -1 542 1.8173132091760635e-02</internalNodes>
          <leafValues>
            -6.3259154558181763e-02 6.6490429639816284e-01</leafValues></_>
        <_>
          <internalNodes>
            0 -1 145 2.6676598936319351e-02</internalNodes>
          <leafValues>
            7.4603863060474396e-02 -5.9399706125259399e-01</leafValues></_>
        <_>
          <internalNodes>
            0 -1 213 7.5778335332870483e-02</internalNodes>
          <leafValues>
            4.3470188975334167e-02 -1.6234152317047119e+00</leafValues></_>
        <_>
          <internalNodes>
            0 -1 200 -2.1590418182313442e-03</internalNodes>
          <leafValues>
            3.1977206468582153e-01 -1.4970667660236359e-01</leafValues></_>
        <_>
          <internalNodes>
            0 -1 586 1.7651717364788055e-01</internalNodes>
          <leafValues>
            -1.0294831544160843e-01 3.8197353482246399e-01</leafValues></_>
        <_>
          <internalNodes>
            0 -1 608 -2.0593272522091866e-02</internalNodes>
          <leafValues>
            3.6019790172576904e-01 -1.3196112215518951e-01</leafValues></_>
        <_>
          <internalNodes>
            0 -1 561 -3.2592872157692909e-03</internalNodes>
          <leafValues>
            4.0228983759880066e-01 -1.2069607526063919e-01</leafValues></_>
        <_>
          <internalNodes>
            0 -1 861 -1.5113208442926407e-02</internalNodes>
          <leafValues>
            3.8650661706924438e-01 -1.0577473789453506e-01</leafValues></_>
        <_>
          <internalNodes>
            0 -1 514 -3.3467528410255909e-03</internalNodes>
          <leafValues>
            2.7950799465179443e-01 -1.3545031845569611e-01</leafValues></_>
        <_>
          <internalNodes>
            0 -1 298 1.2365822680294514e-02</internalNodes>
          <leafValues>
            9.8733887076377869e-02 -4.3202689290046692e-01</leafValues></_>
        <_>
          <internalNodes>
            0 -1 930 -3.9743339584674686e-05</internalNodes>
          <leafValues>
            2.1022461354732513e-01 -2.2131152451038361e-01</leafValues></_>
        <_>
          <internalNodes>
            0 -1 487 1.3030529022216797e-01</internalNodes>
          <leafValues>
            4.7615259885787964e-02 -1.0445739030838013e+00</leafValues></_>
        <_>
          <internalNodes>
            0 -1 99 2.8023816645145416e-02</internalNodes>
          <leafValues>
            -9.1865085065364838e-02 4.7568655014038086e-01</leafValues></_>
        <_>
          <internalNodes>
            0 -1 677 -3.1692065298557281e-02</internalNodes>
          <leafValues>
            -8.0191242694854736e-01 5.8419156819581985e-02</leafValues></_>
        <_>
          <internalNodes>
            0 -1 880 2.5701557751744986e-03</internalNodes>
          <leafValues>
            -1.2661699950695038e-01 3.9040940999984741e-01</leafValues></_>
        <_>
          <internalNodes>
            0 -1 873 -7.8490208834409714e-03</internalNodes>
          <leafValues>
            4.2871060967445374e-01 -8.5731998085975647e-02</leafValues></_>
        <_>
          <internalNodes>
            0 -1 223 -1.8295192718505859e-01</internalNodes>
          <leafValues>
            2.5899121165275574e-01 -1.3031750917434692e-01</leafValues></_>
        <_>
          <internalNodes>
            0 -1 122 6.4225375652313232e-02</internalNodes>
          <leafValues>
            -1.1556749045848846e-01 3.5728004574775696e-01</leafValues></_>
        <_>
          <internalNodes>
            0 -1 966 6.4081042073667049e-03</internalNodes>
          <leafValues>
            -1.0810212045907974e-01 3.8176527619361877e-01</leafValues></_></weakClassifiers></_>
    <!-- stage 5 -->
    <_>
      <maxWeakCount>47</maxWeakCount>
      <stageThreshold>-1.7553832530975342e+00</stageThreshold>
      <weakClassifiers>
        <_>
          <internalNodes>
            0 -1 141 -7.9648047685623169e-02</internalNodes>
          <leafValues>
            2.7312803268432617e-01 -5.1167988777160645e-01</leafValues></_>
        <_>
          <internalNodes>
            0 -1 89 -1.3547930121421814e-01</internalNodes>
          <leafValues>
            4.7770819067955017e-01 -2.4143199622631073e-01</leafValues></_>
        <_>
          <internalNodes>
            0 -1 704 -1.9652049522846937e-03</internalNodes>
          <leafValues>
            3.0120626091957092e-01 -2.6369735598564148e-01</leafValues></_>
        <_>
          <internalNodes>
            0 -1 623 1.1716768145561218e-01</internalNodes>
          <leafValues>
            -2.3719085752964020e-01 4.3376573920249939e-01</leafValues></_>
        <_>
          <internalNodes>
            0 -1 883 4.9344107508659363e-02</internalNodes>
          <leafValues>
            -6.6571123898029327e-02 6.2114524841308594e-01</leafValues></_>
        <_>
          <internalNodes>
            0 -1 196 1.3514155149459839e-01</internalNodes>
          <leafValues>
            -1.1909265816211700e-01 5.5997961759567261e-01</leafValues></_>
        <_>
          <internalNodes>
            0 -1 108 -1.4236091636121273e-02</internalNodes>
          <leafValues>
            3.6049443483352661e-01 -1.4363822340965271e-01</leafValues></_>
        <_>
          <internalNodes>
            0 -1 243 1.5167616307735443e-02</internalNodes>
          <leafValues>
            -1.8947982788085938e-01 3.7140762805938721e-01</leafValues></_>
        <_>
          <internalNodes>
            0 -1 641 1.0705169290304184e-02</internalNodes>
          <leafValues>
            -1.0223987698554993e-01 7.0783907175064087e-01</leafValues></_>
        <_>
          <internalNodes>
            0 -1 509 -6.0439445078372955e-03</internalNodes>
          <leafValues>
            3.1903573870658875e-01 -1.8956220149993896e-01</leafValues></_>
        <_>
          <internalNodes>
            0 -1 740 3.7874430418014526e-03</internalNodes>
          <leafValues>
            -8.6185716092586517e-02 4.5533862709999084e-01</leafValues></_>
        <_>
          <internalNodes>
            0 -1 837 2.4270420894026756e-02</internalNodes>
          <leafValues>
            -1.9734497368335724e-01 2.6729431748390198e-01</leafValues></_>
        <_>
          <internalNodes>
            0 -1 700 -8.7526496499776840e-03</internalNodes>
          <leafValues>
            3.6655211448669434e-01 -1.4035105705261230e-01</leafValues></_>
        <_>
          <internalNodes>
            0 -1 648 -2.8719305992126465e-03</internalNodes>
          <leafValues>
            2.5745502114295959e-01 -1.8151091039180756e-01</leafValues></_>
        <_>
          <internalNodes>
            0 -1 579 -3.4517939639044926e-05</internalNodes>
          <leafValues>
            2.2365483641624451e-01 -2.1777088940143585e-01</leafValues></_>
        <_>
          <internalNodes>
            0 -1 229 -2.3205470293760300e-02</internalNodes>
          <leafValues>
            5.7330518960952759e-01 -8.3129622042179108e-02</leafValues></_>
        <_>
          <internalNodes>
            0 -1 875 -4.9699698574841022e-03</internalNodes>
          <leafValues>
            3.4943172335624695e-01 -1.2563835084438324e-01</leafValues></_>
        <_>
          <internalNodes>
            0 -1 659 8.8947750627994537e-03</internalNodes>
          <leafValues>
            -1.1727210879325867e-01 3.6564862728118896e-01</leafValues></_>
        <_>
          <internalNodes>
            0 -1 512 -2.5411224924027920e-03</internalNodes>
          <leafValues>
            2.0371891558170319e-01 -1.9957184791564941e-01</leafValues></_>
        <_>
          <internalNodes>
            0 -1 367 -7.2338003665208817e-03</internalNodes>
          <leafValues>
            4.3419545888900757e-01 -1.0134788602590561e-01</leafValues></_>
        <_>
          <internalNodes>
            0 -1 371 -1.5321719693019986e-03</internalNodes>
          <leafValues>
            2.6188436150550842e-01 -1.4671881496906281e-01</leafValues></_>
        <_>
          <internalNodes>
            0 -1 748 -4.1388478130102158e-03</internalNodes>
          <leafValues>
            2.5825455784797668e-01 -1.4072883129119873e-01</leafValues></_>
        <_>
          <internalNodes>
            0 -1 501 2.7683176100254059e-02</internalNodes>
          <leafValues>
            -1.5884843468666077e-01 2.2576265037059784e-01</leafValues></_>
        <_>
          <internalNodes>
            0 -1 225 2.1470001339912415e-01</internalNodes>
          <leafValues>
            -8.2325898110866547e-02 6.4732819795608521e-01</leafValues></_>
        <_>
          <internalNodes>
            0 -1 176 -6.2519800849258900e-03</internalNodes>
          <leafValues>
            4.7191151976585388e-01 -9.2692993581295013e-02</leafValues></_>
        <_>
          <internalNodes>
            0 -1 365 1.6356565058231354e-02</internalNodes>
          <leafValues>
            -7.0385336875915527e-02 6.3634043931961060e-01</leafValues></_>
        <_>
          <internalNodes>
            0 -1 563 -7.8675616532564163e-03</internalNodes>
          <leafValues>
            2.9357552528381348e-01 -1.1819892376661301e-01</leafValues></_>
        <_>
          <internalNodes>
            0 -1 481 -2.5464098900556564e-02</internalNodes>
          <leafValues>
            -5.8254241943359375e-01 6.4384229481220245e-02</leafValues></_>
        <_>
          <internalNodes>
            0 -1 588 -1.9098570337519050e-03</internalNodes>
          <leafValues>
            2.2701439261436462e-01 -1.8542228639125824e-01</leafValues></_>
        <_>
          <internalNodes>
            0 -1 139 2.9357302933931351e-02</internalNodes>
          <leafValues>
            -9.8064668476581573e-02 3.8459256291389465e-01</leafValues></_>
        <_>
          <internalNodes>
            0 -1 181 -2.7645494788885117e-02</internalNodes>
          <leafValues>
            2.9225000739097595e-01 -1.3940247893333435e-01</leafValues></_>
        <_>
          <internalNodes>
            0 -1 639 -8.9770322665572166e-03</internalNodes>
          <leafValues>
            2.2407205402851105e-01 -1.6653902828693390e-01</leafValues></_>
        <_>
          <internalNodes>
            0 -1 419 2.2943893447518349e-02</internalNodes>
          <leafValues>
            -8.1179998815059662e-02 4.3928533792495728e-01</leafValues></_>
        <_>
          <internalNodes>
            0 -1 395 8.9018270373344421e-03</internalNodes>
          <leafValues>
            -8.4892146289348602e-02 3.9287811517715454e-01</leafValues></_>
        <_>
          <internalNodes>
            0 -1 7 2.3629215359687805e-01</internalNodes>
          <leafValues>
            3.2819319516420364e-02 -1.6203531026840210e+00</leafValues></_>
        <_>
          <internalNodes>
            0 -1 134 -2.3229050636291504e-01</internalNodes>
          <leafValues>
            3.2946956157684326e-01 -1.0984015464782715e-01</leafValues></_>
        <_>
          <internalNodes>
            0 -1 439 2.5195032358169556e-02</internalNodes>
          <leafValues>
            -1.2128587812185287e-01 3.5186782479286194e-01</leafValues></_>
        <_>
          <internalNodes>
            0 -1 583 5.6843873113393784e-02</internalNodes>
          <leafValues>
            7.1380622684955597e-02 -5.1032644510269165e-01</leafValues></_>
        <_>
          <internalNodes>
            0 -1 688 -2.9186731204390526e-02</internalNodes>
          <leafValues>
            -1.1362437009811401e+00 3.7816025316715240e-02</leafValues></_>
        <_>
          <internalNodes>
            0 -1 894 -2.9096575453877449e-03</internalNodes>
          <leafValues>
            4.0686708688735962e-01 -8.5888452827930450e-02</leafValues></_>
        <_>
          <internalNodes>
            0 -1 709 -3.2098624855279922e-02</internalNodes>
          <leafValues>
            5.1204866170883179e-01 -6.9743126630783081e-02</leafValues></_>
        <_>
          <internalNodes>
            0 -1 208 2.3642001673579216e-02</internalNodes>
          <leafValues>
            7.9388365149497986e-02 -5.0865995883941650e-01</leafValues></_>
        <_>
          <internalNodes>
            0 -1 399 -2.3849760182201862e-03</internalNodes>
          <leafValues>
            2.6897829771041870e-01 -1.3772694766521454e-01</leafValues></_>
        <_>
          <internalNodes>
            0 -1 844 3.9210375689435750e-05</internalNodes>
          <leafValues>
            -1.8346609175205231e-01 1.9298522174358368e-01</leafValues></_>
        <_>
          <internalNodes>
            0 -1 704 2.3002065718173981e-03</internalNodes>
          <leafValues>
            -7.8817345201969147e-02 5.3117102384567261e-01</leafValues></_>
        <_>
          <internalNodes>
            0 -1 619 -1.1383783072233200e-02</internalNodes>
          <leafValues>
            3.4507891535758972e-01 -1.4386384189128876e-01</leafValues></_>
        <_>
          <internalNodes>
            0 -1 392 4.8717603087425232e-02</internalNodes>
          <leafValues>
            5.1937647163867950e-02 -8.6610424518585205e-01</leafValues></_></weakClassifiers></_>
    <!-- stage 6 -->
    <_>
      <maxWeakCount>63</maxWeakCount>
      <stageThreshold>-1.7547777891159058e+00</stageThreshold>
      <weakClassifiers>
        <_>
          <internalNodes>
            0 -1 144 -5.6686115264892578e-01</internalNodes>
          <leafValues>
            5.9365653991699219e-01 -3.9520215988159180e-01</leafValues></_>
        <_>
          <internalNodes>
            0 -1 451 7.8382939100265503e-02</internalNodes>
          <leafValues>
            -1.6712872684001923e-01 6.2935423851013184e-01</leafValues></_>
        <_>
          <internalNodes>
            0 -1 606 -1.5338566154241562e-03</internalNodes>
          <leafValues>
            2.6554065942764282e-01 -3.1945231556892395e-01</leafValues></_>
        <_>
          <internalNodes>
            0 -1 646 5.4865209385752678e-03</internalNodes>
          <leafValues>
            -1.9871407747268677e-01 2.8450942039489746e-01</leafValues></_>
        <_>
          <internalNodes>
            0 -1 437 -5.2022404968738556e-02</internalNodes>
          <leafValues>
            5.5172562599182129e-01 -1.1602202802896500e-01</leafValues></_>
        <_>
          <internalNodes>
            0 -1 187 -2.2019170224666595e-02</internalNodes>
          <leafValues>
            2.7980047464370728e-01 -2.1094673871994019e-01</leafValues></_>
        <_>
          <internalNodes>
            0 -1 864 4.2448341846466064e-03</internalNodes>
          <leafValues>
            -1.1595702916383743e-01 4.1683256626129150e-01</leafValues></_>
        <_>
          <internalNodes>
            0 -1 614 6.0048373416066170e-03</internalNodes>
          <leafValues>
            -1.2467709183692932e-01 5.2992886304855347e-01</leafValues></_>
        <_>
          <internalNodes>
            0 -1 612 -9.0931802988052368e-03</internalNodes>
          <leafValues>
            -4.9796301126480103e-01 8.7551057338714600e-02</leafValues></_>
        <_>
          <internalNodes>
            0 -1 704 -9.1171110398136079e-05</internalNodes>
          <leafValues>
            1.6021236777305603e-01 -2.7071255445480347e-01</leafValues></_>
        <_>
          <internalNodes>
            0 -1 814 6.3841966912150383e-03</internalNodes>
          <leafValues>
            -1.0075248032808304e-01 4.0022686123847961e-01</leafValues></_>
        <_>
          <internalNodes>
            0 -1 324 -1.9369520246982574e-02</internalNodes>
          <leafValues>
            2.9716476798057556e-01 -1.3482788205146790e-01</leafValues></_>
        <_>
          <internalNodes>
            0 -1 287 1.5914889052510262e-02</internalNodes>
          <leafValues>
            -1.2269568443298340e-01 3.6247563362121582e-01</leafValues></_>
        <_>
          <internalNodes>
            0 -1 856 9.2057630419731140e-02</internalNodes>
          <leafValues>
            -1.3005487620830536e-01 3.6670079827308655e-01</leafValues></_>
        <_>
          <internalNodes>
            0 -1 679 -9.1116933617740870e-05</internalNodes>
          <leafValues>
            1.9299040734767914e-01 -2.3087069392204285e-01</leafValues></_>
        <_>
          <internalNodes>
            0 -1 803 1.1060085147619247e-02</internalNodes>
          <leafValues>
            -8.4567800164222717e-02 4.4001817703247070e-01</leafValues></_>
        <_>
          <internalNodes>
            0 -1 445 2.0290687680244446e-02</internalNodes>
          <leafValues>
            -7.1043975651264191e-02 6.0315245389938354e-01</leafValues></_>
        <_>
          <internalNodes>
            0 -1 51 -2.2683383524417877e-01</internalNodes>
          <leafValues>
            -7.6966714859008789e-01 5.3233765065670013e-02</leafValues></_>
        <_>
          <internalNodes>
            0 -1 454 -6.3104303553700447e-03</internalNodes>
          <leafValues>
            2.9389065504074097e-01 -1.4000852406024933e-01</leafValues></_>
        <_>
          <internalNodes>
            0 -1 914 5.9068299829959869e-02</internalNodes>
          <leafValues>
            -1.1632376164197922e-01 3.5087797045707703e-01</leafValues></_>
        <_>
          <internalNodes>
            0 -1 101 8.9904024207498878e-05</internalNodes>
          <leafValues>
            -1.5684005618095398e-01 2.2212548553943634e-01</leafValues></_>
        <_>
          <internalNodes>
            0 -1 906 -2.6000659912824631e-02</internalNodes>
          <leafValues>
            -1.0163435935974121e+00 4.5139651745557785e-02</leafValues></_>
        <_>
          <internalNodes>
            0 -1 619 -2.1138351410627365e-02</internalNodes>
          <leafValues>
            5.0704854726791382e-01 -9.0623877942562103e-02</leafValues></_>
        <_>
          <internalNodes>
            0 -1 202 -5.3985536098480225e-02</internalNodes>
          <leafValues>
            3.2553580403327942e-01 -1.0081596672534943e-01</leafValues></_>
        <_>
          <internalNodes>
            0 -1 50 -9.4327561557292938e-02</internalNodes>
          <leafValues>
            -3.1557494401931763e-01 1.3315461575984955e-01</leafValues></_>
        <_>
          <internalNodes>
            0 -1 893 -5.9159961529076099e-03</internalNodes>
          <leafValues>
            3.5404920578002930e-01 -1.0516002029180527e-01</leafValues></_>
        <_>
          <internalNodes>
            0 -1 973 -1.1708203965099528e-04</internalNodes>
          <leafValues>
            2.2374704480171204e-01 -1.6574101150035858e-01</leafValues></_>
        <_>
          <internalNodes>
            0 -1 791 8.3115242421627045e-02</internalNodes>
          <leafValues>
            -9.3298159539699554e-02 3.8815698027610779e-01</leafValues></_>
        <_>
          <internalNodes>
            0 -1 544 -2.7904290705919266e-02</internalNodes>
          <leafValues>
            5.5334776639938354e-01 -6.5479442477226257e-02</leafValues></_>
        <_>
          <internalNodes>
            0 -1 775 -2.5945413857698441e-02</internalNodes>
          <leafValues>
            -4.1874402761459351e-01 7.5536951422691345e-02</leafValues></_>
        <_>
          <internalNodes>
            0 -1 421 2.7043629437685013e-02</internalNodes>
          <leafValues>
            -6.0986135154962540e-02 5.4889261722564697e-01</leafValues></_>
        <_>
          <internalNodes>
            0 -1 710 9.7395022748969495e-05</internalNodes>
          <leafValues>
            -2.1856904029846191e-01 1.5540017187595367e-01</leafValues></_>
        <_>
          <internalNodes>
            0 -1 380 -6.9031029939651489e-02</internalNodes>
          <leafValues>
            -5.9287339448928833e-01 5.4927937686443329e-02</leafValues></_>
        <_>
          <internalNodes>
            0 -1 916 9.6081283118110150e-05</internalNodes>
          <leafValues>
            -1.7114427685737610e-01 1.8633593618869781e-01</leafValues></_>
        <_>
          <internalNodes>
            0 -1 545 7.9297989606857300e-02</internalNodes>
          <leafValues>
            -4.5694932341575623e-02 6.8271708488464355e-01</leafValues></_>
        <_>
          <internalNodes>
            0 -1 839 -5.0656488165259361e-03</internalNodes>
          <leafValues>
            3.2271435856819153e-01 -9.6932999789714813e-02</leafValues></_>
        <_>
          <internalNodes>
            0 -1 569 -8.6382700828835368e-05</internalNodes>
          <leafValues>
            1.7756097018718719e-01 -1.5133278071880341e-01</leafValues></_>
        <_>
          <internalNodes>
            0 -1 149 -5.9638299047946930e-02</internalNodes>
          <leafValues>
            1.6557218134403229e-01 -1.6823281347751617e-01</leafValues></_>
        <_>
          <internalNodes>
            0 -1 450 1.3502433896064758e-01</internalNodes>
          <leafValues>
            7.0149786770343781e-02 -4.7356805205345154e-01</leafValues></_>
        <_>
          <internalNodes>
            0 -1 86 -3.8933150470256805e-02</internalNodes>
          <leafValues>
            -1.7072081565856934e+00 3.1962964683771133e-02</leafValues></_>
        <_>
          <internalNodes>
            0 -1 8 -3.2164171338081360e-02</internalNodes>
          <leafValues>
            -1.0065211057662964e+00 3.6944031715393066e-02</leafValues></_>
        <_>
          <internalNodes>
            0 -1 11 -1.7047300934791565e-01</internalNodes>
          <leafValues>
            3.3815312385559082e-01 -9.0505428612232208e-02</leafValues></_>
        <_>
          <internalNodes>
            0 -1 806 6.3690617680549622e-03</internalNodes>
          <leafValues>
            -9.2534869909286499e-02 3.3837664127349854e-01</leafValues></_>
        <_>
          <internalNodes>
            0 -1 830 -2.7468744665384293e-03</internalNodes>
          <leafValues>
            2.4122948944568634e-01 -1.2995524704456329e-01</leafValues></_>
        <_>
          <internalNodes>
            0 -1 608 -2.8956502676010132e-02</internalNodes>
          <leafValues>
            4.1187143325805664e-01 -8.0189265310764313e-02</leafValues></_>
        <_>
          <internalNodes>
            0 -1 873 -3.7192888557910919e-03</internalNodes>
          <leafValues>
            2.5695332884788513e-01 -1.2096887826919556e-01</leafValues></_>
        <_>
          <internalNodes>
            0 -1 674 3.4845010377466679e-03</internalNodes>
          <leafValues>
            1.3511139154434204e-01 -2.3932163417339325e-01</leafValues></_>
        <_>
          <internalNodes>
            0 -1 958 8.5817966610193253e-03</internalNodes>
          <leafValues>
            6.2431573867797852e-02 -5.0095409154891968e-01</leafValues></_>
        <_>
          <internalNodes>
            0 -1 550 -2.6408517360687256e-01</internalNodes>
          <leafValues>
            -8.4474986791610718e-01 4.0791202336549759e-02</leafValues></_>
        <_>
          <internalNodes>
            0 -1 860 1.1243954300880432e-02</internalNodes>
          <leafValues>
            -9.1983541846275330e-02 3.4800344705581665e-01</leafValues></_>
        <_>
          <internalNodes>
            0 -1 600 -8.0208716099150479e-05</internalNodes>
          <leafValues>
            1.9563023746013641e-01 -1.5186521410942078e-01</leafValues></_>
        <_>
          <internalNodes>
            0 -1 432 -6.1537781730294228e-03</internalNodes>
          <leafValues>
            2.5478205084800720e-01 -1.2419225275516510e-01</leafValues></_>
        <_>
          <internalNodes>
            0 -1 448 8.3566652610898018e-03</internalNodes>
          <leafValues>
            -1.2045309692621231e-01 2.6489838957786560e-01</leafValues></_>
        <_>
          <internalNodes>
            0 -1 104 -1.3773601967841387e-03</internalNodes>
          <leafValues>
            1.5649887919425964e-01 -2.0210540294647217e-01</leafValues></_>
        <_>
          <internalNodes>
            0 -1 28 -3.6718279123306274e-02</internalNodes>
          <leafValues>
            -3.4057331085205078e-01 1.0100973397493362e-01</leafValues></_>
        <_>
          <internalNodes>
            0 -1 425 -3.4838607534766197e-03</internalNodes>
          <leafValues>
            2.2732985019683838e-01 -1.3040383160114288e-01</leafValues></_>
        <_>
          <internalNodes>
            0 -1 527 -8.1838254118338227e-05</internalNodes>
          <leafValues>
            1.8800692260265350e-01 -1.7375685274600983e-01</leafValues></_>
        <_>
          <internalNodes>
            0 -1 871 -5.1560080464696512e-05</internalNodes>
          <leafValues>
            1.7725554108619690e-01 -1.7744520306587219e-01</leafValues></_>
        <_>
          <internalNodes>
            0 -1 447 -5.4396674968302250e-03</internalNodes>
          <leafValues>
            2.9856449365615845e-01 -9.9629208445549011e-02</leafValues></_>
        <_>
          <internalNodes>
            0 -1 15 3.9297059178352356e-02</internalNodes>
          <leafValues>
            6.7692093551158905e-02 -4.2870131134986877e-01</leafValues></_>
        <_>
          <internalNodes>
            0 -1 685 -8.7389023974537849e-05</internalNodes>
          <leafValues>
            1.8314811587333679e-01 -1.6108562052249908e-01</leafValues></_>
        <_>
          <internalNodes>
            0 -1 568 -4.2391847819089890e-03</internalNodes>
          <leafValues>
            2.1731953322887421e-01 -1.4159075915813446e-01</leafValues></_>
        <_>
          <internalNodes>
            0 -1 244 -1.7191922664642334e-01</internalNodes>
          <leafValues>
            -4.2065903544425964e-01 9.4331651926040649e-02</leafValues></_></weakClassifiers></_>
    <!-- stage 7 -->
    <_>
      <maxWeakCount>61</maxWeakCount>
      <stageThreshold>-1.6552180051803589e+00</stageThreshold>
      <weakClassifiers>
        <_>
          <internalNodes>
            0 -1 231 -5.4219551384449005e-02</internalNodes>
          <leafValues>
            1.7119055986404419e-01 -4.9219715595245361e-01</leafValues></_>
        <_>
          <internalNodes>
            0 -1 78 -9.9105671048164368e-02</internalNodes>
          <leafValues>
            4.1804742813110352e-01 -1.8353049457073212e-01</leafValues></_>
        <_>
          <internalNodes>
            0 -1 523 -9.9492715671658516e-03</internalNodes>
          <leafValues>
            2.5031372904777527e-01 -2.1772313117980957e-01</leafValues></_>
        <_>
          <internalNodes>
            0 -1 342 4.5178554952144623e-02</internalNodes>
          <leafValues>
            -2.0655363798141479e-01 2.6522773504257202e-01</leafValues></_>
        <_>
          <internalNodes>
            0 -1 773 1.6800988465547562e-02</internalNodes>
          <leafValues>
            -1.7153175175189972e-01 3.5470506548881531e-01</leafValues></_>
        <_>
          <internalNodes>
            0 -1 190 1.1493998765945435e-01</internalNodes>
          <leafValues>
            -9.1101117432117462e-02 4.8339414596557617e-01</leafValues></_>
        <_>
          <internalNodes>
            0 -1 357 -3.9487492293119431e-02</internalNodes>
          <leafValues>
            3.1189900636672974e-01 -1.4489229023456573e-01</leafValues></_>
        <_>
          <internalNodes>
            0 -1 855 3.9047576487064362e-02</internalNodes>
          <leafValues>
            -8.3589799702167511e-02 4.4087901711463928e-01</leafValues></_>
        <_>
          <internalNodes>
            0 -1 826 -9.7155282273888588e-03</internalNodes>
          <leafValues>
            3.3465215563774109e-01 -1.2817253172397614e-01</leafValues></_>
        <_>
          <internalNodes>
            0 -1 61 4.8819664865732193e-02</internalNodes>
          <leafValues>
            -9.4980858266353607e-02 3.4894335269927979e-01</leafValues></_>
        <_>
          <internalNodes>
            0 -1 757 -7.0634181611239910e-05</internalNodes>
          <leafValues>
            1.7047348618507385e-01 -2.2184185683727264e-01</leafValues></_>
        <_>
          <internalNodes>
            0 -1 799 -6.4397118985652924e-03</internalNodes>
          <leafValues>
            3.4016802906990051e-01 -1.0489647835493088e-01</leafValues></_>
        <_>
          <internalNodes>
            0 -1 783 -8.2776918134186417e-05</internalNodes>
          <leafValues>
            1.8466638028621674e-01 -1.8809431791305542e-01</leafValues></_>
        <_>
          <internalNodes>
            0 -1 622 -1.6886718571186066e-02</internalNodes>
          <leafValues>
            -4.4254994392395020e-01 9.0525530278682709e-02</leafValues></_>
        <_>
          <internalNodes>
            0 -1 12 -5.0232354551553726e-02</internalNodes>
          <leafValues>
            -5.8850950002670288e-01 5.9468686580657959e-02</leafValues></_>
        <_>
          <internalNodes>
            0 -1 782 8.6978718172758818e-05</internalNodes>
          <leafValues>
            -2.4338665604591370e-01 1.5797150135040283e-01</leafValues></_>
        <_>
          <internalNodes>
            0 -1 147 -1.5025410801172256e-02</internalNodes>
          <leafValues>
            3.1924143433570862e-01 -1.1660166084766388e-01</leafValues></_>
        <_>
          <internalNodes>
            0 -1 847 4.3080681934952736e-03</internalNodes>
          <leafValues>
            -1.1543761938810349e-01 2.7493220567703247e-01</leafValues></_>
        <_>
          <internalNodes>
            0 -1 896 5.2519484597723931e-05</internalNodes>
          <leafValues>
            -1.9778363406658173e-01 1.9477158784866333e-01</leafValues></_>
        <_>
          <internalNodes>
            0 -1 611 2.9806651175022125e-02</internalNodes>
          <leafValues>
            -1.3707372546195984e-01 2.6476293802261353e-01</leafValues></_>
        <_>
          <internalNodes>
            0 -1 661 -2.1547642536461353e-03</internalNodes>
          <leafValues>
            2.9396009445190430e-01 -1.1476985365152359e-01</leafValues></_>
        <_>
          <internalNodes>
            0 -1 311 7.4877243605442345e-05</internalNodes>
          <leafValues>
            -1.4037561416625977e-01 2.3793311417102814e-01</leafValues></_>
        <_>
          <internalNodes>
            0 -1 49 -2.0631102845072746e-02</internalNodes>
          <leafValues>
            4.0404549241065979e-01 -8.0851666629314423e-02</leafValues></_>
        <_>
          <internalNodes>
            0 -1 930 -3.9743339584674686e-05</internalNodes>
          <leafValues>
            1.7590136826038361e-01 -1.8022888898849487e-01</leafValues></_>
        <_>
          <internalNodes>
            0 -1 809 -2.8998432680964470e-03</internalNodes>
          <leafValues>
            2.0750047266483307e-01 -1.5111552178859711e-01</leafValues></_>
        <_>
          <internalNodes>
            0 -1 133 -2.1030411124229431e-01</internalNodes>
          <leafValues>
            3.1392619013786316e-01 -1.1533994227647781e-01</leafValues></_>
        <_>
          <internalNodes>
            0 -1 27 3.4673444926738739e-02</internalNodes>
          <leafValues>
            8.3043932914733887e-02 -4.3110927939414978e-01</leafValues></_>
        <_>
          <internalNodes>
            0 -1 607 -2.6112799532711506e-03</internalNodes>
          <leafValues>
            2.0184729993343353e-01 -1.4294634759426117e-01</leafValues></_>
        <_>
          <internalNodes>
            0 -1 528 -2.6743984781205654e-03</internalNodes>
          <leafValues>
            3.6014610528945923e-01 -1.0246097296476364e-01</leafValues></_>
        <_>
          <internalNodes>
            0 -1 891 -2.3920310195535421e-03</internalNodes>
          <leafValues>
            3.5653710365295410e-01 -9.3889340758323669e-02</leafValues></_>
        <_>
          <internalNodes>
            0 -1 530 1.6954742372035980e-02</internalNodes>
          <leafValues>
            -1.5100452303886414e-01 2.1657933294773102e-01</leafValues></_>
        <_>
          <internalNodes>
            0 -1 838 3.6402195692062378e-02</internalNodes>
          <leafValues>
            -1.4608386158943176e-01 2.4746955931186676e-01</leafValues></_>
        <_>
          <internalNodes>
            0 -1 279 2.6455650106072426e-02</internalNodes>
          <leafValues>
            -1.2916068732738495e-01 2.5286391377449036e-01</leafValues></_>
        <_>
          <internalNodes>
            0 -1 502 -9.3261216534301639e-05</internalNodes>
          <leafValues>
            1.7382611334323883e-01 -1.7621532082557678e-01</leafValues></_>
        <_>
          <internalNodes>
            0 -1 91 -9.3963749706745148e-02</internalNodes>
          <leafValues>
            -9.6728014945983887e-01 5.0092607736587524e-02</leafValues></_>
        <_>
          <internalNodes>
            0 -1 98 1.1795586906373501e-03</internalNodes>
          <leafValues>
            -1.5307651460170746e-01 1.8602956831455231e-01</leafValues></_>
        <_>
          <internalNodes>
            0 -1 862 -5.9516452252864838e-02</internalNodes>
          <leafValues>
            5.7605242729187012e-01 -5.4614018648862839e-02</leafValues></_>
        <_>
          <internalNodes>
            0 -1 138 4.1414768929826096e-05</internalNodes>
          <leafValues>
            -1.9856789708137512e-01 1.5221156179904938e-01</leafValues></_>
        <_>
          <internalNodes>
            0 -1 786 -6.7731169983744621e-03</internalNodes>
          <leafValues>
            4.1760680079460144e-01 -7.9966641962528229e-02</leafValues></_>
        <_>
          <internalNodes>
            0 -1 274 1.7711721360683441e-01</internalNodes>
          <leafValues>
            3.7048060446977615e-02 -9.2752635478973389e-01</leafValues></_>
        <_>
          <internalNodes>
            0 -1 256 -1.9174419343471527e-02</internalNodes>
          <leafValues>
            5.2323067188262939e-01 -5.8499079197645187e-02</leafValues></_>
        <_>
          <internalNodes>
            0 -1 591 -7.7606127888429910e-05</internalNodes>
          <leafValues>
            1.9177480041980743e-01 -1.5107987821102142e-01</leafValues></_>
        <_>
          <internalNodes>
            0 -1 1 3.1092235818505287e-02</internalNodes>
          <leafValues>
            3.9580907672643661e-02 -8.7658804655075073e-01</leafValues></_>
        <_>
          <internalNodes>
            0 -1 931 -2.4834377691149712e-03</internalNodes>
          <leafValues>
            2.5454774498939514e-01 -1.1629004776477814e-01</leafValues></_>
        <_>
          <internalNodes>
            0 -1 116 2.2960124537348747e-02</internalNodes>
          <leafValues>
            5.8023072779178619e-02 -4.9866470694541931e-01</leafValues></_>
        <_>
          <internalNodes>
            0 -1 727 -7.6959906145930290e-03</internalNodes>
          <leafValues>
            2.8363978862762451e-01 -9.8929762840270996e-02</leafValues></_>
        <_>
          <internalNodes>
            0 -1 947 -8.2294438034296036e-03</internalNodes>
          <leafValues>
            2.6150473952293396e-01 -1.0000789165496826e-01</leafValues></_>
        <_>
          <internalNodes>
            0 -1 965 -4.4921220251126215e-05</internalNodes>
          <leafValues>
            1.9230954349040985e-01 -1.5324647724628448e-01</leafValues></_>
        <_>
          <internalNodes>
            0 -1 289 4.4620018452405930e-03</internalNodes>
          <leafValues>
            -1.0145756602287292e-01 2.8870078921318054e-01</leafValues></_>
        <_>
          <internalNodes>
            0 -1 594 2.1960505843162537e-01</internalNodes>
          <leafValues>
            -5.3837951272726059e-02 5.7108360528945923e-01</leafValues></_>
        <_>
          <internalNodes>
            0 -1 387 5.1889615133404732e-03</internalNodes>
          <leafValues>
            -6.6545628011226654e-02 4.7139686346054077e-01</leafValues></_>
        <_>
          <internalNodes>
            0 -1 94 4.8870779573917389e-03</internalNodes>
          <leafValues>
            9.3543633818626404e-02 -3.1776127219200134e-01</leafValues></_>
        <_>
          <internalNodes>
            0 -1 361 -4.2329141870141029e-03</internalNodes>
          <leafValues>
            3.4378686547279358e-01 -8.6118049919605255e-02</leafValues></_>
        <_>
          <internalNodes>
            0 -1 442 1.1969301104545593e-01</internalNodes>
          <leafValues>
            -1.1928446590900421e-01 2.3468081653118134e-01</leafValues></_>
        <_>
          <internalNodes>
            0 -1 77 -1.9796330481767654e-02</internalNodes>
          <leafValues>
            1.8668459355831146e-01 -1.5542511641979218e-01</leafValues></_>
        <_>
          <internalNodes>
            0 -1 228 -3.6340679798740894e-05</internalNodes>
          <leafValues>
            1.9470904767513275e-01 -1.4585904777050018e-01</leafValues></_>
        <_>
          <internalNodes>
            0 -1 764 -1.2768715620040894e-01</internalNodes>
          <leafValues>
            8.7744206190109253e-01 -3.8422651588916779e-02</leafValues></_>
        <_>
          <internalNodes>
            0 -1 630 1.0995937511324883e-02</internalNodes>
          <leafValues>
            -1.5467812120914459e-01 1.8508632481098175e-01</leafValues></_>
        <_>
          <internalNodes>
            0 -1 518 1.4772769063711166e-02</internalNodes>
          <leafValues>
            -6.5092138946056366e-02 5.0790554285049438e-01</leafValues></_>
        <_>
          <internalNodes>
            0 -1 606 -1.2264726683497429e-04</internalNodes>
          <leafValues>
            1.4402617514133453e-01 -2.3672088980674744e-01</leafValues></_>
        <_>
          <internalNodes>
            0 -1 687 -2.1368592977523804e-02</internalNodes>
          <leafValues>
            2.1514290571212769e-01 -1.4999522268772125e-01</leafValues></_></weakClassifiers></_>
    <!-- stage 8 -->
    <_>
      <maxWeakCount>67</maxWeakCount>
      <stageThreshold>-1.6563093662261963e+00</stageThreshold>
      <weakClassifiers>
        <_>
          <internalNodes>
            0 -1 408 -5.4882228374481201e-02</internalNodes>
          <leafValues>
            2.0273254811763763e-01 -4.7522613406181335e-01</leafValues></_>
        <_>
          <internalNodes>
            0 -1 109 -6.2607973814010620e-02</internalNodes>
          <leafValues>
            5.0500601530075073e-01 -1.4062438905239105e-01</leafValues></_>
        <_>
          <internalNodes>
            0 -1 452 7.4658401310443878e-02</internalNodes>
          <leafValues>
            -2.2122929990291595e-01 3.0459639430046082e-01</leafValues></_>
        <_>
          <internalNodes>
            0 -1 56 -2.2996717691421509e-01</internalNodes>
          <leafValues>
            4.0236529707908630e-01 -8.7921641767024994e-02</leafValues></_>
        <_>
          <internalNodes>
            0 -1 8 -2.2867251187562943e-02</internalNodes>
          <leafValues>
            -5.3906291723251343e-01 6.9419018924236298e-02</leafValues></_>
        <_>
          <internalNodes>
            0 -1 207 4.8199720680713654e-02</internalNodes>
          <leafValues>
            -1.1911823600530624e-01 4.2236083745956421e-01</leafValues></_>
        <_>
          <internalNodes>
            0 -1 368 -2.0106246229261160e-03</internalNodes>
          <leafValues>
            2.0960578322410583e-01 -1.6934889554977417e-01</leafValues></_>
        <_>
          <internalNodes>
            0 -1 209 -2.4787593632936478e-02</internalNodes>
          <leafValues>
            -4.3082454800605774e-01 8.4696151316165924e-02</leafValues></_>
        <_>
          <internalNodes>
            0 -1 816 -3.0257066711783409e-02</internalNodes>
          <leafValues>
            -1.3066167831420898e+00 3.3010940998792648e-02</leafValues></_>
        <_>
          <internalNodes>
            0 -1 819 -5.0527025014162064e-03</internalNodes>
          <leafValues>
            2.0866583287715912e-01 -1.3778872787952423e-01</leafValues></_>
        <_>
          <internalNodes>
            0 -1 871 -3.3016074448823929e-03</internalNodes>
          <leafValues>
            3.4671917557716370e-01 -9.6732310950756073e-02</leafValues></_>
        <_>
          <internalNodes>
            0 -1 731 -5.2961334586143494e-03</internalNodes>
          <leafValues>
            2.5253921747207642e-01 -1.3486513495445251e-01</leafValues></_>
        <_>
          <internalNodes>
            0 -1 928 1.3381030410528183e-02</internalNodes>
          <leafValues>
            -1.0043425858020782e-01 3.4615629911422729e-01</leafValues></_>
        <_>
          <internalNodes>
            0 -1 269 -2.0912965759634972e-02</internalNodes>
          <leafValues>
            -6.0876977443695068e-01 6.7791916429996490e-02</leafValues></_>
        <_>
          <internalNodes>
            0 -1 232 1.2781248986721039e-01</internalNodes>
          <leafValues>
            -1.1137494444847107e-01 2.7953162789344788e-01</leafValues></_>
        <_>
          <internalNodes>
            0 -1 315 -6.5737515687942505e-02</internalNodes>
          <leafValues>
            3.0352562665939331e-01 -1.1358463019132614e-01</leafValues></_>
        <_>
          <internalNodes>
            0 -1 456 -1.0590562596917152e-02</internalNodes>
          <leafValues>
            5.8782815933227539e-01 -5.7646729052066803e-02</leafValues></_>
        <_>
          <internalNodes>
            0 -1 684 -8.0706655979156494e-02</internalNodes>
          <leafValues>
            -9.3726599216461182e-01 3.4467820078134537e-02</leafValues></_>
        <_>
          <internalNodes>
            0 -1 948 -1.9292037468403578e-03</internalNodes>
          <leafValues>
            2.6674848794937134e-01 -1.1012701690196991e-01</leafValues></_>
        <_>
          <internalNodes>
            0 -1 995 -4.3367883190512657e-03</internalNodes>
          <leafValues>
            -4.6611937880516052e-01 6.2463186681270599e-02</leafValues></_>
        <_>
          <internalNodes>
            0 -1 172 -3.8148835301399231e-02</internalNodes>
          <leafValues>
            -9.5897257328033447e-01 3.7700466811656952e-02</leafValues></_>
        <_>
          <internalNodes>
            0 -1 934 -7.5919050723314285e-03</internalNodes>
          <leafValues>
            2.8946658968925476e-01 -9.1395758092403412e-02</leafValues></_>
        <_>
          <internalNodes>
            0 -1 30 -1.1791592463850975e-02</internalNodes>
          <leafValues>
            -7.7134341001510620e-01 3.8429636508226395e-02</leafValues></_>
        <_>
          <internalNodes>
            0 -1 996 -7.7409325167536736e-03</internalNodes>
          <leafValues>
            -9.6356832981109619e-01 3.4708350896835327e-02</leafValues></_>
        <_>
          <internalNodes>
            0 -1 662 -3.4131479915231466e-03</internalNodes>
          <leafValues>
            2.5764533877372742e-01 -1.0120120644569397e-01</leafValues></_>
        <_>
          <internalNodes>
            0 -1 709 -3.0309377238154411e-02</internalNodes>
          <leafValues>
            3.7489938735961914e-01 -8.4400653839111328e-02</leafValues></_>
        <_>
          <internalNodes>
            0 -1 169 -5.1187410950660706e-02</internalNodes>
          <leafValues>
            4.6051672101020813e-01 -6.4084671437740326e-02</leafValues></_>
        <_>
          <internalNodes>
            0 -1 643 -4.2021401226520538e-02</internalNodes>
          <leafValues>
            -5.8601778745651245e-01 4.7657825052738190e-02</leafValues></_>
        <_>
          <internalNodes>
            0 -1 325 2.6572126895189285e-02</internalNodes>
          <leafValues>
            -7.2689071297645569e-02 4.3796798586845398e-01</leafValues></_>
        <_>
          <internalNodes>
            0 -1 316 -4.6409897506237030e-02</internalNodes>
          <leafValues>
            4.0705591440200806e-01 -7.1560285985469818e-02</leafValues></_>
        <_>
          <internalNodes>
            0 -1 410 2.6583289727568626e-02</internalNodes>
          <leafValues>
            4.5754756778478622e-02 -6.9466400146484375e-01</leafValues></_>
        <_>
          <internalNodes>
            0 -1 123 1.8095692992210388e-01</internalNodes>
          <leafValues>
            -3.6930702626705170e-02 9.1764110326766968e-01</leafValues></_>
        <_>
          <internalNodes>
            0 -1 810 6.6580444574356079e-02</internalNodes>
          <leafValues>
            -7.1489706635475159e-02 4.2426460981369019e-01</leafValues></_>
        <_>
          <internalNodes>
            0 -1 919 3.6700014024972916e-02</internalNodes>
          <leafValues>
            -7.1795262396335602e-02 3.9556202292442322e-01</leafValues></_>
        <_>
          <internalNodes>
            0 -1 348 1.2949595227837563e-02</internalNodes>
          <leafValues>
            -1.0464543104171753e-01 2.7294254302978516e-01</leafValues></_>
        <_>
          <internalNodes>
            0 -1 171 -1.6169798374176025e-01</internalNodes>
          <leafValues>
            -1.2284746170043945e+00 3.4093644469976425e-02</leafValues></_>
        <_>
          <internalNodes>
            0 -1 210 2.0662683993577957e-02</internalNodes>
          <leafValues>
            4.0708769112825394e-02 -7.6532340049743652e-01</leafValues></_>
        <_>
          <internalNodes>
            0 -1 881 6.9801462814211845e-03</internalNodes>
          <leafValues>
            -1.0596299916505814e-01 2.4980476498603821e-01</leafValues></_>
        <_>
          <internalNodes>
            0 -1 627 5.0901986658573151e-02</internalNodes>
          <leafValues>
            -2.8815820813179016e-02 1.1859084367752075e+00</leafValues></_>
        <_>
          <internalNodes>
            0 -1 567 -4.6113215386867523e-02</internalNodes>
          <leafValues>
            -8.8912367820739746e-01 3.4465074539184570e-02</leafValues></_>
        <_>
          <internalNodes>
            0 -1 922 5.0994246266782284e-03</internalNodes>
          <leafValues>
            -1.0218536853790283e-01 2.3981340229511261e-01</leafValues></_>
        <_>
          <internalNodes>
            0 -1 553 -1.1694161221385002e-03</internalNodes>
          <leafValues>
            2.2313345968723297e-01 -1.1759076267480850e-01</leafValues></_>
        <_>
          <internalNodes>
            0 -1 745 3.9473608136177063e-02</internalNodes>
          <leafValues>
            -5.7622183114290237e-02 4.4191688299179077e-01</leafValues></_>
        <_>
          <internalNodes>
            0 -1 796 -5.5046923458576202e-02</internalNodes>
          <leafValues>
            -5.8169418573379517e-01 4.6322010457515717e-02</leafValues></_>
        <_>
          <internalNodes>
            0 -1 496 -1.8432103097438812e-02</internalNodes>
          <leafValues>
            -6.9607424736022949e-01 4.0088213980197906e-02</leafValues></_>
        <_>
          <internalNodes>
            0 -1 82 -6.3780735945329070e-04</internalNodes>
          <leafValues>
            1.2140399962663651e-01 -2.0991292595863342e-01</leafValues></_>
        <_>
          <internalNodes>
            0 -1 201 3.8167975842952728e-02</internalNodes>
          <leafValues>
            -6.8765737116336823e-02 3.6381298303604126e-01</leafValues></_>
        <_>
          <internalNodes>
            0 -1 650 1.1046739667654037e-01</internalNodes>
          <leafValues>
            -1.0774048417806625e-01 2.4555289745330811e-01</leafValues></_>
        <_>
          <internalNodes>
            0 -1 352 -5.2935909479856491e-03</internalNodes>
          <leafValues>
            2.6404300332069397e-01 -1.0814932733774185e-01</leafValues></_>
        <_>
          <internalNodes>
            0 -1 47 4.5828614383935928e-02</internalNodes>
          <leafValues>
            4.4032845646142960e-02 -6.0394942760467529e-01</leafValues></_>
        <_>
          <internalNodes>
            0 -1 705 -9.7285564988851547e-03</internalNodes>
          <leafValues>
            -7.7440130710601807e-01 3.3931721001863480e-02</leafValues></_>
        <_>
          <internalNodes>
            0 -1 800 -6.6420314833521843e-03</internalNodes>
          <leafValues>
            2.4197411537170410e-01 -9.9779203534126282e-02</leafValues></_>
        <_>
          <internalNodes>
            0 -1 360 -4.2142979800701141e-02</internalNodes>
          <leafValues>
            -6.3890177011489868e-01 4.2139776051044464e-02</leafValues></_>
        <_>
          <internalNodes>
            0 -1 832 1.8693644553422928e-02</internalNodes>
          <leafValues>
            -9.9885553121566772e-02 2.5681939721107483e-01</leafValues></_>
        <_>
          <internalNodes>
            0 -1 918 3.0610352754592896e-02</internalNodes>
          <leafValues>
            -8.1262476742267609e-02 4.0348222851753235e-01</leafValues></_>
        <_>
          <internalNodes>
            0 -1 256 1.4951774850487709e-02</internalNodes>
          <leafValues>
            -6.1437364667654037e-02 4.2562568187713623e-01</leafValues></_>
        <_>
          <internalNodes>
            0 -1 247 -3.3716607838869095e-02</internalNodes>
          <leafValues>
            -8.1538605690002441e-01 3.7023942917585373e-02</leafValues></_>
        <_>
          <internalNodes>
            0 -1 618 -3.9402516558766365e-03</internalNodes>
          <leafValues>
            1.3504822552204132e-01 -1.7718251049518585e-01</leafValues></_>
        <_>
          <internalNodes>
            0 -1 0 -8.5878968238830566e-03</internalNodes>
          <leafValues>
            -8.8696527481079102e-01 3.1803566962480545e-02</leafValues></_>
        <_>
          <internalNodes>
            0 -1 652 -2.3008582647889853e-03</internalNodes>
          <leafValues>
            2.8061187267303467e-01 -9.1608360409736633e-02</leafValues></_>
        <_>
          <internalNodes>
            0 -1 263 -1.7432330641895533e-03</internalNodes>
          <leafValues>
            2.0785604417324066e-01 -1.1716404557228088e-01</leafValues></_>
        <_>
          <internalNodes>
            0 -1 3 2.0922157913446426e-02</internalNodes>
          <leafValues>
            2.9205078259110451e-02 -1.1891502141952515e+00</leafValues></_>
        <_>
          <internalNodes>
            0 -1 716 -1.3822452723979950e-01</internalNodes>
          <leafValues>
            1.4033216238021851e+00 -2.5673769414424896e-02</leafValues></_>
        <_>
          <internalNodes>
            0 -1 142 -2.0739039778709412e-01</internalNodes>
          <leafValues>
            4.7117525339126587e-01 -5.3415682166814804e-02</leafValues></_>
        <_>
          <internalNodes>
            0 -1 74 -1.9375622272491455e-02</internalNodes>
          <leafValues>
            -5.9502315521240234e-01 4.1784178465604782e-02</leafValues></_>
        <_>
          <internalNodes>
            0 -1 471 -1.0265331715345383e-02</internalNodes>
          <leafValues>
            2.7821683883666992e-01 -9.6939675509929657e-02</leafValues></_>
        <_>
          <internalNodes>
            0 -1 976 -4.4882130168844014e-05</internalNodes>
          <leafValues>
            1.7523658275604248e-01 -1.4186531305313110e-01</leafValues></_></weakClassifiers></_>
    <!-- stage 9 -->
    <_>
      <maxWeakCount>64</maxWeakCount>
      <stageThreshold>-1.5160318613052368e+00</stageThreshold>
      <weakClassifiers>
        <_>
          <internalNodes>
            0 -1 422 -2.7776584029197693e-02</internalNodes>
          <leafValues>
            4.1267495602369308e-02 -5.2976244688034058e-01</leafValues></_>
        <_>
          <internalNodes>
            0 -1 182 -8.7536916136741638e-02</internalNodes>
          <leafValues>
            4.9430653452873230e-01 -1.3047283887863159e-01</leafValues></_>
        <_>
          <internalNodes>
            0 -1 824 -8.2576378190424293e-05</internalNodes>
          <leafValues>
            2.1344843506813049e-01 -2.2645621001720428e-01</leafValues></_>
        <_>
          <internalNodes>
            0 -1 815 -9.4496682286262512e-02</internalNodes>
          <leafValues>
            6.0926693677902222e-01 -7.0376440882682800e-02</leafValues></_>
        <_>
          <internalNodes>
            0 -1 703 2.6519641280174255e-02</internalNodes>
          <leafValues>
            -1.5916800498962402e-01 3.1167748570442200e-01</leafValues></_>
        <_>
          <internalNodes>
            0 -1 414 -6.6543668508529663e-03</internalNodes>
          <leafValues>
            2.2760944068431854e-01 -1.8294468522071838e-01</leafValues></_>
        <_>
          <internalNodes>
            0 -1 727 -5.0626192241907120e-03</internalNodes>
          <leafValues>
            2.1789097785949707e-01 -1.6299340128898621e-01</leafValues></_>
        <_>
          <internalNodes>
            0 -1 511 -6.3514612615108490e-02</internalNodes>
          <leafValues>
            -7.3147636651992798e-01 7.0669591426849365e-02</leafValues></_>
        <_>
          <internalNodes>
            0 -1 616 5.8254040777683258e-02</internalNodes>
          <leafValues>
            -1.1175267398357391e-01 3.4180894494056702e-01</leafValues></_>
        <_>
          <internalNodes>
            0 -1 164 2.8001381084322929e-02</internalNodes>
          <leafValues>
            -6.7632757127285004e-02 4.5667731761932373e-01</leafValues></_>
        <_>
          <internalNodes>
            0 -1 358 -4.4766552746295929e-02</internalNodes>
          <leafValues>
            3.3240237832069397e-01 -1.0131862759590149e-01</leafValues></_>
        <_>
          <internalNodes>
            0 -1 431 1.4260098338127136e-01</internalNodes>
          <leafValues>
            -1.6813461482524872e-01 2.1461439132690430e-01</leafValues></_>
        <_>
          <internalNodes>
            0 -1 126 -3.8607263565063477e-01</internalNodes>
          <leafValues>
            2.4829629063606262e-01 -1.3094794750213623e-01</leafValues></_>
        <_>
          <internalNodes>
            0 -1 737 -1.8337494693696499e-03</internalNodes>
          <leafValues>
            2.6787588000297546e-01 -1.3194121420383453e-01</leafValues></_>
        <_>
          <internalNodes>
            0 -1 813 -7.3150731623172760e-03</internalNodes>
          <leafValues>
            3.2005274295806885e-01 -6.5863698720932007e-02</leafValues></_>
        <_>
          <internalNodes>
            0 -1 676 -9.0743604232557118e-05</internalNodes>
          <leafValues>
            1.3331772387027740e-01 -2.0110023021697998e-01</leafValues></_>
        <_>
          <internalNodes>
            0 -1 375 -6.0213372111320496e-02</internalNodes>
          <leafValues>
            -4.4019505381584167e-01 5.9333950281143188e-02</leafValues></_>
        <_>
          <internalNodes>
            0 -1 376 -1.1142864241264760e-04</internalNodes>
          <leafValues>
            1.6633124649524689e-01 -1.7199395596981049e-01</leafValues></_>
        <_>
          <internalNodes>
            0 -1 405 -6.9785267114639282e-02</internalNodes>
          <leafValues>
            -1.0279374122619629e+00 3.5846307873725891e-02</leafValues></_>
        <_>
          <internalNodes>
            0 -1 418 -1.2164490297436714e-02</internalNodes>
          <leafValues>
            3.1452855467796326e-01 -9.1405972838401794e-02</leafValues></_>
        <_>
          <internalNodes>
            0 -1 16 -5.4382227361202240e-02</internalNodes>
          <leafValues>
            -8.4829175472259521e-01 3.6651156842708588e-02</leafValues></_>
        <_>
          <internalNodes>
            0 -1 870 -1.4371580909937620e-03</internalNodes>
          <leafValues>
            2.2962304949760437e-01 -1.2242228537797928e-01</leafValues></_>
        <_>
          <internalNodes>
            0 -1 855 5.3178176283836365e-02</internalNodes>
          <leafValues>
            -4.5992083847522736e-02 6.4723294973373413e-01</leafValues></_>
        <_>
          <internalNodes>
            0 -1 492 -5.0498329073889181e-05</internalNodes>
          <leafValues>
            1.7106683552265167e-01 -1.4695924520492554e-01</leafValues></_>
        <_>
          <internalNodes>
            0 -1 562 6.1231097206473351e-03</internalNodes>
          <leafValues>
            -6.7137278616428375e-02 3.9078339934349060e-01</leafValues></_>
        <_>
          <internalNodes>
            0 -1 214 -6.9477781653404236e-02</internalNodes>
          <leafValues>
            -5.8125942945480347e-01 4.7784961760044098e-02</leafValues></_>
        <_>
          <internalNodes>
            0 -1 635 -2.3495044559240341e-02</internalNodes>
          <leafValues>
            2.3159360885620117e-01 -1.3539180159568787e-01</leafValues></_>
        <_>
          <internalNodes>
            0 -1 621 1.0191177576780319e-01</internalNodes>
          <leafValues>
            -3.5033043473958969e-02 9.0226358175277710e-01</leafValues></_>
        <_>
          <internalNodes>
            0 -1 193 -9.8825126886367798e-02</internalNodes>
          <leafValues>
            4.7486138343811035e-01 -5.1873631775379181e-02</leafValues></_>
        <_>
          <internalNodes>
            0 -1 167 3.5020655393600464e-01</internalNodes>
          <leafValues>
            -6.0769312083721161e-02 4.7249639034271240e-01</leafValues></_>
        <_>
          <internalNodes>
            0 -1 951 6.4513040706515312e-03</internalNodes>
          <leafValues>
            -1.1920835077762604e-01 2.2170765697956085e-01</leafValues></_>
        <_>
          <internalNodes>
            0 -1 897 4.4623408466577530e-03</internalNodes>
          <leafValues>
            -9.4595938920974731e-02 2.8736925125122070e-01</leafValues></_>
        <_>
          <internalNodes>
            0 -1 266 2.0548591390252113e-02</internalNodes>
          <leafValues>
            -9.0330168604850769e-02 2.7137246727943420e-01</leafValues></_>
        <_>
          <internalNodes>
            0 -1 863 -1.4132814481854439e-02</internalNodes>
          <leafValues>
            -9.5040887594223022e-01 3.1187912449240685e-02</leafValues></_>
        <_>
          <internalNodes>
            0 -1 757 -8.6509651737287641e-05</internalNodes>
          <leafValues>
            1.4071075618267059e-01 -1.6419494152069092e-01</leafValues></_>
        <_>
          <internalNodes>
            0 -1 755 1.5650823712348938e-02</internalNodes>
          <leafValues>
            5.9260498732328415e-02 -5.5324637889862061e-01</leafValues></_>
        <_>
          <internalNodes>
            0 -1 54 3.0056128278374672e-02</internalNodes>
          <leafValues>
            -7.8640185296535492e-02 3.1704774498939514e-01</leafValues></_>
        <_>
          <internalNodes>
            0 -1 220 3.6222852766513824e-02</internalNodes>
          <leafValues>
            -9.9552087485790253e-02 2.2562965750694275e-01</leafValues></_>
        <_>
          <internalNodes>
            0 -1 249 1.2777613475918770e-02</internalNodes>
          <leafValues>
            -8.6727827787399292e-02 2.7997016906738281e-01</leafValues></_>
        <_>
          <internalNodes>
            0 -1 239 1.7345505952835083e-01</internalNodes>
          <leafValues>
            -7.4349656701087952e-02 2.8998523950576782e-01</leafValues></_>
        <_>
          <internalNodes>
            0 -1 345 -3.3258970826864243e-02</internalNodes>
          <leafValues>
            2.2544053196907043e-01 -1.3431844115257263e-01</leafValues></_>
        <_>
          <internalNodes>
            0 -1 480 2.2815419360995293e-02</internalNodes>
          <leafValues>
            8.6305573582649231e-02 -2.6945146918296814e-01</leafValues></_>
        <_>
          <internalNodes>
            0 -1 843 -2.8468377888202667e-02</internalNodes>
          <leafValues>
            4.2909634113311768e-01 -6.2875613570213318e-02</leafValues></_>
        <_>
          <internalNodes>
            0 -1 204 -1.6104623675346375e-02</internalNodes>
          <leafValues>
            2.0802025496959686e-01 -1.0418528318405151e-01</leafValues></_>
        <_>
          <internalNodes>
            0 -1 110 -4.3260369449853897e-02</internalNodes>
          <leafValues>
            -4.5066231489181519e-01 6.7733332514762878e-02</leafValues></_>
        <_>
          <internalNodes>
            0 -1 524 -1.1437879875302315e-02</internalNodes>
          <leafValues>
            1.8624421954154968e-01 -1.2873384356498718e-01</leafValues></_>
        <_>
          <internalNodes>
            0 -1 521 4.4389069080352783e-03</internalNodes>
          <leafValues>
            -9.6491448581218719e-02 2.7554291486740112e-01</leafValues></_>
        <_>
          <internalNodes>
            0 -1 58 -6.2257293611764908e-02</internalNodes>
          <leafValues>
            -8.7367963790893555e-01 3.1185479834675789e-02</leafValues></_>
        <_>
          <internalNodes>
            0 -1 612 -2.0563375204801559e-02</internalNodes>
          <leafValues>
            -9.7575354576110840e-01 2.9918543994426727e-02</leafValues></_>
        <_>
          <internalNodes>
            0 -1 547 -4.5005675405263901e-02</internalNodes>
          <leafValues>
            8.0758517980575562e-01 -3.8187474012374878e-02</leafValues></_>
        <_>
          <internalNodes>
            0 -1 231 -9.8699823021888733e-02</internalNodes>
          <leafValues>
            3.9539679884910583e-01 -6.4465470612049103e-02</leafValues></_>
        <_>
          <internalNodes>
            0 -1 84 -3.8668134948238730e-05</internalNodes>
          <leafValues>
            1.5508568286895752e-01 -1.6279388964176178e-01</leafValues></_>
        <_>
          <internalNodes>
            0 -1 909 5.2742529660463333e-03</internalNodes>
          <leafValues>
            5.2663289010524750e-02 -4.8144328594207764e-01</leafValues></_>
        <_>
          <internalNodes>
            0 -1 597 -1.9510410726070404e-02</internalNodes>
          <leafValues>
            -5.2963429689407349e-01 5.1208842545747757e-02</leafValues></_>
        <_>
          <internalNodes>
            0 -1 277 -1.2911228463053703e-02</internalNodes>
          <leafValues>
            2.8275990486145020e-01 -8.4740236401557922e-02</leafValues></_>
        <_>
          <internalNodes>
            0 -1 271 6.6258385777473450e-03</internalNodes>
          <leafValues>
            -1.3786889612674713e-01 2.3647372424602509e-01</leafValues></_>
        <_>
          <internalNodes>
            0 -1 218 1.0448752343654633e-01</internalNodes>
          <leafValues>
            3.1418826431035995e-02 -1.0203400850296021e+00</leafValues></_>
        <_>
          <internalNodes>
            0 -1 407 -2.2697937674820423e-04</internalNodes>
          <leafValues>
            1.4586584270000458e-01 -1.5189829468727112e-01</leafValues></_>
        <_>
          <internalNodes>
            0 -1 493 6.1140030622482300e-02</internalNodes>
          <leafValues>
            -5.5147890001535416e-02 4.5020774006843567e-01</leafValues></_>
        <_>
          <internalNodes>
            0 -1 833 -9.8455704574007541e-05</internalNodes>
          <leafValues>
            1.4886270463466644e-01 -1.4663212001323700e-01</leafValues></_>
        <_>
          <internalNodes>
            0 -1 275 -5.8535430580377579e-02</internalNodes>
          <leafValues>
            -5.5334955453872681e-01 4.4266577810049057e-02</leafValues></_>
        <_>
          <internalNodes>
            0 -1 820 -3.8228347897529602e-02</internalNodes>
          <leafValues>
            3.0323129892349243e-01 -7.5441762804985046e-02</leafValues></_>
        <_>
          <internalNodes>
            0 -1 192 -1.2624380178749561e-02</internalNodes>
          <leafValues>
            3.2992279529571533e-01 -7.4440203607082367e-02</leafValues></_>
        <_>
          <internalNodes>
            0 -1 597 3.6004707217216492e-03</internalNodes>
          <leafValues>
            9.5062643289566040e-02 -2.4984794855117798e-01</leafValues></_></weakClassifiers></_>
    <!-- stage 10 -->
    <_>
      <maxWeakCount>72</maxWeakCount>
      <stageThreshold>-1.5313246250152588e+00</stageThreshold>
      <weakClassifiers>
        <_>
          <internalNodes>
            0 -1 331 9.2652365565299988e-02</internalNodes>
          <leafValues>
            -4.0218639373779297e-01 1.7833746969699860e-01</leafValues></_>
        <_>
          <internalNodes>
            0 -1 83 -2.9945254325866699e-01</internalNodes>
          <leafValues>
            4.8173981904983521e-01 -1.1340370774269104e-01</leafValues></_>
        <_>
          <internalNodes>
            0 -1 442 1.1543147265911102e-01</internalNodes>
          <leafValues>
            -2.1994969248771667e-01 3.9231196045875549e-01</leafValues></_>
        <_>
          <internalNodes>
            0 -1 422 -5.5819705128669739e-02</internalNodes>
          <leafValues>
            3.7494274973869324e-01 -1.4575728774070740e-01</leafValues></_>
        <_>
          <internalNodes>
            0 -1 823 1.6005140542984009e-01</internalNodes>
          <leafValues>
            -1.1733414232730865e-01 3.9141821861267090e-01</leafValues></_>
        <_>
          <internalNodes>
            0 -1 212 -3.0368326231837273e-02</internalNodes>
          <leafValues>
            -4.3240970373153687e-01 8.8377237319946289e-02</leafValues></_>
        <_>
          <internalNodes>
            0 -1 614 -8.5967183113098145e-03</internalNodes>
          <leafValues>
            3.6209607124328613e-01 -1.1297664046287537e-01</leafValues></_>
        <_>
          <internalNodes>
            0 -1 525 2.4209406971931458e-01</internalNodes>
          <leafValues>
            -1.1548384279012680e-01 4.4419071078300476e-01</leafValues></_>
        <_>
          <internalNodes>
            0 -1 466 -4.2039891704916954e-03</internalNodes>
          <leafValues>
            2.1119177341461182e-01 -1.7182835936546326e-01</leafValues></_>
        <_>
          <internalNodes>
            0 -1 498 -4.3451180681586266e-03</internalNodes>
          <leafValues>
            -2.6772099733352661e-01 1.1433563381433487e-01</leafValues></_>
        <_>
          <internalNodes>
            0 -1 705 1.7870701849460602e-02</internalNodes>
          <leafValues>
            3.2526437193155289e-02 -1.2851296663284302e+00</leafValues></_>
        <_>
          <internalNodes>
            0 -1 614 1.6999194398522377e-02</internalNodes>
          <leafValues>
            -5.0071112811565399e-02 7.3014318943023682e-01</leafValues></_>
        <_>
          <internalNodes>
            0 -1 532 -5.7139340788125992e-03</internalNodes>
          <leafValues>
            1.4491313695907593e-01 -1.8312205374240875e-01</leafValues></_>
        <_>
          <internalNodes>
            0 -1 418 -5.7674604468047619e-03</internalNodes>
          <leafValues>
            2.4131450057029724e-01 -1.3309770822525024e-01</leafValues></_>
        <_>
          <internalNodes>
            0 -1 146 3.9605023339390755e-03</internalNodes>
          <leafValues>
            -1.9945026934146881e-01 1.5366280078887939e-01</leafValues></_>
        <_>
          <internalNodes>
            0 -1 679 -8.5984924226067960e-05</internalNodes>
          <leafValues>
            1.5972566604614258e-01 -1.6492144763469696e-01</leafValues></_>
        <_>
          <internalNodes>
            0 -1 484 3.9749175310134888e-02</internalNodes>
          <leafValues>
            -6.9917388260364532e-02 5.6932067871093750e-01</leafValues></_>
        <_>
          <internalNodes>
            0 -1 44 -7.0747146382927895e-03</internalNodes>
          <leafValues>
            -1.9203278422355652e-01 1.2833017110824585e-01</leafValues></_>
        <_>
          <internalNodes>
            0 -1 14 -1.8297865986824036e-02</internalNodes>
          <leafValues>
            2.4112416803836823e-01 -9.9745400249958038e-02</leafValues></_>
        <_>
          <internalNodes>
            0 -1 672 5.8359988033771515e-03</internalNodes>
          <leafValues>
            5.8341734111309052e-02 -3.4040138125419617e-01</leafValues></_>
        <_>
          <internalNodes>
            0 -1 321 -9.0747416019439697e-02</internalNodes>
          <leafValues>
            2.7215591073036194e-01 -7.8622408211231232e-02</leafValues></_>
        <_>
          <internalNodes>
            0 -1 41 -1.8218129873275757e-02</internalNodes>
          <leafValues>
            -1.5273329019546509e+00 2.3353867232799530e-02</leafValues></_>
        <_>
          <internalNodes>
            0 -1 987 -1.4848780818283558e-02</internalNodes>
          <leafValues>
            -5.8136004209518433e-01 4.2620450258255005e-02</leafValues></_>
        <_>
          <internalNodes>
            0 -1 877 6.3765272498130798e-02</internalNodes>
          <leafValues>
            -5.5209271609783173e-02 4.5506912469863892e-01</leafValues></_>
        <_>
          <internalNodes>
            0 -1 447 -8.1090107560157776e-03</internalNodes>
          <leafValues>
            3.3905997872352600e-01 -7.0059321820735931e-02</leafValues></_>
        <_>
          <internalNodes>
            0 -1 175 -3.7398098356788978e-05</internalNodes>
          <leafValues>
            1.5335346758365631e-01 -1.5752828121185303e-01</leafValues></_>
        <_>
          <internalNodes>
            0 -1 649 -4.8243653029203415e-02</internalNodes>
          <leafValues>
            -9.2815947532653809e-01 3.1617555767297745e-02</leafValues></_>
        <_>
          <internalNodes>
            0 -1 205 -7.1580030024051666e-02</internalNodes>
          <leafValues>
            3.1993147730827332e-01 -6.7623451352119446e-02</leafValues></_>
        <_>
          <internalNodes>
            0 -1 295 9.3341410160064697e-02</internalNodes>
          <leafValues>
            3.0009377747774124e-02 -1.0519227981567383e+00</leafValues></_>
        <_>
          <internalNodes>
            0 -1 807 -3.5603097639977932e-03</internalNodes>
          <leafValues>
            2.9352033138275146e-01 -8.6498782038688660e-02</leafValues></_>
        <_>
          <internalNodes>
            0 -1 813 -5.0233984366059303e-03</internalNodes>
          <leafValues>
            2.2747486829757690e-01 -1.1394640058279037e-01</leafValues></_>
        <_>
          <internalNodes>
            0 -1 165 4.1112378239631653e-02</internalNodes>
          <leafValues>
            -6.9608621299266815e-02 3.7654134631156921e-01</leafValues></_>
        <_>
          <internalNodes>
            0 -1 356 -1.5936307609081268e-02</internalNodes>
          <leafValues>
            3.1194707751274109e-01 -7.7885448932647705e-02</leafValues></_>
        <_>
          <internalNodes>
            0 -1 660 -1.6998216509819031e-02</internalNodes>
          <leafValues>
            2.7868038415908813e-01 -9.3267619609832764e-02</leafValues></_>
        <_>
          <internalNodes>
            0 -1 879 -7.6026050373911858e-03</internalNodes>
          <leafValues>
            -4.9430167675018311e-01 5.6698121130466461e-02</leafValues></_>
        <_>
          <internalNodes>
            0 -1 721 3.8382294587790966e-03</internalNodes>
          <leafValues>
            -1.8079331517219543e-01 1.2396510690450668e-01</leafValues></_>
        <_>
          <internalNodes>
            0 -1 259 -3.3458903431892395e-02</internalNodes>
          <leafValues>
            -3.6013540625572205e-01 7.3608860373497009e-02</leafValues></_>
        <_>
          <internalNodes>
            0 -1 397 1.3836875557899475e-02</internalNodes>
          <leafValues>
            4.1094757616519928e-02 -6.3407230377197266e-01</leafValues></_>
        <_>
          <internalNodes>
            0 -1 350 1.6518477350473404e-02</internalNodes>
          <leafValues>
            -8.9260444045066833e-02 2.5896874070167542e-01</leafValues></_>
        <_>
          <internalNodes>
            0 -1 157 2.3373365402221680e-02</internalNodes>
          <leafValues>
            -1.1461459845304489e-01 2.0586219429969788e-01</leafValues></_>
        <_>
          <internalNodes>
            0 -1 490 -1.7514873296022415e-02</internalNodes>
          <leafValues>
            -2.3361080884933472e-01 9.7072482109069824e-02</leafValues></_>
        <_>
          <internalNodes>
            0 -1 130 -3.3556432463228703e-03</internalNodes>
          <leafValues>
            -2.5145089626312256e-01 8.5435897111892700e-02</leafValues></_>
        <_>
          <internalNodes>
            0 -1 237 -1.3343957066535950e-01</internalNodes>
          <leafValues>
            -5.1309823989868164e-01 5.0776693969964981e-02</leafValues></_>
        <_>
          <internalNodes>
            0 -1 160 9.1331347823143005e-02</internalNodes>
          <leafValues>
            2.9879225417971611e-02 -1.0831863880157471e+00</leafValues></_>
        <_>
          <internalNodes>
            0 -1 857 -9.2737488448619843e-03</internalNodes>
          <leafValues>
            1.7196847498416901e-01 -1.4774571359157562e-01</leafValues></_>
        <_>
          <internalNodes>
            0 -1 572 3.9690295234322548e-03</internalNodes>
          <leafValues>
            1.0742645710706711e-01 -2.2770740091800690e-01</leafValues></_>
        <_>
          <internalNodes>
            0 -1 993 -6.2742717564105988e-03</internalNodes>
          <leafValues>
            -3.4793519973754883e-01 6.9816797971725464e-02</leafValues></_>
        <_>
          <internalNodes>
            0 -1 795 -9.0508703142404556e-03</internalNodes>
          <leafValues>
            2.1439041197299957e-01 -9.5658220350742340e-02</leafValues></_>
        <_>
          <internalNodes>
            0 -1 653 1.5160186216235161e-02</internalNodes>
          <leafValues>
            -5.1458381116390228e-02 4.6728736162185669e-01</leafValues></_>
        <_>
          <internalNodes>
            0 -1 430 -1.4425443485379219e-02</internalNodes>
          <leafValues>
            1.7946408689022064e-01 -1.1904728412628174e-01</leafValues></_>
        <_>
          <internalNodes>
            0 -1 411 -4.6904325485229492e-02</internalNodes>
          <leafValues>
            -6.3977056741714478e-01 3.6892775446176529e-02</leafValues></_>
        <_>
          <internalNodes>
            0 -1 141 -1.2833546102046967e-01</internalNodes>
          <leafValues>
            3.6720520257949829e-01 -7.2681687772274017e-02</leafValues></_>
        <_>
          <internalNodes>
            0 -1 862 3.6791346967220306e-02</internalNodes>
          <leafValues>
            -1.1067332327365875e-01 2.4872541427612305e-01</leafValues></_>
        <_>
          <internalNodes>
            0 -1 923 -1.7420738935470581e-02</internalNodes>
          <leafValues>
            -6.4653056859970093e-01 4.2352601885795593e-02</leafValues></_>
        <_>
          <internalNodes>
            0 -1 467 -9.8873004317283630e-02</internalNodes>
          <leafValues>
            -4.0839424729347229e-01 5.2980784326791763e-02</leafValues></_>
        <_>
          <internalNodes>
            0 -1 66 -1.0410962998867035e-01</internalNodes>
          <leafValues>
            3.4905382990837097e-01 -6.2469590455293655e-02</leafValues></_>
        <_>
          <internalNodes>
            0 -1 889 -2.7987337671220303e-03</internalNodes>
          <leafValues>
            1.8687981367111206e-01 -1.0541166365146637e-01</leafValues></_>
        <_>
          <internalNodes>
            0 -1 834 -1.2671947479248047e-04</internalNodes>
          <leafValues>
            1.3331508636474609e-01 -1.6377457976341248e-01</leafValues></_>
        <_>
          <internalNodes>
            0 -1 750 3.3555865287780762e-02</internalNodes>
          <leafValues>
            -7.5869441032409668e-02 2.9586333036422729e-01</leafValues></_>
        <_>
          <internalNodes>
            0 -1 529 -5.5571645498275757e-03</internalNodes>
          <leafValues>
            1.8283425271511078e-01 -1.1853773891925812e-01</leafValues></_>
        <_>
          <internalNodes>
            0 -1 902 -6.2263375148177147e-03</internalNodes>
          <leafValues>
            -2.4570798873901367e-01 9.0894624590873718e-02</leafValues></_>
        <_>
          <internalNodes>
            0 -1 920 -3.9210375689435750e-05</internalNodes>
          <leafValues>
            1.8822528421878815e-01 -1.4467623829841614e-01</leafValues></_>
        <_>
          <internalNodes>
            0 -1 631 -4.1265077888965607e-02</internalNodes>
          <leafValues>
            4.6264162659645081e-01 -5.2646946161985397e-02</leafValues></_>
        <_>
          <internalNodes>
            0 -1 714 -3.0400399118661880e-02</internalNodes>
          <leafValues>
            -8.8937079906463623e-01 2.9169978573918343e-02</leafValues></_>
        <_>
          <internalNodes>
            0 -1 473 1.8921617418527603e-02</internalNodes>
          <leafValues>
            6.2938161194324493e-02 -3.4448024630546570e-01</leafValues></_>
        <_>
          <internalNodes>
            0 -1 17 1.0768575221300125e-01</internalNodes>
          <leafValues>
            -7.6922819018363953e-02 2.9444569349288940e-01</leafValues></_>
        <_>
          <internalNodes>
            0 -1 495 -2.6763409376144409e-02</internalNodes>
          <leafValues>
            -1.3731778860092163e+00 2.1539943292737007e-02</leafValues></_>
        <_>
          <internalNodes>
            0 -1 969 -1.5193294733762741e-02</internalNodes>
          <leafValues>
            5.3465873003005981e-01 -3.9434690028429031e-02</leafValues></_>
        <_>
          <internalNodes>
            0 -1 278 -4.2047751776408404e-05</internalNodes>
          <leafValues>
            1.3794453442096710e-01 -1.4188583195209503e-01</leafValues></_>
        <_>
          <internalNodes>
            0 -1 129 1.6725099086761475e-01</internalNodes>
          <leafValues>
            3.4505423158407211e-02 -7.0355588197708130e-01</leafValues></_>
        <_>
          <internalNodes>
            0 -1 953 -1.4473483897745609e-03</internalNodes>
          <leafValues>
            1.5259961783885956e-01 -1.2628336250782013e-01</leafValues></_>
        <_>
          <internalNodes>
            0 -1 869 -3.6868755705654621e-03</internalNodes>
          <leafValues>
            -1.4693105220794678e-01 1.4239785075187683e-01</leafValues></_></weakClassifiers></_>
    <!-- stage 11 -->
    <_>
      <maxWeakCount>63</maxWeakCount>
      <stageThreshold>-1.5107220411300659e+00</stageThreshold>
      <weakClassifiers>
        <_>
          <internalNodes>
            0 -1 328 1.9276142120361328e-01</internalNodes>
          <leafValues>
            -3.6739754676818848e-01 4.2944610118865967e-01</leafValues></_>
        <_>
          <internalNodes>
            0 -1 135 -4.5593079924583435e-01</internalNodes>
          <leafValues>
            3.5361397266387939e-01 -2.0669899880886078e-01</leafValues></_>
        <_>
          <internalNodes>
            0 -1 520 -1.0495735332369804e-02</internalNodes>
          <leafValues>
            2.4787382781505585e-01 -2.3154152929782867e-01</leafValues></_>
        <_>
          <internalNodes>
            0 -1 38 7.1456134319305420e-02</internalNodes>
          <leafValues>
            -1.4928542077541351e-01 2.8517591953277588e-01</leafValues></_>
        <_>
          <internalNodes>
            0 -1 540 1.3726465404033661e-01</internalNodes>
          <leafValues>
            -9.8960697650909424e-02 4.6980282664299011e-01</leafValues></_>
        <_>
          <internalNodes>
            0 -1 294 -4.3447013944387436e-02</internalNodes>
          <leafValues>
            2.7812063694000244e-01 -1.3772842288017273e-01</leafValues></_>
        <_>
          <internalNodes>
            0 -1 125 -4.7246076166629791e-02</internalNodes>
          <leafValues>
            -4.5241162180900574e-01 8.5026487708091736e-02</leafValues></_>
        <_>
          <internalNodes>
            0 -1 449 -2.1466646343469620e-02</internalNodes>
          <leafValues>
            3.0026796460151672e-01 -1.0611292719841003e-01</leafValues></_>
        <_>
          <internalNodes>
            0 -1 712 -9.0910270810127258e-02</internalNodes>
          <leafValues>
            -1.6204479932785034e+00 6.5215483307838440e-02</leafValues></_>
        <_>
          <internalNodes>
            0 -1 620 -3.0427698045969009e-02</internalNodes>
          <leafValues>
            2.1007147431373596e-01 -1.6212026774883270e-01</leafValues></_>
        <_>
          <internalNodes>
            0 -1 702 -2.0844633691012859e-03</internalNodes>
          <leafValues>
            -3.4424799680709839e-01 1.1286781728267670e-01</leafValues></_>
        <_>
          <internalNodes>
            0 -1 604 -2.0985626615583897e-03</internalNodes>
          <leafValues>
            -3.2739719748497009e-01 1.1994165927171707e-01</leafValues></_>
        <_>
          <internalNodes>
            0 -1 749 -3.2874085009098053e-02</internalNodes>
          <leafValues>
            5.1992189884185791e-01 -6.0608834028244019e-02</leafValues></_>
        <_>
          <internalNodes>
            0 -1 794 -1.8897216767072678e-02</internalNodes>
          <leafValues>
            -8.3860099315643311e-01 4.3137662112712860e-02</leafValues></_>
        <_>
          <internalNodes>
            0 -1 604 -3.5075026971753687e-05</internalNodes>
          <leafValues>
            1.5070118010044098e-01 -1.6418288648128510e-01</leafValues></_>
        <_>
          <internalNodes>
            0 -1 921 2.3871343582868576e-02</internalNodes>
          <leafValues>
            -3.5740945488214493e-02 8.8890725374221802e-01</leafValues></_>
        <_>
          <internalNodes>
            0 -1 153 -3.8636066019535065e-02</internalNodes>
          <leafValues>
            1.7227061092853546e-01 -1.3393025100231171e-01</leafValues></_>
        <_>
          <internalNodes>
            0 -1 94 4.5269308611750603e-03</internalNodes>
          <leafValues>
            8.7772406637668610e-02 -2.6813474297523499e-01</leafValues></_>
        <_>
          <internalNodes>
            0 -1 93 -4.5286016538739204e-03</internalNodes>
          <leafValues>
            -2.5739961862564087e-01 1.0050887614488602e-01</leafValues></_>
        <_>
          <internalNodes>
            0 -1 9 5.0816431641578674e-02</internalNodes>
          <leafValues>
            2.5501225143671036e-02 -6.9955658912658691e-01</leafValues></_>
        <_>
          <internalNodes>
            0 -1 991 2.0237315446138382e-02</internalNodes>
          <leafValues>
            5.0652801990509033e-02 -5.0889801979064941e-01</leafValues></_>
        <_>
          <internalNodes>
            0 -1 24 -8.0584421753883362e-02</internalNodes>
          <leafValues>
            2.7138552069664001e-01 -9.1286353766918182e-02</leafValues></_>
        <_>
          <internalNodes>
            0 -1 636 -2.0148812234401703e-01</internalNodes>
          <leafValues>
            7.1346741914749146e-01 -3.6180533468723297e-02</leafValues></_>
        <_>
          <internalNodes>
            0 -1 43 -1.3622708502225578e-04</internalNodes>
          <leafValues>
            1.5219752490520477e-01 -1.5077629685401917e-01</leafValues></_>
        <_>
          <internalNodes>
            0 -1 668 3.9531990885734558e-02</internalNodes>
          <leafValues>
            -5.4915457963943481e-02 4.2385551333427429e-01</leafValues></_>
        <_>
          <internalNodes>
            0 -1 253 -4.1746956110000610e-01</internalNodes>
          <leafValues>
            3.4266144037246704e-01 -7.4985533952713013e-02</leafValues></_>
        <_>
          <internalNodes>
            0 -1 637 1.7866307869553566e-02</internalNodes>
          <leafValues>
            -1.6479733586311340e-01 1.5819677710533142e-01</leafValues></_>
        <_>
          <internalNodes>
            0 -1 559 -6.2034805305302143e-03</internalNodes>
          <leafValues>
            2.3695698380470276e-01 -1.1924475431442261e-01</leafValues></_>
        <_>
          <internalNodes>
            0 -1 574 -2.1522058174014091e-02</internalNodes>
          <leafValues>
            -4.1208061575889587e-01 6.5923891961574554e-02</leafValues></_>
        <_>
          <internalNodes>
            0 -1 571 -3.4394459362374619e-05</internalNodes>
          <leafValues>
            1.3089008629322052e-01 -1.9350397586822510e-01</leafValues></_>
        <_>
          <internalNodes>
            0 -1 174 7.9860188066959381e-02</internalNodes>
          <leafValues>
            -5.8358296751976013e-02 4.3873763084411621e-01</leafValues></_>
        <_>
          <internalNodes>
            0 -1 148 -2.4431407451629639e-01</internalNodes>
          <leafValues>
            -8.3225959539413452e-01 3.2465804368257523e-02</leafValues></_>
        <_>
          <internalNodes>
            0 -1 802 -7.8693985939025879e-02</internalNodes>
          <leafValues>
            -1.3369877338409424e+00 2.5681454688310623e-02</leafValues></_>
        <_>
          <internalNodes>
            0 -1 945 -1.8268622225150466e-03</internalNodes>
          <leafValues>
            2.1134592592716217e-01 -1.0619415342807770e-01</leafValues></_>
        <_>
          <internalNodes>
            0 -1 967 -1.0949361603707075e-03</internalNodes>
          <leafValues>
            2.2692942619323730e-01 -1.4068356156349182e-01</leafValues></_>
        <_>
          <internalNodes>
            0 -1 681 1.0357318678870797e-03</internalNodes>
          <leafValues>
            1.1995533108711243e-01 -1.8556018173694611e-01</leafValues></_>
        <_>
          <internalNodes>
            0 -1 551 5.6536355987191200e-03</internalNodes>
          <leafValues>
            -5.3759686648845673e-02 4.6206119656562805e-01</leafValues></_>
        <_>
          <internalNodes>
            0 -1 728 6.7225871607661247e-03</internalNodes>
          <leafValues>
            -1.4735491573810577e-01 1.7394176125526428e-01</leafValues></_>
        <_>
          <internalNodes>
            0 -1 982 4.0796330722514540e-05</internalNodes>
          <leafValues>
            -1.4973963797092438e-01 1.8901838362216949e-01</leafValues></_>
        <_>
          <internalNodes>
            0 -1 217 5.5326141417026520e-02</internalNodes>
          <leafValues>
            3.8756579160690308e-02 -5.7880198955535889e-01</leafValues></_>
        <_>
          <internalNodes>
            0 -1 536 1.6479112207889557e-02</internalNodes>
          <leafValues>
            -8.9532136917114258e-02 2.6719605922698975e-01</leafValues></_>
        <_>
          <internalNodes>
            0 -1 543 -9.5637589693069458e-03</internalNodes>
          <leafValues>
            2.9657876491546631e-01 -7.9996965825557709e-02</leafValues></_>
        <_>
          <internalNodes>
            0 -1 310 -6.8215146660804749e-02</internalNodes>
          <leafValues>
            1.8114610016345978e-01 -1.2292330712080002e-01</leafValues></_>
        <_>
          <internalNodes>
            0 -1 111 -1.1253684759140015e-02</internalNodes>
          <leafValues>
            -7.1851199865341187e-01 3.5004559904336929e-02</leafValues></_>
        <_>
          <internalNodes>
            0 -1 132 4.4897265732288361e-02</internalNodes>
          <leafValues>
            -9.8527945578098297e-02 2.4217547476291656e-01</leafValues></_>
        <_>
          <internalNodes>
            0 -1 255 1.9964018464088440e-01</internalNodes>
          <leafValues>
            -5.0766441971063614e-02 5.3645926713943481e-01</leafValues></_>
        <_>
          <internalNodes>
            0 -1 927 1.5141067095100880e-02</internalNodes>
          <leafValues>
            -5.2358746528625488e-02 4.2098996043205261e-01</leafValues></_>
        <_>
          <internalNodes>
            0 -1 506 -2.7348751202225685e-02</internalNodes>
          <leafValues>
            -9.7313410043716431e-01 2.6804376393556595e-02</leafValues></_>
        <_>
          <internalNodes>
            0 -1 746 1.7984522506594658e-02</internalNodes>
          <leafValues>
            3.3550754189491272e-02 -6.7790824174880981e-01</leafValues></_>
        <_>
          <internalNodes>
            0 -1 720 4.1275616240454838e-05</internalNodes>
          <leafValues>
            -1.3477239012718201e-01 1.4604574441909790e-01</leafValues></_>
        <_>
          <internalNodes>
            0 -1 560 8.3686932921409607e-02</internalNodes>
          <leafValues>
            2.6094671338796616e-02 -9.8833203315734863e-01</leafValues></_>
        <_>
          <internalNodes>
            0 -1 453 -2.7371095493435860e-03</internalNodes>
          <leafValues>
            2.3022435605525970e-01 -9.2469394207000732e-02</leafValues></_>
        <_>
          <internalNodes>
            0 -1 453 2.5735022500157356e-03</internalNodes>
          <leafValues>
            -1.0537387430667877e-01 2.4420447647571564e-01</leafValues></_>
        <_>
          <internalNodes>
            0 -1 584 -2.9803616926074028e-03</internalNodes>
          <leafValues>
            -3.7623924016952515e-01 6.5635301172733307e-02</leafValues></_>
        <_>
          <internalNodes>
            0 -1 758 -6.4125191420316696e-03</internalNodes>
          <leafValues>
            -4.3318682909011841e-01 5.3606633096933365e-02</leafValues></_>
        <_>
          <internalNodes>
            0 -1 655 -3.5387530922889709e-02</internalNodes>
          <leafValues>
            -8.7567931413650513e-01 2.8996909037232399e-02</leafValues></_>
        <_>
          <internalNodes>
            0 -1 189 1.2172482907772064e-02</internalNodes>
          <leafValues>
            -5.2094049751758575e-02 4.4756072759628296e-01</leafValues></_>
        <_>
          <internalNodes>
            0 -1 186 -1.0266248136758804e-02</internalNodes>
          <leafValues>
            2.2653681039810181e-01 -1.1266320198774338e-01</leafValues></_>
        <_>
          <internalNodes>
            0 -1 708 1.6761244041845202e-03</internalNodes>
          <leafValues>
            -1.3305556774139404e-01 1.4263114333152771e-01</leafValues></_>
        <_>
          <internalNodes>
            0 -1 717 1.7490556836128235e-01</internalNodes>
          <leafValues>
            3.5402178764343262e-02 -6.2761795520782471e-01</leafValues></_>
        <_>
          <internalNodes>
            0 -1 69 2.8543567657470703e-01</internalNodes>
          <leafValues>
            2.1332772448658943e-02 -1.8152620792388916e+00</leafValues></_>
        <_>
          <internalNodes>
            0 -1 48 -4.1033402085304260e-02</internalNodes>
          <leafValues>
            -1.7277908325195312e-01 1.2549309432506561e-01</leafValues></_>
        <_>
          <internalNodes>
            0 -1 701 1.0229825973510742e-01</internalNodes>
          <leafValues>
            -5.4544232785701752e-02 4.1489225625991821e-01</leafValues></_></weakClassifiers></_>
    <!-- stage 12 -->
    <_>
      <maxWeakCount>78</maxWeakCount>
      <stageThreshold>-1.4263343811035156e+00</stageThreshold>
      <weakClassifiers>
        <_>
          <internalNodes>
            0 -1 499 1.0034221410751343e-01</internalNodes>
          <leafValues>
            -3.7831857800483704e-01 5.0092928111553192e-02</leafValues></_>
        <_>
          <internalNodes>
            0 -1 426 5.1210500299930573e-02</internalNodes>
          <leafValues>
            -2.2066365182399750e-01 1.9082234799861908e-01</leafValues></_>
        <_>
          <internalNodes>
            0 -1 424 3.4761216491460800e-02</internalNodes>
          <leafValues>
            -1.4403907954692841e-01 2.4163644015789032e-01</leafValues></_>
        <_>
          <internalNodes>
            0 -1 866 -9.0746339410543442e-03</internalNodes>
          <leafValues>
            3.2055357098579407e-01 -1.0697089880704880e-01</leafValues></_>
        <_>
          <internalNodes>
            0 -1 198 6.6010400652885437e-02</internalNodes>
          <leafValues>
            -9.6043847501277924e-02 3.7733408808708191e-01</leafValues></_>
        <_>
          <internalNodes>
            0 -1 107 -1.7575066536664963e-02</internalNodes>
          <leafValues>
            2.6972579956054688e-01 -1.0027431696653366e-01</leafValues></_>
        <_>
          <internalNodes>
            0 -1 125 -5.9358119964599609e-02</internalNodes>
          <leafValues>
            -5.8214890956878662e-01 5.8503903448581696e-02</leafValues></_>
        <_>
          <internalNodes>
            0 -1 577 -2.8270423412322998e-02</internalNodes>
          <leafValues>
            -5.6406211853027344e-01 6.5169289708137512e-02</leafValues></_>
        <_>
          <internalNodes>
            0 -1 610 -4.7195651568472385e-03</internalNodes>
          <leafValues>
            1.7693667113780975e-01 -1.8022459745407104e-01</leafValues></_>
        <_>
          <internalNodes>
            0 -1 781 -1.5157154202461243e-01</internalNodes>
          <leafValues>
            -1.1624485254287720e+00 5.1245220005512238e-02</leafValues></_>
        <_>
          <internalNodes>
            0 -1 344 1.1514675617218018e-01</internalNodes>
          <leafValues>
            -9.3031942844390869e-02 3.9621359109878540e-01</leafValues></_>
        <_>
          <internalNodes>
            0 -1 510 -5.1429388113319874e-03</internalNodes>
          <leafValues>
            1.5510338544845581e-01 -1.8458372354507446e-01</leafValues></_>
        <_>
          <internalNodes>
            0 -1 437 1.6275851055979729e-02</internalNodes>
          <leafValues>
            -9.9150545895099640e-02 4.1078311204910278e-01</leafValues></_>
        <_>
          <internalNodes>
            0 -1 624 1.6179077327251434e-01</internalNodes>
          <leafValues>
            -1.4603321254253387e-01 2.2049197554588318e-01</leafValues></_>
        <_>
          <internalNodes>
            0 -1 326 4.0003124624490738e-02</internalNodes>
          <leafValues>
            -8.1815376877784729e-02 4.4940510392189026e-01</leafValues></_>
        <_>
          <internalNodes>
            0 -1 261 -1.1407016217708588e-01</internalNodes>
          <leafValues>
            -8.4958672523498535e-01 4.7375950962305069e-02</leafValues></_>
        <_>
          <internalNodes>
            0 -1 246 -8.2796411588788033e-03</internalNodes>
          <leafValues>
            2.8659579157829285e-01 -8.7511658668518066e-02</leafValues></_>
        <_>
          <internalNodes>
            0 -1 370 1.1262139305472374e-02</internalNodes>
          <leafValues>
            -8.1792682409286499e-02 3.3123838901519775e-01</leafValues></_>
        <_>
          <internalNodes>
            0 -1 926 -9.3476977199316025e-03</internalNodes>
          <leafValues>
            2.7647331357002258e-01 -1.1325573176145554e-01</leafValues></_>
        <_>
          <internalNodes>
            0 -1 774 7.7583804726600647e-02</internalNodes>
          <leafValues>
            -5.8457974344491959e-02 5.6937670707702637e-01</leafValues></_>
        <_>
          <internalNodes>
            0 -1 63 -3.3130951225757599e-02</internalNodes>
          <leafValues>
            4.6345847845077515e-01 -4.7494031488895416e-02</leafValues></_>
        <_>
          <internalNodes>
            0 -1 23 -1.5844970941543579e-02</internalNodes>
          <leafValues>
            -2.6626598834991455e-01 1.0094622522592545e-01</leafValues></_>
        <_>
          <internalNodes>
            0 -1 71 -3.9481270505348220e-05</internalNodes>
          <leafValues>
            1.5040057897567749e-01 -1.4571548998355865e-01</leafValues></_>
        <_>
          <internalNodes>
            0 -1 669 -4.1324138641357422e-02</internalNodes>
          <leafValues>
            -7.8904366493225098e-01 3.4817237406969070e-02</leafValues></_>
        <_>
          <internalNodes>
            0 -1 992 -4.1520956438034773e-04</internalNodes>
          <leafValues>
            1.8103879690170288e-01 -1.2728385627269745e-01</leafValues></_>
        <_>
          <internalNodes>
            0 -1 587 -2.0442932844161987e-02</internalNodes>
          <leafValues>
            -5.4842758178710938e-01 4.3267119675874710e-02</leafValues></_>
        <_>
          <internalNodes>
            0 -1 946 -1.4879753580316901e-03</internalNodes>
          <leafValues>
            1.7878137528896332e-01 -1.1988927423954010e-01</leafValues></_>
        <_>
          <internalNodes>
            0 -1 349 -8.7484523653984070e-02</internalNodes>
          <leafValues>
            -1.0550389289855957e+00 2.6779530569911003e-02</leafValues></_>
        <_>
          <internalNodes>
            0 -1 950 -1.2961152940988541e-02</internalNodes>
          <leafValues>
            2.2055922448635101e-01 -9.9027074873447418e-02</leafValues></_>
        <_>
          <internalNodes>
            0 -1 900 -1.6424711793661118e-02</internalNodes>
          <leafValues>
            -5.4968327283859253e-01 4.2632438242435455e-02</leafValues></_>
        <_>
          <internalNodes>
            0 -1 756 -9.5825940370559692e-02</internalNodes>
          <leafValues>
            -9.6917396783828735e-01 2.9845401644706726e-02</leafValues></_>
        <_>
          <internalNodes>
            0 -1 970 6.8143708631396294e-03</internalNodes>
          <leafValues>
            -9.5984384417533875e-02 2.3153185844421387e-01</leafValues></_>
        <_>
          <internalNodes>
            0 -1 836 -3.0128946527838707e-03</internalNodes>
          <leafValues>
            2.2113969922065735e-01 -1.1324746906757355e-01</leafValues></_>
        <_>
          <internalNodes>
            0 -1 671 -3.3933425584109500e-05</internalNodes>
          <leafValues>
            1.4174707233905792e-01 -1.5369340777397156e-01</leafValues></_>
        <_>
          <internalNodes>
            0 -1 667 -1.6062565147876740e-02</internalNodes>
          <leafValues>
            2.9750475287437439e-01 -8.0522581934928894e-02</leafValues></_>
        <_>
          <internalNodes>
            0 -1 872 8.6156390607357025e-03</internalNodes>
          <leafValues>
            -7.3751866817474365e-02 3.3968728780746460e-01</leafValues></_>
        <_>
          <internalNodes>
            0 -1 162 -5.4031908512115479e-02</internalNodes>
          <leafValues>
            1.8179082870483398e-01 -1.1948617547750473e-01</leafValues></_>
        <_>
          <internalNodes>
            0 -1 70 -5.3793795406818390e-02</internalNodes>
          <leafValues>
            -7.4323046207427979e-01 3.3702582120895386e-02</leafValues></_>
        <_>
          <internalNodes>
            0 -1 985 -2.0234938710927963e-02</internalNodes>
          <leafValues>
            -2.7317512035369873e-01 7.5350478291511536e-02</leafValues></_>
        <_>
          <internalNodes>
            0 -1 4 -5.3552396595478058e-02</internalNodes>
          <leafValues>
            -7.1135801076889038e-01 3.4412626177072525e-02</leafValues></_>
        <_>
          <internalNodes>
            0 -1 907 -2.4264406412839890e-02</internalNodes>
          <leafValues>
            -5.0432938337326050e-01 4.4337574392557144e-02</leafValues></_>
        <_>
          <internalNodes>
            0 -1 713 -4.8863827250897884e-03</internalNodes>
          <leafValues>
            1.6877889633178711e-01 -1.5273478627204895e-01</leafValues></_>
        <_>
          <internalNodes>
            0 -1 603 -3.1268652528524399e-03</internalNodes>
          <leafValues>
            -3.4090933203697205e-01 6.4284928143024445e-02</leafValues></_>
        <_>
          <internalNodes>
            0 -1 383 1.7820004373788834e-02</internalNodes>
          <leafValues>
            -4.7999646514654160e-02 4.6918165683746338e-01</leafValues></_>
        <_>
          <internalNodes>
            0 -1 605 4.2053451761603355e-03</internalNodes>
          <leafValues>
            9.4529390335083008e-02 -2.2449634969234467e-01</leafValues></_>
        <_>
          <internalNodes>
            0 -1 702 -1.3968048151582479e-03</internalNodes>
          <leafValues>
            -2.7915897965431213e-01 8.4701016545295715e-02</leafValues></_>
        <_>
          <internalNodes>
            0 -1 908 -2.1705646067857742e-03</internalNodes>
          <leafValues>
            -1.6674098372459412e-01 1.2529852986335754e-01</leafValues></_>
        <_>
          <internalNodes>
            0 -1 845 2.7235142886638641e-02</internalNodes>
          <leafValues>
            4.2043250054121017e-02 -5.6417995691299438e-01</leafValues></_>
        <_>
          <internalNodes>
            0 -1 477 -3.5329288948560134e-05</internalNodes>
          <leafValues>
            1.3716715574264526e-01 -1.5228116512298584e-01</leafValues></_>
        <_>
          <internalNodes>
            0 -1 999 -1.0114676551893353e-03</internalNodes>
          <leafValues>
            1.9530656933784485e-01 -1.0659497976303101e-01</leafValues></_>
        <_>
          <internalNodes>
            0 -1 486 -7.2573527693748474e-02</internalNodes>
          <leafValues>
            3.1037512421607971e-01 -6.8854577839374542e-02</leafValues></_>
        <_>
          <internalNodes>
            0 -1 211 -2.4479758739471436e-01</internalNodes>
          <leafValues>
            2.1823477745056152e-01 -1.0081000626087189e-01</leafValues></_>
        <_>
          <internalNodes>
            0 -1 515 1.7978157848119736e-02</internalNodes>
          <leafValues>
            -7.5856067240238190e-02 3.1357976794242859e-01</leafValues></_>
        <_>
          <internalNodes>
            0 -1 792 4.6528970415238291e-05</internalNodes>
          <leafValues>
            -1.9145600497722626e-01 1.1163444072008133e-01</leafValues></_>
        <_>
          <internalNodes>
            0 -1 434 7.9949228093028069e-03</internalNodes>
          <leafValues>
            -6.6314607858657837e-02 3.2340013980865479e-01</leafValues></_>
        <_>
          <internalNodes>
            0 -1 404 -1.2526823207736015e-02</internalNodes>
          <leafValues>
            -7.8006231784820557e-01 3.2826263457536697e-02</leafValues></_>
        <_>
          <internalNodes>
            0 -1 226 3.1128766015172005e-02</internalNodes>
          <leafValues>
            4.2914226651191711e-02 -5.6426674127578735e-01</leafValues></_>
        <_>
          <internalNodes>
            0 -1 767 -1.7571772914379835e-03</internalNodes>
          <leafValues>
            -2.1543793380260468e-01 1.1022114753723145e-01</leafValues></_>
        <_>
          <internalNodes>
            0 -1 694 -3.6498412489891052e-02</internalNodes>
          <leafValues>
            2.3564505577087402e-01 -9.3312993645668030e-02</leafValues></_>
        <_>
          <internalNodes>
            0 -1 170 -6.2328446656465530e-03</internalNodes>
          <leafValues>
            2.1112196147441864e-01 -1.0262013971805573e-01</leafValues></_>
        <_>
          <internalNodes>
            0 -1 419 2.5621738284826279e-02</internalNodes>
          <leafValues>
            -6.0022421181201935e-02 3.5373157262802124e-01</leafValues></_>
        <_>
          <internalNodes>
            0 -1 241 1.1179888620972633e-02</internalNodes>
          <leafValues>
            -8.5449598729610443e-02 2.5661605596542358e-01</leafValues></_>
        <_>
          <internalNodes>
            0 -1 137 6.5100416541099548e-02</internalNodes>
          <leafValues>
            3.2832778990268707e-02 -8.3671140670776367e-01</leafValues></_>
        <_>
          <internalNodes>
            0 -1 335 1.8183380365371704e-02</internalNodes>
          <leafValues>
            -7.0302002131938934e-02 3.2739931344985962e-01</leafValues></_>
        <_>
          <internalNodes>
            0 -1 341 -6.2811434268951416e-02</internalNodes>
          <leafValues>
            -1.4047778844833374e+00 2.3542921990156174e-02</leafValues></_>
        <_>
          <internalNodes>
            0 -1 432 4.8521002754569054e-03</internalNodes>
          <leafValues>
            -8.5087351500988007e-02 2.2371262311935425e-01</leafValues></_>
        <_>
          <internalNodes>
            0 -1 417 -4.6744113788008690e-03</internalNodes>
          <leafValues>
            2.2761155664920807e-01 -1.2250687927007675e-01</leafValues></_>
        <_>
          <internalNodes>
            0 -1 6 -1.6538041830062866e-01</internalNodes>
          <leafValues>
            -1.0561805963516235e+00 2.3258648812770844e-02</leafValues></_>
        <_>
          <internalNodes>
            0 -1 90 6.1647415161132812e-02</internalNodes>
          <leafValues>
            -7.6033391058444977e-02 2.8288763761520386e-01</leafValues></_>
        <_>
          <internalNodes>
            0 -1 248 -1.0364848375320435e-01</internalNodes>
          <leafValues>
            -1.2870385646820068e+00 2.6328124105930328e-02</leafValues></_>
        <_>
          <internalNodes>
            0 -1 2 2.1792050451040268e-02</internalNodes>
          <leafValues>
            6.1830345541238785e-02 -3.9130485057830811e-01</leafValues></_>
        <_>
          <internalNodes>
            0 -1 617 2.2219033911824226e-02</internalNodes>
          <leafValues>
            5.5527497082948685e-02 -4.0560469031333923e-01</leafValues></_>
        <_>
          <internalNodes>
            0 -1 32 -1.3234002515673637e-02</internalNodes>
          <leafValues>
            -3.0135563015937805e-01 7.2265125811100006e-02</leafValues></_>
        <_>
          <internalNodes>
            0 -1 592 1.5289204893633723e-03</internalNodes>
          <leafValues>
            1.0278225690126419e-01 -1.9858266413211823e-01</leafValues></_>
        <_>
          <internalNodes>
            0 -1 185 2.0418073982000351e-02</internalNodes>
          <leafValues>
            -6.0944527387619019e-02 3.5164481401443481e-01</leafValues></_>
        <_>
          <internalNodes>
            0 -1 276 -4.4486587285064161e-05</internalNodes>
          <leafValues>
            1.4755262434482574e-01 -1.3624788820743561e-01</leafValues></_>
        <_>
          <internalNodes>
            0 -1 285 -3.5145387519150972e-03</internalNodes>
          <leafValues>
            2.2402366995811462e-01 -8.7078183889389038e-02</leafValues></_>
        <_>
          <internalNodes>
            0 -1 960 1.1532358825206757e-02</internalNodes>
          <leafValues>
            -8.4601923823356628e-02 2.4101291596889496e-01</leafValues></_></weakClassifiers></_>
    <!-- stage 13 -->
    <_>
      <maxWeakCount>84</maxWeakCount>
      <stageThreshold>-1.3171324729919434e+00</stageThreshold>
      <weakClassifiers>
        <_>
          <internalNodes>
            0 -1 369 -9.0493224561214447e-03</internalNodes>
          <leafValues>
            -6.5281629562377930e-02 -4.1841825842857361e-01</leafValues></_>
        <_>
          <internalNodes>
            0 -1 140 -3.2605789601802826e-02</internalNodes>
          <leafValues>
            1.5141837298870087e-01 -1.9435025751590729e-01</leafValues></_>
        <_>
          <internalNodes>
            0 -1 622 3.0039802193641663e-02</internalNodes>
          <leafValues>
            5.3209304809570312e-02 -4.5957046747207642e-01</leafValues></_>
        <_>
          <internalNodes>
            0 -1 576 2.9858073219656944e-02</internalNodes>
          <leafValues>
            1.0203531384468079e-01 -3.0062955617904663e-01</leafValues></_>
        <_>
          <internalNodes>
            0 -1 593 -6.9254413247108459e-03</internalNodes>
          <leafValues>
            -1.8947857618331909e-01 1.3283690810203552e-01</leafValues></_>
        <_>
          <internalNodes>
            0 -1 807 4.5045977458357811e-03</internalNodes>
          <leafValues>
            -8.5823290050029755e-02 3.2254275679588318e-01</leafValues></_>
        <_>
          <internalNodes>
            0 -1 986 3.5242748708697036e-05</internalNodes>
          <leafValues>
            -1.3466648757457733e-01 1.5346738696098328e-01</leafValues></_>
        <_>
          <internalNodes>
            0 -1 940 8.1084193661808968e-03</internalNodes>
          <leafValues>
            -7.1638137102127075e-02 2.7300342917442322e-01</leafValues></_>
        <_>
          <internalNodes>
            0 -1 519 1.5499012172222137e-01</internalNodes>
          <leafValues>
            -8.1196546554565430e-02 4.0266579389572144e-01</leafValues></_>
        <_>
          <internalNodes>
            0 -1 108 -3.0405476689338684e-02</internalNodes>
          <leafValues>
            2.5514492392539978e-01 -1.1661094427108765e-01</leafValues></_>
        <_>
          <internalNodes>
            0 -1 607 -3.3848707098513842e-03</internalNodes>
          <leafValues>
            1.7158553004264832e-01 -1.3871049880981445e-01</leafValues></_>
        <_>
          <internalNodes>
            0 -1 534 -1.8218415789306164e-03</internalNodes>
          <leafValues>
            1.2469821423292160e-01 -1.6451883316040039e-01</leafValues></_>
        <_>
          <internalNodes>
            0 -1 606 1.6098080668598413e-03</internalNodes>
          <leafValues>
            -7.8396148979663849e-02 3.5769698023796082e-01</leafValues></_>
        <_>
          <internalNodes>
            0 -1 640 -7.3696360923349857e-03</internalNodes>
          <leafValues>
            -6.5370714664459229e-01 5.0485320389270782e-02</leafValues></_>
        <_>
          <internalNodes>
            0 -1 807 -4.1136378422379494e-03</internalNodes>
          <leafValues>
            2.4836614727973938e-01 -8.8257782161235809e-02</leafValues></_>
        <_>
          <internalNodes>
            0 -1 917 -2.8002103790640831e-02</internalNodes>
          <leafValues>
            -8.9354944229125977e-01 3.1701777130365372e-02</leafValues></_>
        <_>
          <internalNodes>
            0 -1 79 -3.0504453461617231e-03</internalNodes>
          <leafValues>
            1.8849030137062073e-01 -1.1165191978216171e-01</leafValues></_>
        <_>
          <internalNodes>
            0 -1 379 -3.3829107880592346e-02</internalNodes>
          <leafValues>
            -3.1098577380180359e-01 6.0755003243684769e-02</leafValues></_>
        <_>
          <internalNodes>
            0 -1 645 6.9862246513366699e-02</internalNodes>
          <leafValues>
            -3.3068984746932983e-02 7.6992624998092651e-01</leafValues></_>
        <_>
          <internalNodes>
            0 -1 413 1.2132825702428818e-01</internalNodes>
          <leafValues>
            3.6175258457660675e-02 -5.8881461620330811e-01</leafValues></_>
        <_>
          <internalNodes>
            0 -1 874 -2.5530960410833359e-03</internalNodes>
          <leafValues>
            1.8275180459022522e-01 -9.9112264811992645e-02</leafValues></_>
        <_>
          <internalNodes>
            0 -1 817 -1.1134327203035355e-01</internalNodes>
          <leafValues>
            4.9517571926116943e-01 -4.4007748365402222e-02</leafValues></_>
        <_>
          <internalNodes>
            0 -1 818 -8.7210122728720307e-05</internalNodes>
          <leafValues>
            1.4818832278251648e-01 -1.4460906386375427e-01</leafValues></_>
        <_>
          <internalNodes>
            0 -1 975 -3.5003703087568283e-03</internalNodes>
          <leafValues>
            2.2955188155174255e-01 -8.6762204766273499e-02</leafValues></_>
        <_>
          <internalNodes>
            0 -1 477 -3.6344281397759914e-05</internalNodes>
          <leafValues>
            1.2601086497306824e-01 -1.5819934010505676e-01</leafValues></_>
        <_>
          <internalNodes>
            0 -1 478 -1.0666429996490479e-02</internalNodes>
          <leafValues>
            -3.4796282649040222e-01 6.4502641558647156e-02</leafValues></_>
        <_>
          <internalNodes>
            0 -1 905 -4.8084851354360580e-02</internalNodes>
          <leafValues>
            -3.4539780020713806e-01 4.8526447266340256e-02</leafValues></_>
        <_>
          <internalNodes>
            0 -1 943 -1.3669626787304878e-02</internalNodes>
          <leafValues>
            1.9082646071910858e-01 -9.2423491179943085e-02</leafValues></_>
        <_>
          <internalNodes>
            0 -1 68 4.7221772372722626e-02</internalNodes>
          <leafValues>
            2.9928099364042282e-02 -8.0273133516311646e-01</leafValues></_>
        <_>
          <internalNodes>
            0 -1 787 -3.4911991097033024e-03</internalNodes>
          <leafValues>
            1.2937019765377045e-01 -1.3600023090839386e-01</leafValues></_>
        <_>
          <internalNodes>
            0 -1 793 -4.3428232893347740e-03</internalNodes>
          <leafValues>
            3.1463167071342468e-01 -7.6890923082828522e-02</leafValues></_>
        <_>
          <internalNodes>
            0 -1 96 -6.8782031536102295e-02</internalNodes>
          <leafValues>
            3.1343787908554077e-01 -6.1112023890018463e-02</leafValues></_>
        <_>
          <internalNodes>
            0 -1 723 5.7180441915988922e-02</internalNodes>
          <leafValues>
            -9.3838579952716827e-02 2.1623347699642181e-01</leafValues></_>
        <_>
          <internalNodes>
            0 -1 538 1.0787583887577057e-02</internalNodes>
          <leafValues>
            -1.5558776259422302e-01 1.2549127638339996e-01</leafValues></_>
        <_>
          <internalNodes>
            0 -1 634 -9.4603903591632843e-02</internalNodes>
          <leafValues>
            7.3139292001724243e-01 -3.0804948881268501e-02</leafValues></_>
        <_>
          <internalNodes>
            0 -1 984 1.1192148551344872e-02</internalNodes>
          <leafValues>
            6.0157757252454758e-02 -3.1014615297317505e-01</leafValues></_>
        <_>
          <internalNodes>
            0 -1 846 3.5307246434967965e-05</internalNodes>
          <leafValues>
            -1.2174349278211594e-01 1.4541754126548767e-01</leafValues></_>
        <_>
          <internalNodes>
            0 -1 453 4.1213156655430794e-03</internalNodes>
          <leafValues>
            -7.5364165008068085e-02 2.4403406679630280e-01</leafValues></_>
        <_>
          <internalNodes>
            0 -1 339 1.0544534772634506e-02</internalNodes>
          <leafValues>
            -7.1889929473400116e-02 2.6146471500396729e-01</leafValues></_>
        <_>
          <internalNodes>
            0 -1 470 8.5167368524707854e-05</internalNodes>
          <leafValues>
            -1.2623091042041779e-01 1.4157958328723907e-01</leafValues></_>
        <_>
          <internalNodes>
            0 -1 849 -4.4170562177896500e-02</internalNodes>
          <leafValues>
            -9.2559123039245605e-01 1.9475514069199562e-02</leafValues></_>
        <_>
          <internalNodes>
            0 -1 173 -1.5780021250247955e-01</internalNodes>
          <leafValues>
            -1.4825788736343384e+00 1.7902411520481110e-02</leafValues></_>
        <_>
          <internalNodes>
            0 -1 60 -2.3891165852546692e-02</internalNodes>
          <leafValues>
            2.3715925216674805e-01 -7.5438328087329865e-02</leafValues></_>
        <_>
          <internalNodes>
            0 -1 327 -2.1742060780525208e-02</internalNodes>
          <leafValues>
            2.1515928208827972e-01 -8.3688341081142426e-02</leafValues></_>
        <_>
          <internalNodes>
            0 -1 347 3.5561488475650549e-03</internalNodes>
          <leafValues>
            -1.0453183203935623e-01 2.2425000369548798e-01</leafValues></_>
        <_>
          <internalNodes>
            0 -1 131 -3.4975476562976837e-02</internalNodes>
          <leafValues>
            -2.8687170147895813e-01 6.9051072001457214e-02</leafValues></_>
        <_>
          <internalNodes>
            0 -1 682 -3.6344281397759914e-05</internalNodes>
          <leafValues>
            1.0590995103120804e-01 -1.6029416024684906e-01</leafValues></_>
        <_>
          <internalNodes>
            0 -1 968 6.8690045736730099e-04</internalNodes>
          <leafValues>
            -9.8921544849872589e-02 1.6350856423377991e-01</leafValues></_>
        <_>
          <internalNodes>
            0 -1 989 -3.5307246434967965e-05</internalNodes>
          <leafValues>
            1.3753628730773926e-01 -1.2085732817649841e-01</leafValues></_>
        <_>
          <internalNodes>
            0 -1 464 -4.3548752728383988e-05</internalNodes>
          <leafValues>
            1.3155363500118256e-01 -1.2964054942131042e-01</leafValues></_>
        <_>
          <internalNodes>
            0 -1 472 1.2311786413192749e-02</internalNodes>
          <leafValues>
            5.5265698581933975e-02 -3.3065521717071533e-01</leafValues></_>
        <_>
          <internalNodes>
            0 -1 678 1.3819658756256104e-01</internalNodes>
          <leafValues>
            4.4353891164064407e-02 -3.9174792170524597e-01</leafValues></_>
        <_>
          <internalNodes>
            0 -1 981 2.7659177780151367e-02</internalNodes>
          <leafValues>
            -1.2350856512784958e-01 1.5404580533504486e-01</leafValues></_>
        <_>
          <internalNodes>
            0 -1 915 -7.6731592416763306e-02</internalNodes>
          <leafValues>
            2.6923012733459473e-01 -6.7941546440124512e-02</leafValues></_>
        <_>
          <internalNodes>
            0 -1 293 1.1067027226090431e-02</internalNodes>
          <leafValues>
            -5.3293768316507339e-02 3.5489952564239502e-01</leafValues></_>
        <_>
          <internalNodes>
            0 -1 80 5.7430500164628029e-03</internalNodes>
          <leafValues>
            -9.3319140374660492e-02 1.8082147836685181e-01</leafValues></_>
        <_>
          <internalNodes>
            0 -1 88 -1.9600097090005875e-02</internalNodes>
          <leafValues>
            1.9565801322460175e-01 -9.6348576247692108e-02</leafValues></_>
        <_>
          <internalNodes>
            0 -1 387 -1.0616231884341687e-04</internalNodes>
          <leafValues>
            1.3336479663848877e-01 -1.6721965372562408e-01</leafValues></_>
        <_>
          <internalNodes>
            0 -1 292 3.0062399804592133e-02</internalNodes>
          <leafValues>
            2.8542121872305870e-02 -6.0040503740310669e-01</leafValues></_>
        <_>
          <internalNodes>
            0 -1 303 -4.6663926914334297e-03</internalNodes>
          <leafValues>
            1.0368446260690689e-01 -1.6488003730773926e-01</leafValues></_>
        <_>
          <internalNodes>
            0 -1 120 1.0915266349911690e-02</internalNodes>
          <leafValues>
            5.9184916317462921e-02 -3.1848391890525818e-01</leafValues></_>
        <_>
          <internalNodes>
            0 -1 13 -5.5866837501525879e-01</internalNodes>
          <leafValues>
            -9.7897928953170776e-01 2.3312686011195183e-02</leafValues></_>
        <_>
          <internalNodes>
            0 -1 100 -3.6037734389537945e-05</internalNodes>
          <leafValues>
            1.3761793076992035e-01 -1.3079531490802765e-01</leafValues></_>
        <_>
          <internalNodes>
            0 -1 85 -5.2195959724485874e-03</internalNodes>
          <leafValues>
            -2.2626452147960663e-01 8.2428187131881714e-02</leafValues></_>
        <_>
          <internalNodes>
            0 -1 735 1.6937393229454756e-03</internalNodes>
          <leafValues>
            -1.2159925699234009e-01 1.3885775208473206e-01</leafValues></_>
        <_>
          <internalNodes>
            0 -1 421 1.1215453967452049e-02</internalNodes>
          <leafValues>
            -6.1691526323556900e-02 3.7981817126274109e-01</leafValues></_>
        <_>
          <internalNodes>
            0 -1 526 -4.5744673116132617e-05</internalNodes>
          <leafValues>
            1.1953354626893997e-01 -1.7724326252937317e-01</leafValues></_>
        <_>
          <internalNodes>
            0 -1 554 -4.6135693788528442e-02</internalNodes>
          <leafValues>
            -6.4576315879821777e-01 2.7581613510847092e-02</leafValues></_>
        <_>
          <internalNodes>
            0 -1 136 1.0379430651664734e-01</internalNodes>
          <leafValues>
            2.7374949306249619e-02 -7.6040107011795044e-01</leafValues></_>
        <_>
          <internalNodes>
            0 -1 483 -1.0295921936631203e-02</internalNodes>
          <leafValues>
            -6.5276688337326050e-01 2.6461709290742874e-02</leafValues></_>
        <_>
          <internalNodes>
            0 -1 333 -6.5042078495025635e-03</internalNodes>
          <leafValues>
            2.2985351085662842e-01 -7.5217992067337036e-02</leafValues></_>
        <_>
          <internalNodes>
            0 -1 537 1.4433965086936951e-01</internalNodes>
          <leafValues>
            -1.7957264557480812e-02 1.4039987325668335e+00</leafValues></_>
        <_>
          <internalNodes>
            0 -1 312 7.6668825931847095e-03</internalNodes>
          <leafValues>
            -9.9185943603515625e-02 1.6383224725723267e-01</leafValues></_>
        <_>
          <internalNodes>
            0 -1 65 4.1589319705963135e-02</internalNodes>
          <leafValues>
            -4.1380759328603745e-02 4.6486425399780273e-01</leafValues></_>
        <_>
          <internalNodes>
            0 -1 334 2.5521911680698395e-02</internalNodes>
          <leafValues>
            2.9312899336218834e-02 -6.8314927816390991e-01</leafValues></_>
        <_>
          <internalNodes>
            0 -1 871 3.8955472409725189e-03</internalNodes>
          <leafValues>
            -6.7470133304595947e-02 2.4711705744266510e-01</leafValues></_>
        <_>
          <internalNodes>
            0 -1 850 -6.8554148077964783e-02</internalNodes>
          <leafValues>
            -1.5079070329666138e+00 1.7314223572611809e-02</leafValues></_>
        <_>
          <internalNodes>
            0 -1 885 -3.6340679798740894e-05</internalNodes>
          <leafValues>
            1.1545068770647049e-01 -1.4179182052612305e-01</leafValues></_>
        <_>
          <internalNodes>
            0 -1 191 -3.0174097046256065e-03</internalNodes>
          <leafValues>
            2.1926209330558777e-01 -7.7498219907283783e-02</leafValues></_>
        <_>
          <internalNodes>
            0 -1 163 1.9744317978620529e-02</internalNodes>
          <leafValues>
            -3.8350533694028854e-02 4.6946975588798523e-01</leafValues></_>
        <_>
          <internalNodes>
            0 -1 953 -1.4286737423390150e-03</internalNodes>
          <leafValues>
            1.4418421685695648e-01 -1.1865737289190292e-01</leafValues></_>
        <_>
          <internalNodes>
            0 -1 911 -2.4688582867383957e-02</internalNodes>
          <leafValues>
            -3.2948467135429382e-01 5.7266324758529663e-02</leafValues></_>
        <_>
          <internalNodes>
            0 -1 402 8.5337394848465919e-03</internalNodes>
          <leafValues>
            7.6856017112731934e-02 -2.4722823500633240e-01</leafValues></_>
        <_>
          <internalNodes>
            0 -1 957 1.2372841592878103e-03</internalNodes>
          <leafValues>
            -9.2681467533111572e-02 2.2215969860553741e-01</leafValues></_></weakClassifiers></_>
    <!-- stage 14 -->
    <_>
      <maxWeakCount>43</maxWeakCount>
      <stageThreshold>-1.6959543228149414e+00</stageThreshold>
      <weakClassifiers>
        <_>
          <internalNodes>
            0 -1 429 6.5358921885490417e-02</internalNodes>
          <leafValues>
            6.9146215915679932e-02 -5.5697894096374512e-01</leafValues></_>
        <_>
          <internalNodes>
            0 -1 272 -3.2303728163242340e-02</internalNodes>
          <leafValues>
            8.2915991544723511e-01 -9.7475841641426086e-02</leafValues></_>
        <_>
          <internalNodes>
            0 -1 384 -2.9887029901146889e-02</internalNodes>
          <leafValues>
            6.7012214660644531e-01 -1.2809257209300995e-01</leafValues></_>
        <_>
          <internalNodes>
            0 -1 942 2.4174237623810768e-02</internalNodes>
          <leafValues>
            -6.3114605844020844e-02 8.0216497182846069e-01</leafValues></_>
        <_>
          <internalNodes>
            0 -1 815 -9.7644768655300140e-02</internalNodes>
          <leafValues>
            6.7824935913085938e-01 -1.0583453625440598e-01</leafValues></_>
        <_>
          <internalNodes>
            0 -1 882 2.9230484738945961e-02</internalNodes>
          <leafValues>
            -1.1652677506208420e-01 6.0928332805633545e-01</leafValues></_>
        <_>
          <internalNodes>
            0 -1 423 -1.0278397053480148e-01</internalNodes>
          <leafValues>
            5.0838881731033325e-01 -1.1731832474470139e-01</leafValues></_>
        <_>
          <internalNodes>
            0 -1 886 -2.2542685270309448e-02</internalNodes>
          <leafValues>
            8.7035673856735229e-01 -4.5706547796726227e-02</leafValues></_>
        <_>
          <internalNodes>
            0 -1 180 3.7189006805419922e-02</internalNodes>
          <leafValues>
            -8.5576936602592468e-02 5.9889185428619385e-01</leafValues></_>
        <_>
          <internalNodes>
            0 -1 292 1.8501603975892067e-02</internalNodes>
          <leafValues>
            8.7177537381649017e-02 -5.3644090890884399e-01</leafValues></_>
        <_>
          <internalNodes>
            0 -1 873 7.7777523547410965e-03</internalNodes>
          <leafValues>
            -1.0687663406133652e-01 3.9876225590705872e-01</leafValues></_>
        <_>
          <internalNodes>
            0 -1 738 -5.1855433412129059e-05</internalNodes>
          <leafValues>
            3.1208571791648865e-01 -1.3930091261863708e-01</leafValues></_>
        <_>
          <internalNodes>
            0 -1 418 1.5468485653400421e-02</internalNodes>
          <leafValues>
            -8.3083957433700562e-02 5.6160891056060791e-01</leafValues></_>
        <_>
          <internalNodes>
            0 -1 691 8.6003746837377548e-03</internalNodes>
          <leafValues>
            8.2435801625251770e-02 -5.4018753767013550e-01</leafValues></_>
        <_>
          <internalNodes>
            0 -1 113 5.0958838313817978e-02</internalNodes>
          <leafValues>
            -4.5448958873748779e-02 8.3300888538360596e-01</leafValues></_>
        <_>
          <internalNodes>
            0 -1 184 -1.7479747533798218e-02</internalNodes>
          <leafValues>
            5.9966123104095459e-01 -7.5976371765136719e-02</leafValues></_>
        <_>
          <internalNodes>
            0 -1 216 -2.9329890385270119e-03</internalNodes>
          <leafValues>
            -2.4332888424396515e-01 1.6679024696350098e-01</leafValues></_>
        <_>
          <internalNodes>
            0 -1 128 4.2681347578763962e-02</internalNodes>
          <leafValues>
            1.2345830351114273e-01 -3.5899028182029724e-01</leafValues></_>
        <_>
          <internalNodes>
            0 -1 42 1.7861012369394302e-02</internalNodes>
          <leafValues>
            -5.5257923901081085e-02 1.2404090166091919e+00</leafValues></_>
        <_>
          <internalNodes>
            0 -1 527 -4.1414768929826096e-05</internalNodes>
          <leafValues>
            1.8118830025196075e-01 -2.1277205646038055e-01</leafValues></_>
        <_>
          <internalNodes>
            0 -1 307 -8.1644378602504730e-02</internalNodes>
          <leafValues>
            -4.3587440252304077e-01 9.7916118800640106e-02</leafValues></_>
        <_>
          <internalNodes>
            0 -1 476 9.7065120935440063e-02</internalNodes>
          <leafValues>
            7.4130453169345856e-02 -5.8437216281890869e-01</leafValues></_>
        <_>
          <internalNodes>
            0 -1 35 3.0463278293609619e-02</internalNodes>
          <leafValues>
            7.1100696921348572e-02 -5.9679299592971802e-01</leafValues></_>
        <_>
          <internalNodes>
            0 -1 686 -2.9384198132902384e-03</internalNodes>
          <leafValues>
            -2.5823852419853210e-01 1.5726907551288605e-01</leafValues></_>
        <_>
          <internalNodes>
            0 -1 34 -7.7115772292017937e-03</internalNodes>
          <leafValues>
            -2.9066434502601624e-01 1.2931960821151733e-01</leafValues></_>
        <_>
          <internalNodes>
            0 -1 839 5.7605705223977566e-03</internalNodes>
          <leafValues>
            -8.5488617420196533e-02 4.5420771837234497e-01</leafValues></_>
        <_>
          <internalNodes>
            0 -1 761 -6.2404252588748932e-02</internalNodes>
          <leafValues>
            3.1299799680709839e-01 -1.1515854299068451e-01</leafValues></_>
        <_>
          <internalNodes>
            0 -1 909 -3.9210375689435750e-05</internalNodes>
          <leafValues>
            2.3538365960121155e-01 -1.5341480076313019e-01</leafValues></_>
        <_>
          <internalNodes>
            0 -1 53 -3.7985777453286573e-05</internalNodes>
          <leafValues>
            2.2715608775615692e-01 -1.5445144474506378e-01</leafValues></_>
        <_>
          <internalNodes>
            0 -1 854 -3.6038185498910025e-05</internalNodes>
          <leafValues>
            2.6661688089370728e-01 -1.3406613469123840e-01</leafValues></_>
        <_>
          <internalNodes>
            0 -1 625 -7.5997952371835709e-03</internalNodes>
          <leafValues>
            2.1289052069187164e-01 -1.8433043360710144e-01</leafValues></_>
        <_>
          <internalNodes>
            0 -1 29 -6.4383640885353088e-02</internalNodes>
          <leafValues>
            2.6525709033012390e-01 -1.3247323036193848e-01</leafValues></_>
        <_>
          <internalNodes>
            0 -1 663 -1.2280191003810614e-04</internalNodes>
          <leafValues>
            2.3827175796031952e-01 -1.7373970150947571e-01</leafValues></_>
        <_>
          <internalNodes>
            0 -1 573 -4.5754968596156687e-05</internalNodes>
          <leafValues>
            1.6520057618618011e-01 -2.5681585073471069e-01</leafValues></_>
        <_>
          <internalNodes>
            0 -1 319 1.1344382539391518e-02</internalNodes>
          <leafValues>
            -2.1212743222713470e-01 1.9244198501110077e-01</leafValues></_>
        <_>
          <internalNodes>
            0 -1 590 4.5866443542763591e-05</internalNodes>
          <leafValues>
            -1.8506719172000885e-01 2.2396454215049744e-01</leafValues></_>
        <_>
          <internalNodes>
            0 -1 446 1.4805469661951065e-02</internalNodes>
          <leafValues>
            -6.5433062613010406e-02 6.1390948295593262e-01</leafValues></_>
        <_>
          <internalNodes>
            0 -1 752 3.9583377540111542e-02</internalNodes>
          <leafValues>
            -5.9336364269256592e-02 7.0804774761199951e-01</leafValues></_>
        <_>
          <internalNodes>
            0 -1 470 1.2314092600718141e-04</internalNodes>
          <leafValues>
            -1.8100327253341675e-01 2.1018776297569275e-01</leafValues></_>
        <_>
          <internalNodes>
            0 -1 846 -2.2948076948523521e-03</internalNodes>
          <leafValues>
            -3.7163639068603516e-01 9.5739640295505524e-02</leafValues></_>
        <_>
          <internalNodes>
            0 -1 264 -1.4079505577683449e-02</internalNodes>
          <leafValues>
            5.3467202186584473e-01 -6.4389519393444061e-02</leafValues></_>
        <_>
          <internalNodes>
            0 -1 177 3.9481270505348220e-05</internalNodes>
          <leafValues>
            -1.7082761228084564e-01 2.0863454043865204e-01</leafValues></_>
        <_>
          <internalNodes>
            0 -1 491 6.4056734554469585e-03</internalNodes>
          <leafValues>
            7.4412494897842407e-02 -4.9211141467094421e-01</leafValues></_></weakClassifiers></_>
    <!-- stage 15 -->
    <_>
      <maxWeakCount>57</maxWeakCount>
      <stageThreshold>-1.4524106979370117e+00</stageThreshold>
      <weakClassifiers>
        <_>
          <internalNodes>
            0 -1 25 -2.9775905609130859e-01</internalNodes>
          <leafValues>
            1.9502824544906616e-01 -4.0230131149291992e-01</leafValues></_>
        <_>
          <internalNodes>
            0 -1 602 2.8747376054525375e-03</internalNodes>
          <leafValues>
            1.2885633111000061e-01 -4.0639850497245789e-01</leafValues></_>
        <_>
          <internalNodes>
            0 -1 602 -1.7996192909777164e-03</internalNodes>
          <leafValues>
            -3.2318890094757080e-01 1.7158956825733185e-01</leafValues></_>
        <_>
          <internalNodes>
            0 -1 867 3.6428891122341156e-02</internalNodes>
          <leafValues>
            -6.1866808682680130e-02 5.9186804294586182e-01</leafValues></_>
        <_>
          <internalNodes>
            0 -1 240 -3.9359748363494873e-02</internalNodes>
          <leafValues>
            4.6096110343933105e-01 -8.2060702145099640e-02</leafValues></_>
        <_>
          <internalNodes>
            0 -1 582 6.2238844111561775e-03</internalNodes>
          <leafValues>
            1.0365028679370880e-01 -3.2724088430404663e-01</leafValues></_>
        <_>
          <internalNodes>
            0 -1 469 1.9304150715470314e-02</internalNodes>
          <leafValues>
            1.6633039712905884e-01 -2.7256867289543152e-01</leafValues></_>
        <_>
          <internalNodes>
            0 -1 257 2.2057805210351944e-02</internalNodes>
          <leafValues>
            -7.1915410459041595e-02 5.7225680351257324e-01</leafValues></_>
        <_>
          <internalNodes>
            0 -1 260 3.2927557826042175e-01</internalNodes>
          <leafValues>
            -8.0831818282604218e-02 5.5627042055130005e-01</leafValues></_>
        <_>
          <internalNodes>
            0 -1 941 2.1337099373340607e-02</internalNodes>
          <leafValues>
            -5.2467025816440582e-02 4.7640916705131531e-01</leafValues></_>
        <_>
          <internalNodes>
            0 -1 18 -8.3532378077507019e-02</internalNodes>
          <leafValues>
            -5.5823630094528198e-01 5.2776664495468140e-02</leafValues></_>
        <_>
          <internalNodes>
            0 -1 910 3.8104008883237839e-02</internalNodes>
          <leafValues>
            5.8883849531412125e-02 -5.1287740468978882e-01</leafValues></_>
        <_>
          <internalNodes>
            0 -1 40 -1.2713480740785599e-02</internalNodes>
          <leafValues>
            -3.7316310405731201e-01 8.6492843925952911e-02</leafValues></_>
        <_>
          <internalNodes>
            0 -1 151 -2.4563837796449661e-02</internalNodes>
          <leafValues>
            -6.2010741233825684e-01 4.7574855387210846e-02</leafValues></_>
        <_>
          <internalNodes>
            0 -1 842 8.4098391234874725e-03</internalNodes>
          <leafValues>
            7.4871174991130829e-02 -4.7279170155525208e-01</leafValues></_>
        <_>
          <internalNodes>
            0 -1 283 -5.2911028265953064e-02</internalNodes>
          <leafValues>
            -5.3504437208175659e-01 6.0434650629758835e-02</leafValues></_>
        <_>
          <internalNodes>
            0 -1 268 -3.3352157473564148e-01</internalNodes>
          <leafValues>
            -1.2498263120651245e+00 2.3799348622560501e-02</leafValues></_>
        <_>
          <internalNodes>
            0 -1 964 5.2398681640625000e-02</internalNodes>
          <leafValues>
            -3.7866849452257156e-02 7.5285977125167847e-01</leafValues></_>
        <_>
          <internalNodes>
            0 -1 995 -2.1925326436758041e-03</internalNodes>
          <leafValues>
            -3.5510379076004028e-01 9.4345360994338989e-02</leafValues></_>
        <_>
          <internalNodes>
            0 -1 994 2.3479401133954525e-03</internalNodes>
          <leafValues>
            1.2795126438140869e-01 -2.5628903508186340e-01</leafValues></_>
        <_>
          <internalNodes>
            0 -1 396 -2.6316933333873749e-02</internalNodes>
          <leafValues>
            6.9395750761032104e-01 -4.6273037791252136e-02</leafValues></_>
        <_>
          <internalNodes>
            0 -1 740 4.6770684421062469e-03</internalNodes>
          <leafValues>
            -8.3431452512741089e-02 3.7496477365493774e-01</leafValues></_>
        <_>
          <internalNodes>
            0 -1 332 2.1307908464223146e-03</internalNodes>
          <leafValues>
            1.0408365726470947e-01 -2.5448402762413025e-01</leafValues></_>
        <_>
          <internalNodes>
            0 -1 494 -4.8698741011321545e-03</internalNodes>
          <leafValues>
            -3.2749381661415100e-01 8.5562497377395630e-02</leafValues></_>
        <_>
          <internalNodes>
            0 -1 993 -2.0584412850439548e-03</internalNodes>
          <leafValues>
            -2.3706872761249542e-01 1.1128046363592148e-01</leafValues></_>
        <_>
          <internalNodes>
            0 -1 245 7.2073582559823990e-03</internalNodes>
          <leafValues>
            -6.6369116306304932e-02 4.1440185904502869e-01</leafValues></_>
        <_>
          <internalNodes>
            0 -1 790 9.6563115715980530e-02</internalNodes>
          <leafValues>
            -7.0757031440734863e-02 3.8531136512756348e-01</leafValues></_>
        <_>
          <internalNodes>
            0 -1 238 1.4294052124023438e-01</internalNodes>
          <leafValues>
            -6.5735884010791779e-02 5.3439015150070190e-01</leafValues></_>
        <_>
          <internalNodes>
            0 -1 533 -3.8351163268089294e-02</internalNodes>
          <leafValues>
            3.7408304214477539e-01 -8.3584643900394440e-02</leafValues></_>
        <_>
          <internalNodes>
            0 -1 418 -8.4759853780269623e-03</internalNodes>
          <leafValues>
            2.4893249571323395e-01 -1.1603042483329773e-01</leafValues></_>
        <_>
          <internalNodes>
            0 -1 418 1.2273490428924561e-02</internalNodes>
          <leafValues>
            -9.0639092028141022e-02 3.5151785612106323e-01</leafValues></_>
        <_>
          <internalNodes>
            0 -1 763 1.4824977144598961e-02</internalNodes>
          <leafValues>
            7.3601543903350830e-02 -3.5374009609222412e-01</leafValues></_>
        <_>
          <internalNodes>
            0 -1 841 3.8114458322525024e-02</internalNodes>
          <leafValues>
            -3.3281270414590836e-02 1.0931503772735596e+00</leafValues></_>
        <_>
          <internalNodes>
            0 -1 689 -2.3154127411544323e-03</internalNodes>
          <leafValues>
            -2.5431811809539795e-01 1.1676587909460068e-01</leafValues></_>
        <_>
          <internalNodes>
            0 -1 771 4.1776141151785851e-03</internalNodes>
          <leafValues>
            1.0921481251716614e-01 -2.8588351607322693e-01</leafValues></_>
        <_>
          <internalNodes>
            0 -1 589 5.9236038941890001e-04</internalNodes>
          <leafValues>
            1.2280537933111191e-01 -2.0472800731658936e-01</leafValues></_>
        <_>
          <internalNodes>
            0 -1 740 -6.2936916947364807e-03</internalNodes>
          <leafValues>
            4.6726053953170776e-01 -5.6090384721755981e-02</leafValues></_>
        <_>
          <internalNodes>
            0 -1 301 -8.8879957795143127e-02</internalNodes>
          <leafValues>
            -1.3072676658630371e+00 2.7592116966843605e-02</leafValues></_>
        <_>
          <internalNodes>
            0 -1 76 -4.6528970415238291e-05</internalNodes>
          <leafValues>
            1.6496703028678894e-01 -1.5123604238033295e-01</leafValues></_>
        <_>
          <internalNodes>
            0 -1 682 -7.4237226508557796e-03</internalNodes>
          <leafValues>
            -3.6315935850143433e-01 6.7281462252140045e-02</leafValues></_>
        <_>
          <internalNodes>
            0 -1 853 2.0941080525517464e-02</internalNodes>
          <leafValues>
            9.8146818578243256e-02 -2.4028503894805908e-01</leafValues></_>
        <_>
          <internalNodes>
            0 -1 440 -3.8007055409252644e-03</internalNodes>
          <leafValues>
            -2.8088772296905518e-01 8.5783265531063080e-02</leafValues></_>
        <_>
          <internalNodes>
            0 -1 929 5.5474177002906799e-02</internalNodes>
          <leafValues>
            5.8932729065418243e-02 -4.1611433029174805e-01</leafValues></_>
        <_>
          <internalNodes>
            0 -1 617 1.7436239868402481e-02</internalNodes>
          <leafValues>
            7.1133129298686981e-02 -3.2566255331039429e-01</leafValues></_>
        <_>
          <internalNodes>
            0 -1 785 2.0561732351779938e-02</internalNodes>
          <leafValues>
            -3.9089925587177277e-02 7.8470832109451294e-01</leafValues></_>
        <_>
          <internalNodes>
            0 -1 176 -9.9871968850493431e-03</internalNodes>
          <leafValues>
            5.8296966552734375e-01 -4.6605776995420456e-02</leafValues></_>
        <_>
          <internalNodes>
            0 -1 296 -1.8106880597770214e-03</internalNodes>
          <leafValues>
            -2.3734906315803528e-01 1.0005077719688416e-01</leafValues></_>
        <_>
          <internalNodes>
            0 -1 835 -1.4098061248660088e-02</internalNodes>
          <leafValues>
            2.4159920215606689e-01 -9.7260773181915283e-02</leafValues></_>
        <_>
          <internalNodes>
            0 -1 206 -3.4762604627758265e-03</internalNodes>
          <leafValues>
            -2.5258007645606995e-01 9.4070822000503540e-02</leafValues></_>
        <_>
          <internalNodes>
            0 -1 33 6.5787941217422485e-02</internalNodes>
          <leafValues>
            -4.0093537420034409e-02 7.1958923339843750e-01</leafValues></_>
        <_>
          <internalNodes>
            0 -1 152 4.0353297663386911e-05</internalNodes>
          <leafValues>
            -1.5563325583934784e-01 1.6169159114360809e-01</leafValues></_>
        <_>
          <internalNodes>
            0 -1 5 1.8619397655129433e-02</internalNodes>
          <leafValues>
            6.3167698681354523e-02 -4.1910541057586670e-01</leafValues></_>
        <_>
          <internalNodes>
            0 -1 336 -3.2270387746393681e-03</internalNodes>
          <leafValues>
            1.2862564623355865e-01 -1.8344101309776306e-01</leafValues></_>
        <_>
          <internalNodes>
            0 -1 531 9.7132828086614609e-03</internalNodes>
          <leafValues>
            -7.4350729584693909e-02 3.7933692336082458e-01</leafValues></_>
        <_>
          <internalNodes>
            0 -1 385 -5.6815646588802338e-02</internalNodes>
          <leafValues>
            -1.2755198478698730e+00 2.5841025635600090e-02</leafValues></_>
        <_>
          <internalNodes>
            0 -1 779 -8.8670037686824799e-02</internalNodes>
          <leafValues>
            -6.4195251464843750e-01 4.1780196130275726e-02</leafValues></_>
        <_>
          <internalNodes>
            0 -1 557 8.5939848795533180e-03</internalNodes>
          <leafValues>
            1.2838511168956757e-01 -2.0083484053611755e-01</leafValues></_></weakClassifiers></_>
    <!-- stage 16 -->
    <_>
      <maxWeakCount>63</maxWeakCount>
      <stageThreshold>-1.3249944448471069e+00</stageThreshold>
      <weakClassifiers>
        <_>
          <internalNodes>
            0 -1 517 -1.8309177830815315e-02</internalNodes>
          <leafValues>
            2.0755021274089813e-01 -3.5028648376464844e-01</leafValues></_>
        <_>
          <internalNodes>
            0 -1 462 2.4918336421251297e-02</internalNodes>
          <leafValues>
            -1.2829449772834778e-01 3.6185911297798157e-01</leafValues></_>
        <_>
          <internalNodes>
            0 -1 143 -5.3131401538848877e-01</internalNodes>
          <leafValues>
            4.3943578004837036e-01 -1.5016645193099976e-01</leafValues></_>
        <_>
          <internalNodes>
            0 -1 343 3.5803057253360748e-02</internalNodes>
          <leafValues>
            -5.3713824599981308e-02 5.4691535234451294e-01</leafValues></_>
        <_>
          <internalNodes>
            0 -1 359 3.3745918422937393e-02</internalNodes>
          <leafValues>
            -1.0616163909435272e-01 3.3009526133537292e-01</leafValues></_>
        <_>
          <internalNodes>
            0 -1 718 -7.9040164127945900e-03</internalNodes>
          <leafValues>
            -3.0209350585937500e-01 9.5665179193019867e-02</leafValues></_>
        <_>
          <internalNodes>
            0 -1 270 -6.5633729100227356e-03</internalNodes>
          <leafValues>
            4.1384860873222351e-01 -3.2393898814916611e-02</leafValues></_>
        <_>
          <internalNodes>
            0 -1 551 -8.9583499357104301e-03</internalNodes>
          <leafValues>
            5.2677065134048462e-01 -7.8344143927097321e-02</leafValues></_>
        <_>
          <internalNodes>
            0 -1 575 2.7751309797167778e-02</internalNodes>
          <leafValues>
            7.2301872074604034e-02 -3.5819420218467712e-01</leafValues></_>
        <_>
          <internalNodes>
            0 -1 599 -8.0127542605623603e-04</internalNodes>
          <leafValues>
            -2.1208953857421875e-01 1.5452936291694641e-01</leafValues></_>
        <_>
          <internalNodes>
            0 -1 21 3.1456105411052704e-02</internalNodes>
          <leafValues>
            1.0378313250839710e-02 -7.1026825904846191e-01</leafValues></_>
        <_>
          <internalNodes>
            0 -1 599 1.2497956631705165e-03</internalNodes>
          <leafValues>
            9.8949193954467773e-02 -2.2533482313156128e-01</leafValues></_>
        <_>
          <internalNodes>
            0 -1 895 -1.5891954302787781e-02</internalNodes>
          <leafValues>
            4.0925034880638123e-01 -5.0415892153978348e-02</leafValues></_>
        <_>
          <internalNodes>
            0 -1 898 1.1363587342202663e-02</internalNodes>
          <leafValues>
            -9.4504110515117645e-02 3.3053228259086609e-01</leafValues></_>
        <_>
          <internalNodes>
            0 -1 251 -1.2311265617609024e-01</internalNodes>
          <leafValues>
            -5.1705473661422729e-01 4.5230496674776077e-02</leafValues></_>
        <_>
          <internalNodes>
            0 -1 453 4.2216908186674118e-03</internalNodes>
          <leafValues>
            -8.0216169357299805e-02 2.9435214400291443e-01</leafValues></_>
        <_>
          <internalNodes>
            0 -1 706 -7.2142118588089943e-03</internalNodes>
          <leafValues>
            2.8679594397544861e-01 -8.3990395069122314e-02</leafValues></_>
        <_>
          <internalNodes>
            0 -1 733 1.5578983351588249e-02</internalNodes>
          <leafValues>
            -3.3440373837947845e-02 1.0801247358322144e+00</leafValues></_>
        <_>
          <internalNodes>
            0 -1 903 8.2321371883153915e-03</internalNodes>
          <leafValues>
            7.1168035268783569e-02 -3.5775801539421082e-01</leafValues></_>
        <_>
          <internalNodes>
            0 -1 983 -3.1248845625668764e-03</internalNodes>
          <leafValues>
            -2.7511894702911377e-01 1.0321739315986633e-01</leafValues></_>
        <_>
          <internalNodes>
            0 -1 899 -3.4881015308201313e-03</internalNodes>
          <leafValues>
            -3.1722599267959595e-01 6.9411382079124451e-02</leafValues></_>
        <_>
          <internalNodes>
            0 -1 22 1.9856160506606102e-02</internalNodes>
          <leafValues>
            9.5316059887409210e-02 -2.2450836002826691e-01</leafValues></_>
        <_>
          <internalNodes>
            0 -1 179 -2.9122464358806610e-02</internalNodes>
          <leafValues>
            3.4260478615760803e-01 -6.1313845217227936e-02</leafValues></_>
        <_>
          <internalNodes>
            0 -1 242 1.3384205102920532e-01</internalNodes>
          <leafValues>
            4.9980644136667252e-02 -4.3219700455665588e-01</leafValues></_>
        <_>
          <internalNodes>
            0 -1 36 2.1510995924472809e-02</internalNodes>
          <leafValues>
            8.7409876286983490e-02 -2.4407327175140381e-01</leafValues></_>
        <_>
          <internalNodes>
            0 -1 465 2.7235646266490221e-03</internalNodes>
          <leafValues>
            -8.6170770227909088e-02 2.3382912576198578e-01</leafValues></_>
        <_>
          <internalNodes>
            0 -1 977 1.8728974973782897e-03</internalNodes>
          <leafValues>
            1.0831806808710098e-01 -1.7918676137924194e-01</leafValues></_>
        <_>
          <internalNodes>
            0 -1 978 -1.3504980597645044e-03</internalNodes>
          <leafValues>
            -2.3756761848926544e-01 1.0250502079725266e-01</leafValues></_>
        <_>
          <internalNodes>
            0 -1 878 8.0555118620395660e-03</internalNodes>
          <leafValues>
            -5.8426193892955780e-02 3.3778101205825806e-01</leafValues></_>
        <_>
          <internalNodes>
            0 -1 692 -3.6280772183090448e-03</internalNodes>
          <leafValues>
            -2.2867308557033539e-01 8.9081011712551117e-02</leafValues></_>
        <_>
          <internalNodes>
            0 -1 115 -9.6359327435493469e-03</internalNodes>
          <leafValues>
            -2.8456607460975647e-01 6.9479718804359436e-02</leafValues></_>
        <_>
          <internalNodes>
            0 -1 608 -2.5796521455049515e-02</internalNodes>
          <leafValues>
            2.6029738783836365e-01 -8.1811904907226562e-02</leafValues></_>
        <_>
          <internalNodes>
            0 -1 44 7.9642549157142639e-02</internalNodes>
          <leafValues>
            1.9882868975400925e-02 -1.9733530282974243e+00</leafValues></_>
        <_>
          <internalNodes>
            0 -1 482 -8.0146402120590210e-02</internalNodes>
          <leafValues>
            -2.8989255428314209e-01 7.2259806096553802e-02</leafValues></_>
        <_>
          <internalNodes>
            0 -1 978 1.9098027842119336e-03</internalNodes>
          <leafValues>
            9.3409374356269836e-02 -2.1262387931346893e-01</leafValues></_>
        <_>
          <internalNodes>
            0 -1 956 -7.1163009852170944e-03</internalNodes>
          <leafValues>
            -3.6882370710372925e-01 4.9451082944869995e-02</leafValues></_>
        <_>
          <internalNodes>
            0 -1 996 2.6375036686658859e-03</internalNodes>
          <leafValues>
            7.8074097633361816e-02 -2.5921395421028137e-01</leafValues></_>
        <_>
          <internalNodes>
            0 -1 346 -2.2772591561079025e-02</internalNodes>
          <leafValues>
            2.4900504946708679e-01 -8.0603703856468201e-02</leafValues></_>
        <_>
          <internalNodes>
            0 -1 459 -2.4625392630696297e-02</internalNodes>
          <leafValues>
            2.8816002607345581e-01 -9.8561637103557587e-02</leafValues></_>
        <_>
          <internalNodes>
            0 -1 680 6.7439820850268006e-04</internalNodes>
          <leafValues>
            1.0371658205986023e-01 -1.9467176496982574e-01</leafValues></_>
        <_>
          <internalNodes>
            0 -1 197 8.6551830172538757e-03</internalNodes>
          <leafValues>
            -5.8013871312141418e-02 3.4409457445144653e-01</leafValues></_>
        <_>
          <internalNodes>
            0 -1 570 -8.6815068498253822e-03</internalNodes>
          <leafValues>
            -5.6669962406158447e-01 3.3800847828388214e-02</leafValues></_>
        <_>
          <internalNodes>
            0 -1 784 -5.0065224058926105e-03</internalNodes>
          <leafValues>
            2.1939580142498016e-01 -9.0435780584812164e-02</leafValues></_>
        <_>
          <internalNodes>
            0 -1 702 1.0242608841508627e-03</internalNodes>
          <leafValues>
            1.0384713113307953e-01 -1.8535593152046204e-01</leafValues></_>
        <_>
          <internalNodes>
            0 -1 702 -8.0030201934278011e-04</internalNodes>
          <leafValues>
            -2.3126219213008881e-01 9.5581360161304474e-02</leafValues></_>
        <_>
          <internalNodes>
            0 -1 897 -6.7335213534533978e-03</internalNodes>
          <leafValues>
            3.4041434526443481e-01 -6.9274254143238068e-02</leafValues></_>
        <_>
          <internalNodes>
            0 -1 994 -2.8700351249426603e-03</internalNodes>
          <leafValues>
            -2.2816972434520721e-01 8.3557076752185822e-02</leafValues></_>
        <_>
          <internalNodes>
            0 -1 955 -6.9520682096481323e-02</internalNodes>
          <leafValues>
            -7.8956532478332520e-01 2.6438115164637566e-02</leafValues></_>
        <_>
          <internalNodes>
            0 -1 993 9.1662607155740261e-04</internalNodes>
          <leafValues>
            1.1081216484308243e-01 -1.7491814494132996e-01</leafValues></_>
        <_>
          <internalNodes>
            0 -1 288 1.3892909511923790e-02</internalNodes>
          <leafValues>
            -8.9042320847511292e-02 1.9338992238044739e-01</leafValues></_>
        <_>
          <internalNodes>
            0 -1 273 9.1333895921707153e-02</internalNodes>
          <leafValues>
            4.4153530150651932e-02 -4.5188906788825989e-01</leafValues></_>
        <_>
          <internalNodes>
            0 -1 521 -1.8409542739391327e-02</internalNodes>
          <leafValues>
            2.1347941458225250e-01 -7.8858911991119385e-02</leafValues></_>
        <_>
          <internalNodes>
            0 -1 114 1.1774854734539986e-02</internalNodes>
          <leafValues>
            5.0200518220663071e-02 -3.9218500256538391e-01</leafValues></_>
        <_>
          <internalNodes>
            0 -1 614 2.0147915929555893e-02</internalNodes>
          <leafValues>
            -2.9822168871760368e-02 7.1898239850997925e-01</leafValues></_>
        <_>
          <internalNodes>
            0 -1 31 -6.3322205096483231e-03</internalNodes>
          <leafValues>
            -2.6037919521331787e-01 6.9334484636783600e-02</leafValues></_>
        <_>
          <internalNodes>
            0 -1 798 -5.6238793767988682e-03</internalNodes>
          <leafValues>
            2.7539268136024475e-01 -7.1576729416847229e-02</leafValues></_>
        <_>
          <internalNodes>
            0 -1 297 1.1020367965102196e-02</internalNodes>
          <leafValues>
            4.7033932060003281e-02 -4.5666304230690002e-01</leafValues></_>
        <_>
          <internalNodes>
            0 -1 997 2.1616264712065458e-03</internalNodes>
          <leafValues>
            1.1127034574747086e-01 -1.5228892862796783e-01</leafValues></_>
        <_>
          <internalNodes>
            0 -1 822 4.6407200396060944e-02</internalNodes>
          <leafValues>
            -7.1648202836513519e-02 2.9354265332221985e-01</leafValues></_>
        <_>
          <internalNodes>
            0 -1 979 9.4722781796008348e-04</internalNodes>
          <leafValues>
            1.0606020689010620e-01 -1.9640426337718964e-01</leafValues></_>
        <_>
          <internalNodes>
            0 -1 768 3.6785401403903961e-02</internalNodes>
          <leafValues>
            -2.4115165695548058e-02 9.0592610836029053e-01</leafValues></_>
        <_>
          <internalNodes>
            0 -1 654 2.8965331148356199e-03</internalNodes>
          <leafValues>
            1.0423402488231659e-01 -1.7145439982414246e-01</leafValues></_>
        <_>
          <internalNodes>
            0 -1 0 5.1308088004589081e-03</internalNodes>
          <leafValues>
            4.7784119844436646e-02 -4.0640699863433838e-01</leafValues></_></weakClassifiers></_>
    <!-- stage 17 -->
    <_>
      <maxWeakCount>100</maxWeakCount>
      <stageThreshold>-1.7814947366714478e+00</stageThreshold>
      <weakClassifiers>
        <_>
          <internalNodes>
            0 -1 75 -1.6277468204498291e-01</internalNodes>
          <leafValues>
            9.5727019011974335e-02 -3.9937067031860352e-01</leafValues></_>
        <_>
          <internalNodes>
            0 -1 428 1.7310440540313721e-01</internalNodes>
          <leafValues>
            -1.1263993382453918e-01 3.3692339062690735e-01</leafValues></_>
        <_>
          <internalNodes>
            0 -1 722 1.5404747799038887e-02</internalNodes>
          <leafValues>
            -1.8320247530937195e-01 2.0372915267944336e-01</leafValues></_>
        <_>
          <internalNodes>
            0 -1 501 2.7824643999338150e-02</internalNodes>
          <leafValues>
            -1.9033148884773254e-01 1.8026511371135712e-01</leafValues></_>
        <_>
          <internalNodes>
            0 -1 329 3.1347465515136719e-01</internalNodes>
          <leafValues>
            -4.8279933631420135e-02 4.3054547905921936e-01</leafValues></_>
        <_>
          <internalNodes>
            0 -1 474 -2.2295635193586349e-02</internalNodes>
          <leafValues>
            -1.1954512447118759e-01 2.2104184329509735e-01</leafValues></_>
        <_>
          <internalNodes>
            0 -1 811 -1.2977312505245209e-01</internalNodes>
          <leafValues>
            5.0757253170013428e-01 -7.8818723559379578e-02</leafValues></_>
        <_>
          <internalNodes>
            0 -1 759 -5.7377573102712631e-03</internalNodes>
          <leafValues>
            2.0633681118488312e-01 -9.6665963530540466e-02</leafValues></_>
        <_>
          <internalNodes>
            0 -1 743 1.2812324799597263e-02</internalNodes>
          <leafValues>
            -6.0036633163690567e-02 4.0546852350234985e-01</leafValues></_>
        <_>
          <internalNodes>
            0 -1 306 -6.2945503741502762e-03</internalNodes>
          <leafValues>
            1.3158330321311951e-01 -1.6496682167053223e-01</leafValues></_>
        <_>
          <internalNodes>
            0 -1 508 -4.2017041705548763e-03</internalNodes>
          <leafValues>
            1.2457324564456940e-01 -1.4888834953308105e-01</leafValues></_>
        <_>
          <internalNodes>
            0 -1 281 -5.7076541706919670e-03</internalNodes>
          <leafValues>
            2.0885658264160156e-01 -9.5716603100299835e-02</leafValues></_>
        <_>
          <internalNodes>
            0 -1 925 -3.5542964469641447e-03</internalNodes>
          <leafValues>
            2.5595960021018982e-01 -7.5183257460594177e-02</leafValues></_>
        <_>
          <internalNodes>
            0 -1 692 1.0767253115773201e-02</internalNodes>
          <leafValues>
            4.6958073973655701e-02 -3.6913582682609558e-01</leafValues></_>
        <_>
          <internalNodes>
            0 -1 747 -1.0513039160287008e-04</internalNodes>
          <leafValues>
            1.3637325167655945e-01 -1.3583722710609436e-01</leafValues></_>
        <_>
          <internalNodes>
            0 -1 702 8.4481624071486294e-05</internalNodes>
          <leafValues>
            -1.3435637950897217e-01 1.5225489437580109e-01</leafValues></_>
        <_>
          <internalNodes>
            0 -1 702 1.0528746061027050e-03</internalNodes>
          <leafValues>
            8.7508276104927063e-02 -2.1961648762226105e-01</leafValues></_>
        <_>
          <internalNodes>
            0 -1 673 -3.8234589737839997e-05</internalNodes>
          <leafValues>
            1.0891843587160110e-01 -1.7484031617641449e-01</leafValues></_>
        <_>
          <internalNodes>
            0 -1 868 -1.4519558846950531e-01</internalNodes>
          <leafValues>
            -8.8575029373168945e-01 2.3770658299326897e-02</leafValues></_>
        <_>
          <internalNodes>
            0 -1 318 -6.7311316728591919e-02</internalNodes>
          <leafValues>
            -3.6786904931068420e-01 5.3117372095584869e-02</leafValues></_>
        <_>
          <internalNodes>
            0 -1 840 -6.0688671655952930e-03</internalNodes>
          <leafValues>
            2.0345388352870941e-01 -9.4227358698844910e-02</leafValues></_>
        <_>
          <internalNodes>
            0 -1 871 -8.1673520617187023e-04</internalNodes>
          <leafValues>
            1.4707376062870026e-01 -1.1093133687973022e-01</leafValues></_>
        <_>
          <internalNodes>
            0 -1 963 -2.9978822916746140e-02</internalNodes>
          <leafValues>
            -3.6196026206016541e-01 4.2244713753461838e-02</leafValues></_>
        <_>
          <internalNodes>
            0 -1 443 1.0903422534465790e-01</internalNodes>
          <leafValues>
            -7.6678320765495300e-02 2.4271951615810394e-01</leafValues></_>
        <_>
          <internalNodes>
            0 -1 728 3.4295991063117981e-03</internalNodes>
          <leafValues>
            -1.6210861504077911e-01 1.1191078275442123e-01</leafValues></_>
        <_>
          <internalNodes>
            0 -1 780 5.9177942574024200e-02</internalNodes>
          <leafValues>
            -1.0657518357038498e-01 1.7252574861049652e-01</leafValues></_>
        <_>
          <internalNodes>
            0 -1 417 -5.6277895346283913e-03</internalNodes>
          <leafValues>
            1.8620038032531738e-01 -8.5503265261650085e-02</leafValues></_>
        <_>
          <internalNodes>
            0 -1 741 -4.7119068913161755e-03</internalNodes>
          <leafValues>
            1.3723117113113403e-01 -1.0901784896850586e-01</leafValues></_>
        <_>
          <internalNodes>
            0 -1 670 8.9153749286197126e-05</internalNodes>
          <leafValues>
            -1.2320520728826523e-01 1.2477427721023560e-01</leafValues></_>
        <_>
          <internalNodes>
            0 -1 750 -9.4291111454367638e-03</internalNodes>
          <leafValues>
            1.7127701640129089e-01 -1.0668482631444931e-01</leafValues></_>
        <_>
          <internalNodes>
            0 -1 884 -3.4391726367175579e-03</internalNodes>
          <leafValues>
            -1.3139416277408600e-01 1.2770828604698181e-01</leafValues></_>
        <_>
          <internalNodes>
            0 -1 974 -8.7692664237692952e-05</internalNodes>
          <leafValues>
            1.2284563481807709e-01 -1.2478011846542358e-01</leafValues></_>
        <_>
          <internalNodes>
            0 -1 707 -2.3481687530875206e-03</internalNodes>
          <leafValues>
            2.4424268305301666e-01 -6.1537969857454300e-02</leafValues></_>
        <_>
          <internalNodes>
            0 -1 81 -9.5505174249410629e-03</internalNodes>
          <leafValues>
            2.5482589006423950e-01 -5.9974450618028641e-02</leafValues></_>
        <_>
          <internalNodes>
            0 -1 322 -1.4954535290598869e-02</internalNodes>
          <leafValues>
            -5.3173059225082397e-01 2.8092239052057266e-02</leafValues></_>
        <_>
          <internalNodes>
            0 -1 284 4.0904946625232697e-02</internalNodes>
          <leafValues>
            1.7042836174368858e-02 -1.7227456569671631e+00</leafValues></_>
        <_>
          <internalNodes>
            0 -1 224 6.6391117870807648e-02</internalNodes>
          <leafValues>
            3.8384616374969482e-02 -3.9320090413093567e-01</leafValues></_>
        <_>
          <internalNodes>
            0 -1 564 -4.5139990746974945e-02</internalNodes>
          <leafValues>
            -6.8591570854187012e-01 2.7905726805329323e-02</leafValues></_>
        <_>
          <internalNodes>
            0 -1 901 3.6286190152168274e-03</internalNodes>
          <leafValues>
            8.0677025020122528e-02 -1.9135770201683044e-01</leafValues></_>
        <_>
          <internalNodes>
            0 -1 300 -1.4873545616865158e-02</internalNodes>
          <leafValues>
            2.2827291488647461e-01 -7.0502564311027527e-02</leafValues></_>
        <_>
          <internalNodes>
            0 -1 580 -4.2996016418328509e-05</internalNodes>
          <leafValues>
            1.1011714488267899e-01 -1.3454103469848633e-01</leafValues></_>
        <_>
          <internalNodes>
            0 -1 199 7.1944814408197999e-05</internalNodes>
          <leafValues>
            -1.0889413207769394e-01 1.3387516140937805e-01</leafValues></_>
        <_>
          <internalNodes>
            0 -1 106 2.1755555644631386e-03</internalNodes>
          <leafValues>
            6.6202260553836823e-02 -2.6347082853317261e-01</leafValues></_>
        <_>
          <internalNodes>
            0 -1 45 4.8245951533317566e-02</internalNodes>
          <leafValues>
            -4.7238156199455261e-02 3.4653487801551819e-01</leafValues></_>
        <_>
          <internalNodes>
            0 -1 103 -8.4369704127311707e-03</internalNodes>
          <leafValues>
            1.3421154022216797e-01 -1.2802018225193024e-01</leafValues></_>
        <_>
          <internalNodes>
            0 -1 373 9.2317340895533562e-03</internalNodes>
          <leafValues>
            -4.4570922851562500e-02 3.3745369315147400e-01</leafValues></_>
        <_>
          <internalNodes>
            0 -1 797 -8.2906365394592285e-02</internalNodes>
          <leafValues>
            2.4450507760047913e-01 -6.6608816385269165e-02</leafValues></_>
        <_>
          <internalNodes>
            0 -1 913 4.3686844408512115e-02</internalNodes>
          <leafValues>
            -1.0234478861093521e-01 2.2794556617736816e-01</leafValues></_>
        <_>
          <internalNodes>
            0 -1 610 -2.6008405257016420e-03</internalNodes>
          <leafValues>
            1.0981270670890808e-01 -1.3955418765544891e-01</leafValues></_>
        <_>
          <internalNodes>
            0 -1 961 -3.0866896733641624e-02</internalNodes>
          <leafValues>
            -6.7376381158828735e-01 2.3920383304357529e-02</leafValues></_>
        <_>
          <internalNodes>
            0 -1 936 4.2420603334903717e-02</internalNodes>
          <leafValues>
            -1.7872676253318787e-02 1.5040612220764160e+00</leafValues></_>
        <_>
          <internalNodes>
            0 -1 121 -1.1589148640632629e-01</internalNodes>
          <leafValues>
            -4.2553174495697021e-01 3.6360468715429306e-02</leafValues></_>
        <_>
          <internalNodes>
            0 -1 980 -9.6876392490230501e-05</internalNodes>
          <leafValues>
            1.3963325321674347e-01 -1.1024469882249832e-01</leafValues></_>
        <_>
          <internalNodes>
            0 -1 406 -1.0011451691389084e-01</internalNodes>
          <leafValues>
            -2.0559949874877930e+00 1.4950452372431755e-02</leafValues></_>
        <_>
          <internalNodes>
            0 -1 435 3.4307278692722321e-02</internalNodes>
          <leafValues>
            -5.0851244479417801e-02 3.5773205757141113e-01</leafValues></_>
        <_>
          <internalNodes>
            0 -1 697 3.5075026971753687e-05</internalNodes>
          <leafValues>
            -1.1353880912065506e-01 1.5859279036521912e-01</leafValues></_>
        <_>
          <internalNodes>
            0 -1 602 2.4080681614577770e-03</internalNodes>
          <leafValues>
            7.3621802031993866e-02 -2.7468940615653992e-01</leafValues></_>
        <_>
          <internalNodes>
            0 -1 990 4.4373326003551483e-02</internalNodes>
          <leafValues>
            1.4592903666198254e-02 -1.3944817781448364e+00</leafValues></_>
        <_>
          <internalNodes>
            0 -1 816 -5.3904773667454720e-03</internalNodes>
          <leafValues>
            1.8741540610790253e-01 -8.0292589962482452e-02</leafValues></_>
        <_>
          <internalNodes>
            0 -1 622 4.1874706745147705e-02</internalNodes>
          <leafValues>
            2.1984979510307312e-02 -6.8985635042190552e-01</leafValues></_>
        <_>
          <internalNodes>
            0 -1 37 -1.7131495475769043e-01</internalNodes>
          <leafValues>
            -3.0504316091537476e-01 4.9690056592226028e-02</leafValues></_>
        <_>
          <internalNodes>
            0 -1 330 -3.5072720050811768e-01</internalNodes>
          <leafValues>
            -7.5274592638015747e-01 2.3515408858656883e-02</leafValues></_>
        <_>
          <internalNodes>
            0 -1 159 -2.2058482468128204e-01</internalNodes>
          <leafValues>
            4.2464885115623474e-01 -4.2282558977603912e-02</leafValues></_>
        <_>
          <internalNodes>
            0 -1 998 -4.4777955859899521e-02</internalNodes>
          <leafValues>
            -4.7797551751136780e-01 3.0141718685626984e-02</leafValues></_>
        <_>
          <internalNodes>
            0 -1 920 -4.1650448110885918e-05</internalNodes>
          <leafValues>
            1.3920392096042633e-01 -1.0773474723100662e-01</leafValues></_>
        <_>
          <internalNodes>
            0 -1 615 1.2508993968367577e-02</internalNodes>
          <leafValues>
            -6.2253799289464951e-02 2.5831270217895508e-01</leafValues></_>
        <_>
          <internalNodes>
            0 -1 366 -9.4286903738975525e-02</internalNodes>
          <leafValues>
            -1.0276448726654053e+00 2.1248796954751015e-02</leafValues></_>
        <_>
          <internalNodes>
            0 -1 282 -3.0752560123801231e-03</internalNodes>
          <leafValues>
            1.2301541864871979e-01 -1.1750650405883789e-01</leafValues></_>
        <_>
          <internalNodes>
            0 -1 463 2.1948408335447311e-02</internalNodes>
          <leafValues>
            -8.4825627505779266e-02 1.8405599892139435e-01</leafValues></_>
        <_>
          <internalNodes>
            0 -1 309 -3.9949816465377808e-01</internalNodes>
          <leafValues>
            1.3813338279724121e+00 -1.8224375322461128e-02</leafValues></_>
        <_>
          <internalNodes>
            0 -1 235 -2.5568671524524689e-02</internalNodes>
          <leafValues>
            -5.9231668710708618e-01 2.6762997731566429e-02</leafValues></_>
        <_>
          <internalNodes>
            0 -1 150 1.7102800309658051e-02</internalNodes>
          <leafValues>
            -6.3667379319667816e-02 2.4730068445205688e-01</leafValues></_>
        <_>
          <internalNodes>
            0 -1 156 1.3293859362602234e-01</internalNodes>
          <leafValues>
            1.8499037250876427e-02 -8.1889778375625610e-01</leafValues></_>
        <_>
          <internalNodes>
            0 -1 949 4.1184533387422562e-02</internalNodes>
          <leafValues>
            2.5544710457324982e-02 -5.9753257036209106e-01</leafValues></_>
        <_>
          <internalNodes>
            0 -1 971 1.2892067432403564e-02</internalNodes>
          <leafValues>
            -8.4794253110885620e-02 1.9322493672370911e-01</leafValues></_>
        <_>
          <internalNodes>
            0 -1 891 -3.7398098356788978e-05</internalNodes>
          <leafValues>
            1.2568388879299164e-01 -1.1557433009147644e-01</leafValues></_>
        <_>
          <internalNodes>
            0 -1 890 -1.4591249637305737e-02</internalNodes>
          <leafValues>
            -4.4706955552101135e-01 3.8475941866636276e-02</leafValues></_>
        <_>
          <internalNodes>
            0 -1 972 -1.5629922971129417e-02</internalNodes>
          <leafValues>
            1.8928527832031250e-01 -8.3023056387901306e-02</leafValues></_>
        <_>
          <internalNodes>
            0 -1 772 -9.5432085799984634e-05</internalNodes>
          <leafValues>
            1.1486299335956573e-01 -1.3144312798976898e-01</leafValues></_>
        <_>
          <internalNodes>
            0 -1 601 2.3761014454066753e-03</internalNodes>
          <leafValues>
            8.2794398069381714e-02 -1.8832750618457794e-01</leafValues></_>
        <_>
          <internalNodes>
            0 -1 388 1.2616371735930443e-02</internalNodes>
          <leafValues>
            -8.6853817105293274e-02 2.0218092203140259e-01</leafValues></_>
        <_>
          <internalNodes>
            0 -1 690 3.4517939639044926e-05</internalNodes>
          <leafValues>
            -1.1390466988086700e-01 1.4201538264751434e-01</leafValues></_>
        <_>
          <internalNodes>
            0 -1 119 -1.6706243157386780e-01</internalNodes>
          <leafValues>
            -8.4769016504287720e-01 2.2742761299014091e-02</leafValues></_>
        <_>
          <internalNodes>
            0 -1 403 -4.7403760254383087e-03</internalNodes>
          <leafValues>
            2.0853888988494873e-01 -7.4515677988529205e-02</leafValues></_>
        <_>
          <internalNodes>
            0 -1 846 3.5307246434967965e-05</internalNodes>
          <leafValues>
            -1.1393886059522629e-01 1.3649132847785950e-01</leafValues></_>
        <_>
          <internalNodes>
            0 -1 488 1.9155722111463547e-02</internalNodes>
          <leafValues>
            -1.0736189782619476e-01 1.4939530193805695e-01</leafValues></_>
        <_>
          <internalNodes>
            0 -1 485 3.1602251529693604e-01</internalNodes>
          <leafValues>
            1.7686540260910988e-02 -1.2387682199478149e+00</leafValues></_>
        <_>
          <internalNodes>
            0 -1 134 -3.6828655004501343e-01</internalNodes>
          <leafValues>
            2.6371961832046509e-01 -6.6158816218376160e-02</leafValues></_>
        <_>
          <internalNodes>
            0 -1 398 -6.2600247561931610e-02</internalNodes>
          <leafValues>
            3.6244300007820129e-01 -4.3625660240650177e-02</leafValues></_>
        <_>
          <internalNodes>
            0 -1 912 -4.4785797595977783e-02</internalNodes>
          <leafValues>
            -8.2905495166778564e-01 2.1920952945947647e-02</leafValues></_>
        <_>
          <internalNodes>
            0 -1 776 -6.4620655030012131e-03</internalNodes>
          <leafValues>
            -1.8506866693496704e-01 8.1801511347293854e-02</leafValues></_>
        <_>
          <internalNodes>
            0 -1 535 2.2831033915281296e-02</internalNodes>
          <leafValues>
            -5.8215532451868057e-02 3.1174945831298828e-01</leafValues></_>
        <_>
          <internalNodes>
            0 -1 234 3.5308271646499634e-02</internalNodes>
          <leafValues>
            2.5520471855998039e-02 -7.0665222406387329e-01</leafValues></_>
        <_>
          <internalNodes>
            0 -1 804 -8.4109008312225342e-02</internalNodes>
          <leafValues>
            -8.8730269670486450e-01 2.1610628813505173e-02</leafValues></_>
        <_>
          <internalNodes>
            0 -1 806 -1.9163062097504735e-03</internalNodes>
          <leafValues>
            2.1776723861694336e-01 -9.2431433498859406e-02</leafValues></_>
        <_>
          <internalNodes>
            0 -1 215 -3.4517939639044926e-05</internalNodes>
          <leafValues>
            1.4139401912689209e-01 -1.1184960603713989e-01</leafValues></_>
        <_>
          <internalNodes>
            0 -1 403 -1.8260944634675980e-02</internalNodes>
          <leafValues>
            -8.9749521017074585e-01 2.4363823235034943e-02</leafValues></_>
        <_>
          <internalNodes>
            0 -1 876 -1.4975765720009804e-02</internalNodes>
          <leafValues>
            1.7267879843711853e-01 -8.7429411709308624e-02</leafValues></_>
        <_>
          <internalNodes>
            0 -1 852 -9.9709689617156982e-02</internalNodes>
          <leafValues>
            4.9119552969932556e-01 -3.7932559847831726e-02</leafValues></_>
        <_>
          <internalNodes>
            0 -1 839 -2.3968408349901438e-03</internalNodes>
          <leafValues>
            1.6774342954158783e-01 -9.5137484371662140e-02</leafValues></_></weakClassifiers></_>
    <!-- stage 18 -->
    <_>
      <maxWeakCount>100</maxWeakCount>
      <stageThreshold>-1.7932255268096924e+00</stageThreshold>
      <weakClassifiers>
        <_>
          <internalNodes>
            0 -1 46 -4.5636441558599472e-02</internalNodes>
          <leafValues>
            3.8480520248413086e-02 -3.3265620470046997e-01</leafValues></_>
        <_>
          <internalNodes>
            0 -1 415 6.5361894667148590e-03</internalNodes>
          <leafValues>
            -1.8022459745407104e-01 1.2189148366451263e-01</leafValues></_>
        <_>
          <internalNodes>
            0 -1 203 -1.1831963062286377e-01</internalNodes>
          <leafValues>
            2.3562231659889221e-01 -8.5182070732116699e-02</leafValues></_>
        <_>
          <internalNodes>
            0 -1 353 1.6070280224084854e-02</internalNodes>
          <leafValues>
            -8.6273685097694397e-02 2.3770609498023987e-01</leafValues></_>
        <_>
          <internalNodes>
            0 -1 39 -1.5203388035297394e-01</internalNodes>
          <leafValues>
            2.8055664896965027e-01 -6.5993987023830414e-02</leafValues></_>
        <_>
          <internalNodes>
            0 -1 666 5.1167428493499756e-02</internalNodes>
          <leafValues>
            -1.0413839481770992e-02 4.9789938330650330e-01</leafValues></_>
        <_>
          <internalNodes>
            0 -1 719 -1.0676294914446771e-04</internalNodes>
          <leafValues>
            7.7262513339519501e-02 -2.2927860915660858e-01</leafValues></_>
        <_>
          <internalNodes>
            0 -1 441 1.6113568097352982e-02</internalNodes>
          <leafValues>
            3.8227487355470657e-02 -4.1069573163986206e-01</leafValues></_>
        <_>
          <internalNodes>
            0 -1 578 -3.7461586296558380e-02</internalNodes>
          <leafValues>
            -6.6718697547912598e-01 2.0315950736403465e-02</leafValues></_>
        <_>
          <internalNodes>
            0 -1 351 -6.8228557705879211e-02</internalNodes>
          <leafValues>
            -6.8171548843383789e-01 4.9399495124816895e-02</leafValues></_>
        <_>
          <internalNodes>
            0 -1 529 -3.4623607061803341e-03</internalNodes>
          <leafValues>
            1.0288008302450180e-01 -1.5362609922885895e-01</leafValues></_>
        <_>
          <internalNodes>
            0 -1 437 3.1192405149340630e-02</internalNodes>
          <leafValues>
            -3.5172764211893082e-02 4.3517440557479858e-01</leafValues></_>
        <_>
          <internalNodes>
            0 -1 808 -9.6553675830364227e-03</internalNodes>
          <leafValues>
            2.5899925827980042e-01 -6.5265610814094543e-02</leafValues></_>
        <_>
          <internalNodes>
            0 -1 726 3.5368487238883972e-02</internalNodes>
          <leafValues>
            -2.3177629336714745e-02 5.0453054904937744e-01</leafValues></_>
        <_>
          <internalNodes>
            0 -1 236 -1.1571706831455231e-01</internalNodes>
          <leafValues>
            1.8426062166690826e-01 -1.1100713163614273e-01</leafValues></_>
        <_>
          <internalNodes>
            0 -1 458 -1.7733351886272430e-01</internalNodes>
          <leafValues>
            -5.1382136344909668e-01 2.6620963588356972e-02</leafValues></_>
        <_>
          <internalNodes>
            0 -1 566 -2.9666583985090256e-02</internalNodes>
          <leafValues>
            -8.4439677000045776e-01 2.6285063475370407e-02</leafValues></_>
        <_>
          <internalNodes>
            0 -1 394 9.1861225664615631e-03</internalNodes>
          <leafValues>
            -5.5914875119924545e-02 3.7864100933074951e-01</leafValues></_>
        <_>
          <internalNodes>
            0 -1 827 2.3065835237503052e-02</internalNodes>
          <leafValues>
            -1.3350827991962433e-01 1.5316043794155121e-01</leafValues></_>
        <_>
          <internalNodes>
            0 -1 227 9.2060871422290802e-02</internalNodes>
          <leafValues>
            -1.2104455381631851e-01 1.3990034162998199e-01</leafValues></_>
        <_>
          <internalNodes>
            0 -1 935 -6.6045257262885571e-03</internalNodes>
          <leafValues>
            2.1408243477344513e-01 -7.1635209023952484e-02</leafValues></_>
        <_>
          <internalNodes>
            0 -1 933 5.6893369182944298e-03</internalNodes>
          <leafValues>
            -7.5510837137699127e-02 2.0575819909572601e-01</leafValues></_>
        <_>
          <internalNodes>
            0 -1 567 -2.5893859565258026e-03</internalNodes>
          <leafValues>
            1.0976956039667130e-01 -1.3059847056865692e-01</leafValues></_>
        <_>
          <internalNodes>
            0 -1 479 2.8205711394548416e-02</internalNodes>
          <leafValues>
            5.2134793251752853e-02 -3.3547928929328918e-01</leafValues></_>
        <_>
          <internalNodes>
            0 -1 841 1.6074113547801971e-02</internalNodes>
          <leafValues>
            -6.0037706047296524e-02 3.0279248952865601e-01</leafValues></_>
        <_>
          <internalNodes>
            0 -1 831 -5.7219465816160664e-05</internalNodes>
          <leafValues>
            1.4849972724914551e-01 -1.2201882898807526e-01</leafValues></_>
        <_>
          <internalNodes>
            0 -1 457 -3.2995335757732391e-02</internalNodes>
          <leafValues>
            4.1604545712471008e-01 -4.3221909552812576e-02</leafValues></_>
        <_>
          <internalNodes>
            0 -1 769 7.8836362808942795e-03</internalNodes>
          <leafValues>
            3.7539903074502945e-02 -3.9179733395576477e-01</leafValues></_>
        <_>
          <internalNodes>
            0 -1 401 -1.0419078171253204e-02</internalNodes>
          <leafValues>
            -2.8077256679534912e-01 5.7271402329206467e-02</leafValues></_>
        <_>
          <internalNodes>
            0 -1 97 -7.2007500566542149e-03</internalNodes>
          <leafValues>
            2.0480588078498840e-01 -9.2668667435646057e-02</leafValues></_>
        <_>
          <internalNodes>
            0 -1 825 -2.7231657877564430e-02</internalNodes>
          <leafValues>
            -5.3741461038589478e-01 3.0375331640243530e-02</leafValues></_>
        <_>
          <internalNodes>
            0 -1 742 -9.7344204783439636e-02</internalNodes>
          <leafValues>
            -1.4320548772811890e+00 1.4624978415668011e-02</leafValues></_>
        <_>
          <internalNodes>
            0 -1 848 -3.1920503824949265e-03</internalNodes>
          <leafValues>
            1.8824982643127441e-01 -8.5975073277950287e-02</leafValues></_>
        <_>
          <internalNodes>
            0 -1 788 4.9530010670423508e-02</internalNodes>
          <leafValues>
            -5.8371659368276596e-02 3.6127743124961853e-01</leafValues></_>
        <_>
          <internalNodes>
            0 -1 254 -3.8517802953720093e-02</internalNodes>
          <leafValues>
            -7.5377959012985229e-01 2.3223141208291054e-02</leafValues></_>
        <_>
          <internalNodes>
            0 -1 362 -5.1662529585883021e-05</internalNodes>
          <leafValues>
            1.4347603917121887e-01 -1.2009676545858383e-01</leafValues></_>
        <_>
          <internalNodes>
            0 -1 453 -2.0203099120408297e-03</internalNodes>
          <leafValues>
            2.1123921871185303e-01 -9.2935837805271149e-02</leafValues></_>
        <_>
          <internalNodes>
            0 -1 552 -4.1863620281219482e-03</internalNodes>
          <leafValues>
            2.3696453869342804e-01 -7.6198630034923553e-02</leafValues></_>
        <_>
          <internalNodes>
            0 -1 959 -2.5809895247220993e-02</internalNodes>
          <leafValues>
            -1.1331624984741211e+00 2.1446555852890015e-02</leafValues></_>
        <_>
          <internalNodes>
            0 -1 521 -8.2830190658569336e-03</internalNodes>
          <leafValues>
            1.2808723747730255e-01 -1.2544335424900055e-01</leafValues></_>
        <_>
          <internalNodes>
            0 -1 513 6.9175437092781067e-03</internalNodes>
          <leafValues>
            -6.4587749540805817e-02 3.0026009678840637e-01</leafValues></_>
        <_>
          <internalNodes>
            0 -1 718 -1.9199339672923088e-02</internalNodes>
          <leafValues>
            -4.0760508179664612e-01 4.6919085085391998e-02</leafValues></_>
        <_>
          <internalNodes>
            0 -1 166 -1.0141430795192719e-01</internalNodes>
          <leafValues>
            -9.2431437969207764e-01 2.1566536277532578e-02</leafValues></_>
        <_>
          <internalNodes>
            0 -1 230 -4.3278776109218597e-02</internalNodes>
          <leafValues>
            2.2878442704677582e-01 -8.2689575850963593e-02</leafValues></_>
        <_>
          <internalNodes>
            0 -1 258 1.4740587212145329e-02</internalNodes>
          <leafValues>
            -1.0290651768445969e-01 2.1002429723739624e-01</leafValues></_>
        <_>
          <internalNodes>
            0 -1 658 -4.1163414716720581e-02</internalNodes>
          <leafValues>
            -2.0819945335388184e+00 1.5243758447468281e-02</leafValues></_>
        <_>
          <internalNodes>
            0 -1 168 8.9247696101665497e-02</internalNodes>
          <leafValues>
            -5.5433508008718491e-02 2.8524258732795715e-01</leafValues></_>
        <_>
          <internalNodes>
            0 -1 475 -3.8761131465435028e-02</internalNodes>
          <leafValues>
            1.8382702767848969e-01 -9.9885888397693634e-02</leafValues></_>
        <_>
          <internalNodes>
            0 -1 657 -8.4109017625451088e-03</internalNodes>
          <leafValues>
            2.8461691737174988e-01 -6.0184136033058167e-02</leafValues></_>
        <_>
          <internalNodes>
            0 -1 579 -5.1931459456682205e-03</internalNodes>
          <leafValues>
            -3.5071817040443420e-01 4.4776566326618195e-02</leafValues></_>
        <_>
          <internalNodes>
            0 -1 579 -3.7393965612864122e-05</internalNodes>
          <leafValues>
            1.1452852189540863e-01 -1.6768801212310791e-01</leafValues></_>
        <_>
          <internalNodes>
            0 -1 507 -4.1688168421387672e-03</internalNodes>
          <leafValues>
            1.0260976850986481e-01 -1.5637594461441040e-01</leafValues></_>
        <_>
          <internalNodes>
            0 -1 503 -5.0530725275166333e-05</internalNodes>
          <leafValues>
            1.1078207939863205e-01 -1.3396301865577698e-01</leafValues></_>
        <_>
          <internalNodes>
            0 -1 595 5.9744091704487801e-03</internalNodes>
          <leafValues>
            5.6265003979206085e-02 -2.7278503775596619e-01</leafValues></_>
        <_>
          <internalNodes>
            0 -1 280 -3.6344281397759914e-05</internalNodes>
          <leafValues>
            1.2262036651372910e-01 -1.2900651991367340e-01</leafValues></_>
        <_>
          <internalNodes>
            0 -1 59 1.6067579388618469e-01</internalNodes>
          <leafValues>
            -5.4645664989948273e-02 3.0357497930526733e-01</leafValues></_>
        <_>
          <internalNodes>
            0 -1 112 2.2946536540985107e-02</internalNodes>
          <leafValues>
            -4.8362776637077332e-02 3.2956209778785706e-01</leafValues></_>
        <_>
          <internalNodes>
            0 -1 805 -1.8728433176875114e-02</internalNodes>
          <leafValues>
            -1.3206930160522461e+00 1.8037958070635796e-02</leafValues></_>
        <_>
          <internalNodes>
            0 -1 183 -1.6249557957053185e-03</internalNodes>
          <leafValues>
            1.6830594837665558e-01 -9.2427745461463928e-02</leafValues></_>
        <_>
          <internalNodes>
            0 -1 12 -5.6484796106815338e-02</internalNodes>
          <leafValues>
            -4.9306243658065796e-01 3.5100173205137253e-02</leafValues></_>
        <_>
          <internalNodes>
            0 -1 596 3.4648117434699088e-05</internalNodes>
          <leafValues>
            -1.1081054061651230e-01 1.3660204410552979e-01</leafValues></_>
        <_>
          <internalNodes>
            0 -1 548 -2.0348542928695679e-01</internalNodes>
          <leafValues>
            -1.4756850004196167e+00 1.6242345795035362e-02</leafValues></_>
        <_>
          <internalNodes>
            0 -1 291 -1.0757452808320522e-02</internalNodes>
          <leafValues>
            1.2859900295734406e-01 -1.1874500662088394e-01</leafValues></_>
        <_>
          <internalNodes>
            0 -1 205 3.3541712909936905e-02</internalNodes>
          <leafValues>
            -5.9251420199871063e-02 2.8113758563995361e-01</leafValues></_>
        <_>
          <internalNodes>
            0 -1 628 -3.0143032781779766e-03</internalNodes>
          <leafValues>
            1.9251690804958344e-01 -7.9676970839500427e-02</leafValues></_>
        <_>
          <internalNodes>
            0 -1 699 1.4060670509934425e-03</internalNodes>
          <leafValues>
            9.3284122645854950e-02 -1.6688953340053558e-01</leafValues></_>
        <_>
          <internalNodes>
            0 -1 219 -6.6976239904761314e-03</internalNodes>
          <leafValues>
            -3.0331707000732422e-01 5.1662955433130264e-02</leafValues></_>
        <_>
          <internalNodes>
            0 -1 233 -7.1460790932178497e-03</internalNodes>
          <leafValues>
            -5.5726784467697144e-01 2.9505327343940735e-02</leafValues></_>
        <_>
          <internalNodes>
            0 -1 629 -4.1133437305688858e-02</internalNodes>
          <leafValues>
            1.0230603218078613e+00 -1.9390968605875969e-02</leafValues></_>
        <_>
          <internalNodes>
            0 -1 711 -3.3544346690177917e-02</internalNodes>
          <leafValues>
            -6.4752650260925293e-01 2.6103964075446129e-02</leafValues></_>
        <_>
          <internalNodes>
            0 -1 803 -3.6216627340763807e-03</internalNodes>
          <leafValues>
            1.5028843283653259e-01 -9.3443408608436584e-02</leafValues></_>
        <_>
          <internalNodes>
            0 -1 158 -4.6146944165229797e-02</internalNodes>
          <leafValues>
            2.0461396872997284e-01 -9.2426024377346039e-02</leafValues></_>
        <_>
          <internalNodes>
            0 -1 154 -6.6693395376205444e-02</internalNodes>
          <leafValues>
            -6.0246890783309937e-01 3.1135931611061096e-02</leafValues></_>
        <_>
          <internalNodes>
            0 -1 665 -1.1264117434620857e-02</internalNodes>
          <leafValues>
            2.0651981234550476e-01 -7.7872052788734436e-02</leafValues></_>
        <_>
          <internalNodes>
            0 -1 762 -4.5230161049403250e-05</internalNodes>
          <leafValues>
            1.0499662905931473e-01 -1.3897250592708588e-01</leafValues></_>
        <_>
          <internalNodes>
            0 -1 937 9.1771081089973450e-02</internalNodes>
          <leafValues>
            2.3074200376868248e-02 -7.6249957084655762e-01</leafValues></_>
        <_>
          <internalNodes>
            0 -1 378 -1.1551621370017529e-02</internalNodes>
          <leafValues>
            3.1404814124107361e-01 -4.6896677464246750e-02</leafValues></_>
        <_>
          <internalNodes>
            0 -1 290 2.1263107657432556e-02</internalNodes>
          <leafValues>
            2.6022735983133316e-02 -6.0308587551116943e-01</leafValues></_>
        <_>
          <internalNodes>
            0 -1 377 3.5307246434967965e-05</internalNodes>
          <leafValues>
            -1.1084010452032089e-01 1.3247294723987579e-01</leafValues></_>
        <_>
          <internalNodes>
            0 -1 92 1.4938738895580173e-03</internalNodes>
          <leafValues>
            7.0784963667392731e-02 -1.9577684998512268e-01</leafValues></_>
        <_>
          <internalNodes>
            0 -1 562 -1.0008572135120630e-03</internalNodes>
          <leafValues>
            1.7101109027862549e-01 -8.8290348649024963e-02</leafValues></_>
        <_>
          <internalNodes>
            0 -1 317 -1.5941089391708374e-01</internalNodes>
          <leafValues>
            6.4870876073837280e-01 -2.2149560973048210e-02</leafValues></_>
        <_>
          <internalNodes>
            0 -1 302 -2.0563170313835144e-01</internalNodes>
          <leafValues>
            -6.4066487550735474e-01 2.5383297353982925e-02</leafValues></_>
        <_>
          <internalNodes>
            0 -1 138 3.0483575537800789e-03</internalNodes>
          <leafValues>
            -1.3620571792125702e-01 1.0524713248014450e-01</leafValues></_>
        <_>
          <internalNodes>
            0 -1 124 2.3490436375141144e-02</internalNodes>
          <leafValues>
            -1.1122921109199524e-01 1.5648129582405090e-01</leafValues></_>
        <_>
          <internalNodes>
            0 -1 924 -9.3373440904542804e-05</internalNodes>
          <leafValues>
            1.2052123248577118e-01 -1.2331413477659225e-01</leafValues></_>
        <_>
          <internalNodes>
            0 -1 754 -9.1790951788425446e-02</internalNodes>
          <leafValues>
            2.9190438985824585e-01 -5.5333852767944336e-02</leafValues></_>
        <_>
          <internalNodes>
            0 -1 416 -6.4227334223687649e-03</internalNodes>
          <leafValues>
            2.8307369351387024e-01 -5.5258870124816895e-02</leafValues></_>
        <_>
          <internalNodes>
            0 -1 416 1.5383448917418718e-03</internalNodes>
          <leafValues>
            -8.9370988309383392e-02 1.7623150348663330e-01</leafValues></_>
        <_>
          <internalNodes>
            0 -1 766 -1.1538044549524784e-02</internalNodes>
          <leafValues>
            2.9283702373504639e-01 -4.8659455031156540e-02</leafValues></_>
        <_>
          <internalNodes>
            0 -1 381 1.7307121306657791e-02</internalNodes>
          <leafValues>
            4.2875152081251144e-02 -3.3606892824172974e-01</leafValues></_>
        <_>
          <internalNodes>
            0 -1 702 4.6221812226576731e-05</internalNodes>
          <leafValues>
            -1.2268131971359253e-01 1.2091058492660522e-01</leafValues></_>
        <_>
          <internalNodes>
            0 -1 698 2.7250573039054871e-03</internalNodes>
          <leafValues>
            7.7907182276248932e-02 -1.9753116369247437e-01</leafValues></_>
        <_>
          <internalNodes>
            0 -1 696 4.7449047997361049e-05</internalNodes>
          <leafValues>
            -1.2041583657264709e-01 1.2404677271842957e-01</leafValues></_>
        <_>
          <internalNodes>
            0 -1 262 -3.4636780619621277e-03</internalNodes>
          <leafValues>
            1.7406196892261505e-01 -8.1887446343898773e-02</leafValues></_>
        <_>
          <internalNodes>
            0 -1 73 -4.9840402789413929e-03</internalNodes>
          <leafValues>
            1.3788639008998871e-01 -1.1387246847152710e-01</leafValues></_>
        <_>
          <internalNodes>
            0 -1 460 -3.3266969025135040e-02</internalNodes>
          <leafValues>
            2.2617419064044952e-01 -6.5898478031158447e-02</leafValues></_>
        <_>
          <internalNodes>
            0 -1 581 9.0337190777063370e-03</internalNodes>
          <leafValues>
            6.1343889683485031e-02 -2.4270209670066833e-01</leafValues></_>
        <_>
          <internalNodes>
            0 -1 642 1.2230673804879189e-02</internalNodes>
          <leafValues>
            -9.5004662871360779e-02 1.6244162619113922e-01</leafValues></_>
        <_>
          <internalNodes>
            0 -1 760 8.1413341686129570e-03</internalNodes>
          <leafValues>
            6.7963473498821259e-02 -2.1716324985027313e-01</leafValues></_></weakClassifiers></_>
    <!-- stage 19 -->
    <_>
      <maxWeakCount>100</maxWeakCount>
      <stageThreshold>-1.6715630292892456e+00</stageThreshold>
      <weakClassifiers>
        <_>
          <internalNodes>
            0 -1 126 -5.0394481420516968e-01</internalNodes>
          <leafValues>
            0. -3.4948480129241943e-01</leafValues></_>
        <_>
          <internalNodes>
            0 -1 614 -1.3921314850449562e-02</internalNodes>
          <leafValues>
            2.6945966482162476e-01 -8.0911032855510712e-02</leafValues></_>
        <_>
          <internalNodes>
            0 -1 645 6.9893427193164825e-02</internalNodes>
          <leafValues>
            -3.8556620478630066e-02 6.4544785022735596e-01</leafValues></_>
        <_>
          <internalNodes>
            0 -1 864 1.2281497940421104e-02</internalNodes>
          <leafValues>
            -5.3899370133876801e-02 4.1705495119094849e-01</leafValues></_>
        <_>
          <internalNodes>
            0 -1 386 -9.9539011716842651e-03</internalNodes>
          <leafValues>
            -3.9876809716224670e-01 4.4667258858680725e-02</leafValues></_>
        <_>
          <internalNodes>
            0 -1 386 -1.0008770972490311e-02</internalNodes>
          <leafValues>
            8.0936145782470703e-01 -3.0274137388914824e-03</leafValues></_>
        <_>
          <internalNodes>
            0 -1 386 -9.9728871136903763e-03</internalNodes>
          <leafValues>
            -8.8966780900955200e-01 -9.0449076378718019e-04</leafValues></_>
        <_>
          <internalNodes>
            0 -1 386 -9.9333189427852631e-03</internalNodes>
          <leafValues>
            9.9182224273681641e-01 -4.6026593190617859e-04</leafValues></_>
        <_>
          <internalNodes>
            0 -1 386 -9.9157057702541351e-03</internalNodes>
          <leafValues>
            -1.0011066198348999e+00 3.5330085665918887e-04</leafValues></_>
        <_>
          <internalNodes>
            0 -1 386 -9.8908338695764542e-03</internalNodes>
          <leafValues>
            1.0046930313110352e+00 -4.6069000381976366e-04</leafValues></_>
        <_>
          <internalNodes>
            0 -1 386 -9.8490454256534576e-03</internalNodes>
          <leafValues>
            -1.0081504583358765e+00 9.9318299908190966e-04</leafValues></_>
        <_>
          <internalNodes>
            0 -1 386 -9.8066898062825203e-03</internalNodes>
          <leafValues>
            1.0223891735076904e+00 -1.8738135695457458e-03</leafValues></_>
        <_>
          <internalNodes>
            0 -1 386 -9.5679154619574547e-03</internalNodes>
          <leafValues>
            -9.9963814020156860e-01 2.7643854264169931e-03</leafValues></_>
        <_>
          <internalNodes>
            0 -1 386 -9.3919523060321808e-03</internalNodes>
          <leafValues>
            9.5063638687133789e-01 -4.3177721090614796e-03</leafValues></_>
        <_>
          <internalNodes>
            0 -1 386 -9.7650699317455292e-03</internalNodes>
          <leafValues>
            -9.7286534309387207e-01 1.4491456386167556e-04</leafValues></_>
        <_>
          <internalNodes>
            0 -1 386 -9.7357723861932755e-03</internalNodes>
          <leafValues>
            1.0270097255706787e+00 -2.3635716643184423e-03</leafValues></_>
        <_>
          <internalNodes>
            0 -1 386 -9.2966258525848389e-03</internalNodes>
          <leafValues>
            -9.9535918235778809e-01 5.5082309991121292e-03</leafValues></_>
        <_>
          <internalNodes>
            0 -1 386 -9.2936446890234947e-03</internalNodes>
          <leafValues>
            9.4142514467239380e-01 5.1741942297667265e-04</leafValues></_>
        <_>
          <internalNodes>
            0 -1 386 -9.7069237381219864e-03</internalNodes>
          <leafValues>
            -9.6899998188018799e-01 -2.1825591102242470e-03</leafValues></_>
        <_>
          <internalNodes>
            0 -1 386 -9.6683613955974579e-03</internalNodes>
          <leafValues>
            9.2825067043304443e-01 -1.9410526147112250e-03</leafValues></_>
        <_>
          <internalNodes>
            0 -1 386 -9.6473563462495804e-03</internalNodes>
          <leafValues>
            -9.3824154138565063e-01 1.8693240126594901e-03</leafValues></_>
        <_>
          <internalNodes>
            0 -1 386 -9.6268504858016968e-03</internalNodes>
          <leafValues>
            9.4093471765518188e-01 -1.7947719898074865e-03</leafValues></_>
        <_>
          <internalNodes>
            0 -1 386 -9.5537044107913971e-03</internalNodes>
          <leafValues>
            -9.3951910734176636e-01 2.5397243443876505e-03</leafValues></_>
        <_>
          <internalNodes>
            0 -1 386 -9.4128716737031937e-03</internalNodes>
          <leafValues>
            9.4437336921691895e-01 -2.5122605729848146e-03</leafValues></_>
        <_>
          <internalNodes>
            0 -1 386 -9.2384777963161469e-03</internalNodes>
          <leafValues>
            -9.4720107316970825e-01 3.7066107615828514e-03</leafValues></_>
        <_>
          <internalNodes>
            0 -1 386 -9.2283450067043304e-03</internalNodes>
          <leafValues>
            9.6289747953414917e-01 2.8150298749096692e-04</leafValues></_>
        <_>
          <internalNodes>
            0 -1 386 -9.0796984732151031e-03</internalNodes>
          <leafValues>
            -9.4851171970367432e-01 1.3052335707470775e-03</leafValues></_>
        <_>
          <internalNodes>
            0 -1 386 -9.0454211458563805e-03</internalNodes>
          <leafValues>
            9.7124087810516357e-01 2.5186820421367884e-03</leafValues></_>
        <_>
          <internalNodes>
            0 -1 386 -8.8852234184741974e-03</internalNodes>
          <leafValues>
            -9.8890680074691772e-01 -1.8893453525379300e-03</leafValues></_>
        <_>
          <internalNodes>
            0 -1 386 -8.8376421481370926e-03</internalNodes>
          <leafValues>
            9.9733364582061768e-01 2.4625814985483885e-03</leafValues></_>
        <_>
          <internalNodes>
            0 -1 386 -8.6217392235994339e-03</internalNodes>
          <leafValues>
            -9.9166274070739746e-01 -1.3969021383672953e-03</leafValues></_>
        <_>
          <internalNodes>
            0 -1 386 -8.6100790649652481e-03</internalNodes>
          <leafValues>
            1.0091685056686401e+00 3.3380605746060610e-03</leafValues></_>
        <_>
          <internalNodes>
            0 -1 386 -8.5995215922594070e-03</internalNodes>
          <leafValues>
            -1.0159039497375488e+00 -3.5534338094294071e-03</leafValues></_>
        <_>
          <internalNodes>
            0 -1 386 -8.1362156197428703e-03</internalNodes>
          <leafValues>
            9.3510127067565918e-01 -3.0378036899492145e-04</leafValues></_>
        <_>
          <internalNodes>
            0 -1 386 -8.0270227044820786e-03</internalNodes>
          <leafValues>
            -8.9906388521194458e-01 -1.9804583862423897e-03</leafValues></_>
        <_>
          <internalNodes>
            0 -1 386 -7.8771058470010757e-03</internalNodes>
          <leafValues>
            8.4755820035934448e-01 5.0976237980648875e-04</leafValues></_>
        <_>
          <internalNodes>
            0 -1 386 -7.9764574766159058e-03</internalNodes>
          <leafValues>
            -8.4404140710830688e-01 -3.3081977162510157e-03</leafValues></_>
        <_>
          <internalNodes>
            0 -1 386 -7.5827324762940407e-03</internalNodes>
          <leafValues>
            5.5756205320358276e-01 1.1279128957539797e-03</leafValues></_>
        <_>
          <internalNodes>
            0 -1 386 -9.3007367104291916e-03</internalNodes>
          <leafValues>
            -4.8845034837722778e-01 -6.7511256784200668e-03</leafValues></_>
        <_>
          <internalNodes>
            0 -1 286 -6.8578459322452545e-03</internalNodes>
          <leafValues>
            2.4449793994426727e-01 -4.6844124794006348e-02</leafValues></_>
        <_>
          <internalNodes>
            0 -1 289 9.3978736549615860e-03</internalNodes>
          <leafValues>
            -7.5912803411483765e-02 2.4331818521022797e-01</leafValues></_>
        <_>
          <internalNodes>
            0 -1 20 2.1262547373771667e-01</internalNodes>
          <leafValues>
            -7.3180116713047028e-02 2.2335469722747803e-01</leafValues></_>
        <_>
          <internalNodes>
            0 -1 701 3.3055078238248825e-02</internalNodes>
          <leafValues>
            -1.6336596012115479e-01 1.5607373416423798e-01</leafValues></_>
        <_>
          <internalNodes>
            0 -1 770 -1.1383445002138615e-02</internalNodes>
          <leafValues>
            2.9293403029441833e-01 -8.2720682024955750e-02</leafValues></_>
        <_>
          <internalNodes>
            0 -1 610 -2.8236687649041414e-03</internalNodes>
          <leafValues>
            1.5820012986660004e-01 -1.4271309971809387e-01</leafValues></_>
        <_>
          <internalNodes>
            0 -1 355 -4.3031722307205200e-02</internalNodes>
          <leafValues>
            2.6500236988067627e-01 -9.1257713735103607e-02</leafValues></_>
        <_>
          <internalNodes>
            0 -1 345 1.0940323770046234e-01</internalNodes>
          <leafValues>
            -9.1782003641128540e-02 2.0659750699996948e-01</leafValues></_>
        <_>
          <internalNodes>
            0 -1 609 3.0553091317415237e-02</internalNodes>
          <leafValues>
            4.9106661230325699e-02 -4.1212254762649536e-01</leafValues></_>
        <_>
          <internalNodes>
            0 -1 500 9.1997142881155014e-03</internalNodes>
          <leafValues>
            8.2576476037502289e-02 -2.0191198587417603e-01</leafValues></_>
        <_>
          <internalNodes>
            0 -1 601 -4.7901393845677376e-03</internalNodes>
          <leafValues>
            -2.5766676664352417e-01 7.4760369956493378e-02</leafValues></_>
        <_>
          <internalNodes>
            0 -1 529 -5.7148002088069916e-03</internalNodes>
          <leafValues>
            1.3301955163478851e-01 -1.2101369351148605e-01</leafValues></_>
        <_>
          <internalNodes>
            0 -1 391 1.4406189322471619e-02</internalNodes>
          <leafValues>
            -8.4968678653240204e-02 1.7464052140712738e-01</leafValues></_>
        <_>
          <internalNodes>
            0 -1 821 -3.6873749195365235e-05</internalNodes>
          <leafValues>
            1.1969561874866486e-01 -1.3322229683399200e-01</leafValues></_>
        <_>
          <internalNodes>
            0 -1 420 1.5801087021827698e-02</internalNodes>
          <leafValues>
            -4.4029127806425095e-02 4.6033808588981628e-01</leafValues></_>
        <_>
          <internalNodes>
            0 -1 299 2.4351548403501511e-02</internalNodes>
          <leafValues>
            4.6800982207059860e-02 -3.9127454161643982e-01</leafValues></_>
        <_>
          <internalNodes>
            0 -1 541 -6.9868811406195164e-03</internalNodes>
          <leafValues>
            1.0668011009693146e-01 -1.4295342564582825e-01</leafValues></_>
        <_>
          <internalNodes>
            0 -1 806 -1.9144124817103148e-03</internalNodes>
          <leafValues>
            1.8107531964778900e-01 -8.2249298691749573e-02</leafValues></_>
        <_>
          <internalNodes>
            0 -1 806 2.6316908188164234e-03</internalNodes>
          <leafValues>
            -1.1120866984128952e-01 1.5293759107589722e-01</leafValues></_>
        <_>
          <internalNodes>
            0 -1 497 -2.9201311990618706e-02</internalNodes>
          <leafValues>
            1.5544481575489044e-01 -1.0749412328004837e-01</leafValues></_>
        <_>
          <internalNodes>
            0 -1 736 -2.9830490238964558e-03</internalNodes>
          <leafValues>
            1.4570164680480957e-01 -1.0350602120161057e-01</leafValues></_>
        <_>
          <internalNodes>
            0 -1 799 -2.6485379785299301e-03</internalNodes>
          <leafValues>
            1.7979535460472107e-01 -8.1732317805290222e-02</leafValues></_>
        <_>
          <internalNodes>
            0 -1 67 3.1191857531666756e-02</internalNodes>
          <leafValues>
            7.2497636079788208e-02 -2.2307342290878296e-01</leafValues></_>
        <_>
          <internalNodes>
            0 -1 807 -4.2428751476109028e-03</internalNodes>
          <leafValues>
            2.2428144514560699e-01 -6.6487379372119904e-02</leafValues></_>
        <_>
          <internalNodes>
            0 -1 562 -5.5977664887905121e-03</internalNodes>
          <leafValues>
            3.4540221095085144e-01 -4.6003870666027069e-02</leafValues></_>
        <_>
          <internalNodes>
            0 -1 62 -1.1353531479835510e-01</internalNodes>
          <leafValues>
            3.3542227745056152e-01 -4.7508098185062408e-02</leafValues></_>
        <_>
          <internalNodes>
            0 -1 828 -2.6543157175183296e-02</internalNodes>
          <leafValues>
            3.1821423768997192e-01 -5.3724907338619232e-02</leafValues></_>
        <_>
          <internalNodes>
            0 -1 887 -2.6133654639124870e-02</internalNodes>
          <leafValues>
            2.9969054460525513e-01 -4.8788513988256454e-02</leafValues></_>
        <_>
          <internalNodes>
            0 -1 683 1.6654642531648278e-03</internalNodes>
          <leafValues>
            1.0510914772748947e-01 -1.4343403279781342e-01</leafValues></_>
        <_>
          <internalNodes>
            0 -1 778 -3.7086345255374908e-02</internalNodes>
          <leafValues>
            -4.1756814718246460e-01 3.0048461630940437e-02</leafValues></_>
        <_>
          <internalNodes>
            0 -1 904 2.5960523635149002e-02</internalNodes>
          <leafValues>
            4.0039367973804474e-02 -3.8167476654052734e-01</leafValues></_>
        <_>
          <internalNodes>
            0 -1 585 -4.7841258347034454e-03</internalNodes>
          <leafValues>
            -2.1811112761497498e-01 6.4084514975547791e-02</leafValues></_>
        <_>
          <internalNodes>
            0 -1 598 -1.2367058545351028e-02</internalNodes>
          <leafValues>
            1.9607940316200256e-01 -7.1151569485664368e-02</leafValues></_>
        <_>
          <internalNodes>
            0 -1 695 -3.4399724099785089e-03</internalNodes>
          <leafValues>
            -1.9955529272556305e-01 9.7302727401256561e-02</leafValues></_>
        <_>
          <internalNodes>
            0 -1 952 -3.7712290883064270e-02</internalNodes>
          <leafValues>
            -6.3147550821304321e-01 2.5944456458091736e-02</leafValues></_>
        <_>
          <internalNodes>
            0 -1 715 -6.9020092487335205e-02</internalNodes>
          <leafValues>
            3.3754429221153259e-01 -3.9716653525829315e-02</leafValues></_>
        <_>
          <internalNodes>
            0 -1 52 6.6753178834915161e-02</internalNodes>
          <leafValues>
            3.9291981607675552e-02 -3.7222507596015930e-01</leafValues></_>
        <_>
          <internalNodes>
            0 -1 453 -2.7250708080828190e-03</internalNodes>
          <leafValues>
            2.1756945550441742e-01 -7.6082378625869751e-02</leafValues></_>
        <_>
          <internalNodes>
            0 -1 26 -4.8538915812969208e-02</internalNodes>
          <leafValues>
            1.4564870297908783e-01 -1.0030104219913483e-01</leafValues></_>
        <_>
          <internalNodes>
            0 -1 555 -7.2287619113922119e-03</internalNodes>
          <leafValues>
            2.2296792268753052e-01 -7.4653849005699158e-02</leafValues></_>
        <_>
          <internalNodes>
            0 -1 538 8.4296744316816330e-03</internalNodes>
          <leafValues>
            -1.4740587770938873e-01 1.0948870331048965e-01</leafValues></_>
        <_>
          <internalNodes>
            0 -1 693 -5.4973452351987362e-03</internalNodes>
          <leafValues>
            -2.0222051441669464e-01 7.9467654228210449e-02</leafValues></_>
        <_>
          <internalNodes>
            0 -1 558 1.2643018364906311e-01</internalNodes>
          <leafValues>
            -8.4066435694694519e-02 2.1750672161579132e-01</leafValues></_>
        <_>
          <internalNodes>
            0 -1 87 -1.8971092998981476e-02</internalNodes>
          <leafValues>
            4.5438012480735779e-01 -3.7251260131597519e-02</leafValues></_>
        <_>
          <internalNodes>
            0 -1 993 -3.6342809908092022e-03</internalNodes>
          <leafValues>
            -2.1147522330284119e-01 6.9508440792560577e-02</leafValues></_>
        <_>
          <internalNodes>
            0 -1 954 8.8422447443008423e-03</internalNodes>
          <leafValues>
            -4.6953309327363968e-02 3.5241988301277161e-01</leafValues></_>
        <_>
          <internalNodes>
            0 -1 102 -1.7555832862854004e-02</internalNodes>
          <leafValues>
            -6.0465288162231445e-01 2.5459535419940948e-02</leafValues></_>
        <_>
          <internalNodes>
            0 -1 105 -2.5761291384696960e-02</internalNodes>
          <leafValues>
            3.7286269664764404e-01 -3.9398174732923508e-02</leafValues></_>
        <_>
          <internalNodes>
            0 -1 314 -1.8699258565902710e-02</internalNodes>
          <leafValues>
            2.8961563110351562e-01 -4.9068771302700043e-02</leafValues></_>
        <_>
          <internalNodes>
            0 -1 117 2.5451239198446274e-02</internalNodes>
          <leafValues>
            3.2039977610111237e-02 -4.2666864395141602e-01</leafValues></_>
        <_>
          <internalNodes>
            0 -1 372 4.7809753596084192e-05</internalNodes>
          <leafValues>
            -1.0617171227931976e-01 1.1620535701513290e-01</leafValues></_>
        <_>
          <internalNodes>
            0 -1 393 -8.7624386651441455e-05</internalNodes>
          <leafValues>
            1.2288621068000793e-01 -1.1084207147359848e-01</leafValues></_>
        <_>
          <internalNodes>
            0 -1 91 6.5228655934333801e-02</internalNodes>
          <leafValues>
            3.7153761833906174e-02 -4.0253508090972900e-01</leafValues></_>
        <_>
          <internalNodes>
            0 -1 412 7.0901736617088318e-02</internalNodes>
          <leafValues>
            3.5425931215286255e-02 -4.0175867080688477e-01</leafValues></_>
        <_>
          <internalNodes>
            0 -1 664 7.9895984381437302e-03</internalNodes>
          <leafValues>
            -3.3233784139156342e-02 3.8728642463684082e-01</leafValues></_>
        <_>
          <internalNodes>
            0 -1 675 1.2876389548182487e-02</internalNodes>
          <leafValues>
            6.4849808812141418e-02 -2.0437829196453094e-01</leafValues></_>
        <_>
          <internalNodes>
            0 -1 765 -4.6221812226576731e-05</internalNodes>
          <leafValues>
            1.3414938747882843e-01 -1.0268378257751465e-01</leafValues></_>
        <_>
          <internalNodes>
            0 -1 362 -9.4006449216976762e-04</internalNodes>
          <leafValues>
            1.3762030005455017e-01 -9.7916550934314728e-02</leafValues></_>
        <_>
          <internalNodes>
            0 -1 57 2.0298078656196594e-02</internalNodes>
          <leafValues>
            6.9128580391407013e-02 -2.3065347969532013e-01</leafValues></_>
        <_>
          <internalNodes>
            0 -1 811 -1.1145763099193573e-01</internalNodes>
          <leafValues>
            3.6391013860702515e-01 -3.9212621748447418e-02</leafValues></_>
        <_>
          <internalNodes>
            0 -1 363 -2.2794988472014666e-03</internalNodes>
          <leafValues>
            1.6920027136802673e-01 -8.2431577146053314e-02</leafValues></_></weakClassifiers></_></stages>
  <features>
    <_>
      <rects>
        <_>
          0 0 1 2 -1.</_>
        <_>
          0 1 1 1 2.</_></rects>
      <tilted>0</tilted></_>
    <_>
      <rects>
        <_>
          0 0 1 6 -1.</_>
        <_>
          0 2 1 2 3.</_></rects>
      <tilted>0</tilted></_>
    <_>
      <rects>
        <_>
          0 0 2 6 -1.</_>
        <_>
          1 0 1 6 2.</_></rects>
      <tilted>0</tilted></_>
    <_>
      <rects>
        <_>
          0 0 2 2 -1.</_>
        <_>
          0 1 2 1 2.</_></rects>
      <tilted>0</tilted></_>
    <_>
      <rects>
        <_>
          0 0 2 6 -1.</_>
        <_>
          0 2 2 2 3.</_></rects>
      <tilted>0</tilted></_>
    <_>
      <rects>
        <_>
          0 0 4 4 -1.</_>
        <_>
          0 0 2 2 2.</_>
        <_>
          2 2 2 2 2.</_></rects>
      <tilted>0</tilted></_>
    <_>
      <rects>
        <_>
          0 0 2 14 -1.</_>
        <_>
          0 7 2 7 2.</_></rects>
      <tilted>0</tilted></_>
    <_>
      <rects>
        <_>
          0 0 6 9 -1.</_>
        <_>
          2 0 2 9 3.</_></rects>
      <tilted>0</tilted></_>
    <_>
      <rects>
        <_>
          0 0 6 1 -1.</_>
        <_>
          3 0 3 1 2.</_></rects>
      <tilted>0</tilted></_>
    <_>
      <rects>
        <_>
          0 0 6 2 -1.</_>
        <_>
          3 0 3 2 2.</_></rects>
      <tilted>0</tilted></_>
    <_>
      <rects>
        <_>
          0 0 6 8 -1.</_>
        <_>
          0 0 3 4 2.</_>
        <_>
          3 4 3 4 2.</_></rects>
      <tilted>0</tilted></_>
    <_>
      <rects>
        <_>
          0 0 6 12 -1.</_>
        <_>
          3 0 3 12 2.</_></rects>
      <tilted>0</tilted></_>
    <_>
      <rects>
        <_>
          0 0 12 1 -1.</_>
        <_>
          4 0 4 1 3.</_></rects>
      <tilted>0</tilted></_>
    <_>
      <rects>
        <_>
          0 0 8 12 -1.</_>
        <_>
          4 0 4 12 2.</_></rects>
      <tilted>0</tilted></_>
    <_>
      <rects>
        <_>
          0 0 10 2 -1.</_>
        <_>
          0 0 5 1 2.</_>
        <_>
          5 1 5 1 2.</_></rects>
      <tilted>0</tilted></_>
    <_>
      <rects>
        <_>
          0 0 10 2 -1.</_>
        <_>
          5 0 5 2 2.</_></rects>
      <tilted>0</tilted></_>
    <_>
      <rects>
        <_>
          0 0 6 3 -1.</_>
        <_>
          0 1 6 1 3.</_></rects>
      <tilted>0</tilted></_>
    <_>
      <rects>
        <_>
          0 0 12 8 -1.</_>
        <_>
          6 0 6 8 2.</_></rects>
      <tilted>0</tilted></_>
    <_>
      <rects>
        <_>
          0 0 14 4 -1.</_>
        <_>
          0 0 7 2 2.</_>
        <_>
          7 2 7 2 2.</_></rects>
      <tilted>0</tilted></_>
    <_>
      <rects>
        <_>
          0 0 14 10 -1.</_>
        <_>
          7 0 7 10 2.</_></rects>
      <tilted>0</tilted></_>
    <_>
      <rects>
        <_>
          0 0 9 10 -1.</_>
        <_>
          0 5 9 5 2.</_></rects>
      <tilted>0</tilted></_>
    <_>
      <rects>
        <_>
          0 1 4 4 -1.</_>
        <_>
          0 1 2 2 2.</_>
        <_>
          2 3 2 2 2.</_></rects>
      <tilted>0</tilted></_>
    <_>
      <rects>
        <_>
          0 1 2 6 -1.</_>
        <_>
          0 4 2 3 2.</_></rects>
      <tilted>0</tilted></_>
    <_>
      <rects>
        <_>
          0 1 4 4 -1.</_>
        <_>
          2 1 2 4 2.</_></rects>
      <tilted>0</tilted></_>
    <_>
      <rects>
        <_>
          0 1 6 10 -1.</_>
        <_>
          0 1 3 5 2.</_>
        <_>
          3 6 3 5 2.</_></rects>
      <tilted>0</tilted></_>
    <_>
      <rects>
        <_>
          0 1 8 13 -1.</_>
        <_>
          4 1 4 13 2.</_></rects>
      <tilted>0</tilted></_>
    <_>
      <rects>
        <_>
          0 1 10 2 -1.</_>
        <_>
          5 1 5 2 2.</_></rects>
      <tilted>0</tilted></_>
    <_>
      <rects>
        <_>
          0 1 14 1 -1.</_>
        <_>
          7 1 7 1 2.</_></rects>
      <tilted>0</tilted></_>
    <_>
      <rects>
        <_>
          0 1 14 4 -1.</_>
        <_>
          0 1 7 2 2.</_>
        <_>
          7 3 7 2 2.</_></rects>
      <tilted>0</tilted></_>
    <_>
      <rects>
        <_>
          0 1 12 6 -1.</_>
        <_>
          0 3 12 2 3.</_></rects>
      <tilted>0</tilted></_>
    <_>
      <rects>
        <_>
          0 2 1 3 -1.</_>
        <_>
          0 3 1 1 3.</_></rects>
      <tilted>0</tilted></_>
    <_>
      <rects>
        <_>
          0 2 2 4 -1.</_>
        <_>
          0 2 1 2 2.</_>
        <_>
          1 4 1 2 2.</_></rects>
      <tilted>0</tilted></_>
    <_>
      <rects>
        <_>
          0 2 2 6 -1.</_>
        <_>
          1 2 1 6 2.</_></rects>
      <tilted>0</tilted></_>
    <_>
      <rects>
        <_>
          0 2 3 12 -1.</_>
        <_>
          1 2 1 12 3.</_></rects>
      <tilted>0</tilted></_>
    <_>
      <rects>
        <_>
          0 2 4 2 -1.</_>
        <_>
          2 2 2 2 2.</_></rects>
      <tilted>0</tilted></_>
    <_>
      <rects>
        <_>
          0 2 4 3 -1.</_>
        <_>
          2 2 2 3 2.</_></rects>
      <tilted>0</tilted></_>
    <_>
      <rects>
        <_>
          0 2 4 4 -1.</_>
        <_>
          2 2 2 4 2.</_></rects>
      <tilted>0</tilted></_>
    <_>
      <rects>
        <_>
          0 2 14 5 -1.</_>
        <_>
          7 2 7 5 2.</_></rects>
      <tilted>0</tilted></_>
    <_>
      <rects>
        <_>
          0 2 10 6 -1.</_>
        <_>
          0 4 10 2 3.</_></rects>
      <tilted>0</tilted></_>
    <_>
      <rects>
        <_>
          0 2 11 8 -1.</_>
        <_>
          0 6 11 4 2.</_></rects>
      <tilted>0</tilted></_>
    <_>
      <rects>
        <_>
          0 2 13 2 -1.</_>
        <_>
          0 3 13 1 2.</_></rects>
      <tilted>0</tilted></_>
    <_>
      <rects>
        <_>
          0 3 1 3 -1.</_>
        <_>
          0 4 1 1 3.</_></rects>
      <tilted>0</tilted></_>
    <_>
      <rects>
        <_>
          0 3 3 2 -1.</_>
        <_>
          1 3 1 2 3.</_></rects>
      <tilted>0</tilted></_>
    <_>
      <rects>
        <_>
          0 3 2 6 -1.</_>
        <_>
          0 3 1 3 2.</_>
        <_>
          1 6 1 3 2.</_></rects>
      <tilted>0</tilted></_>
    <_>
      <rects>
        <_>
          0 3 1 10 -1.</_>
        <_>
          0 8 1 5 2.</_></rects>
      <tilted>0</tilted></_>
    <_>
      <rects>
        <_>
          0 3 6 4 -1.</_>
        <_>
          0 3 3 2 2.</_>
        <_>
          3 5 3 2 2.</_></rects>
      <tilted>0</tilted></_>
    <_>
      <rects>
        <_>
          0 3 6 6 -1.</_>
        <_>
          0 3 3 3 2.</_>
        <_>
          3 6 3 3 2.</_></rects>
      <tilted>0</tilted></_>
    <_>
      <rects>
        <_>
          0 3 12 1 -1.</_>
        <_>
          6 3 6 1 2.</_></rects>
      <tilted>0</tilted></_>
    <_>
      <rects>
        <_>
          0 3 12 3 -1.</_>
        <_>
          6 3 6 3 2.</_></rects>
      <tilted>0</tilted></_>
    <_>
      <rects>
        <_>
          0 4 3 7 -1.</_>
        <_>
          1 4 1 7 3.</_></rects>
      <tilted>0</tilted></_>
    <_>
      <rects>
        <_>
          0 4 14 10 -1.</_>
        <_>
          0 4 7 5 2.</_>
        <_>
          7 9 7 5 2.</_></rects>
      <tilted>0</tilted></_>
    <_>
      <rects>
        <_>
          0 4 8 8 -1.</_>
        <_>
          0 8 8 4 2.</_></rects>
      <tilted>0</tilted></_>
    <_>
      <rects>
        <_>
          0 4 12 3 -1.</_>
        <_>
          0 5 12 1 3.</_></rects>
      <tilted>0</tilted></_>
    <_>
      <rects>
        <_>
          0 5 1 2 -1.</_>
        <_>
          0 6 1 1 2.</_></rects>
      <tilted>0</tilted></_>
    <_>
      <rects>
        <_>
          0 5 4 8 -1.</_>
        <_>
          0 5 2 4 2.</_>
        <_>
          2 9 2 4 2.</_></rects>
      <tilted>0</tilted></_>
    <_>
      <rects>
        <_>
          0 5 4 5 -1.</_>
        <_>
          2 5 2 5 2.</_></rects>
      <tilted>0</tilted></_>
    <_>
      <rects>
        <_>
          0 5 12 6 -1.</_>
        <_>
          4 5 4 6 3.</_></rects>
      <tilted>0</tilted></_>
    <_>
      <rects>
        <_>
          0 5 14 2 -1.</_>
        <_>
          0 5 7 1 2.</_>
        <_>
          7 6 7 1 2.</_></rects>
      <tilted>0</tilted></_>
    <_>
      <rects>
        <_>
          0 5 11 3 -1.</_>
        <_>
          0 6 11 1 3.</_></rects>
      <tilted>0</tilted></_>
    <_>
      <rects>
        <_>
          0 5 14 9 -1.</_>
        <_>
          0 8 14 3 3.</_></rects>
      <tilted>0</tilted></_>
    <_>
      <rects>
        <_>
          0 6 4 6 -1.</_>
        <_>
          0 6 2 3 2.</_>
        <_>
          2 9 2 3 2.</_></rects>
      <tilted>0</tilted></_>
    <_>
      <rects>
        <_>
          0 6 6 6 -1.</_>
        <_>
          2 6 2 6 3.</_></rects>
      <tilted>0</tilted></_>
    <_>
      <rects>
        <_>
          0 6 4 8 -1.</_>
        <_>
          2 6 2 8 2.</_></rects>
      <tilted>0</tilted></_>
    <_>
      <rects>
        <_>
          0 6 6 1 -1.</_>
        <_>
          3 6 3 1 2.</_></rects>
      <tilted>0</tilted></_>
    <_>
      <rects>
        <_>
          0 6 6 8 -1.</_>
        <_>
          3 6 3 8 2.</_></rects>
      <tilted>0</tilted></_>
    <_>
      <rects>
        <_>
          0 6 8 1 -1.</_>
        <_>
          4 6 4 1 2.</_></rects>
      <tilted>0</tilted></_>
    <_>
      <rects>
        <_>
          0 6 8 8 -1.</_>
        <_>
          0 6 4 4 2.</_>
        <_>
          4 10 4 4 2.</_></rects>
      <tilted>0</tilted></_>
    <_>
      <rects>
        <_>
          0 6 12 4 -1.</_>
        <_>
          0 6 6 2 2.</_>
        <_>
          6 8 6 2 2.</_></rects>
      <tilted>0</tilted></_>
    <_>
      <rects>
        <_>
          0 6 14 2 -1.</_>
        <_>
          0 6 7 1 2.</_>
        <_>
          7 7 7 1 2.</_></rects>
      <tilted>0</tilted></_>
    <_>
      <rects>
        <_>
          0 6 14 4 -1.</_>
        <_>
          7 6 7 4 2.</_></rects>
      <tilted>0</tilted></_>
    <_>
      <rects>
        <_>
          0 6 13 2 -1.</_>
        <_>
          0 7 13 1 2.</_></rects>
      <tilted>0</tilted></_>
    <_>
      <rects>
        <_>
          0 7 1 3 -1.</_>
        <_>
          0 8 1 1 3.</_></rects>
      <tilted>0</tilted></_>
    <_>
      <rects>
        <_>
          0 7 3 7 -1.</_>
        <_>
          1 7 1 7 3.</_></rects>
      <tilted>0</tilted></_>
    <_>
      <rects>
        <_>
          0 7 4 6 -1.</_>
        <_>
          0 7 2 3 2.</_>
        <_>
          2 10 2 3 2.</_></rects>
      <tilted>0</tilted></_>
    <_>
      <rects>
        <_>
          0 7 4 2 -1.</_>
        <_>
          0 8 4 1 2.</_></rects>
      <tilted>0</tilted></_>
    <_>
      <rects>
        <_>
          0 7 8 7 -1.</_>
        <_>
          4 7 4 7 2.</_></rects>
      <tilted>0</tilted></_>
    <_>
      <rects>
        <_>
          0 8 2 2 -1.</_>
        <_>
          0 8 1 1 2.</_>
        <_>
          1 9 1 1 2.</_></rects>
      <tilted>0</tilted></_>
    <_>
      <rects>
        <_>
          0 8 6 4 -1.</_>
        <_>
          3 8 3 4 2.</_></rects>
      <tilted>0</tilted></_>
    <_>
      <rects>
        <_>
          0 8 6 6 -1.</_>
        <_>
          3 8 3 6 2.</_></rects>
      <tilted>0</tilted></_>
    <_>
      <rects>
        <_>
          0 8 4 3 -1.</_>
        <_>
          0 9 4 1 3.</_></rects>
      <tilted>0</tilted></_>
    <_>
      <rects>
        <_>
          0 9 4 4 -1.</_>
        <_>
          0 9 2 2 2.</_>
        <_>
          2 11 2 2 2.</_></rects>
      <tilted>0</tilted></_>
    <_>
      <rects>
        <_>
          0 9 3 3 -1.</_>
        <_>
          0 10 3 1 3.</_></rects>
      <tilted>0</tilted></_>
    <_>
      <rects>
        <_>
          0 9 9 2 -1.</_>
        <_>
          3 9 3 2 3.</_></rects>
      <tilted>0</tilted></_>
    <_>
      <rects>
        <_>
          0 9 12 5 -1.</_>
        <_>
          4 9 4 5 3.</_></rects>
      <tilted>0</tilted></_>
    <_>
      <rects>
        <_>
          0 10 1 3 -1.</_>
        <_>
          0 11 1 1 3.</_></rects>
      <tilted>0</tilted></_>
    <_>
      <rects>
        <_>
          0 10 2 3 -1.</_>
        <_>
          1 10 1 3 2.</_></rects>
      <tilted>0</tilted></_>
    <_>
      <rects>
        <_>
          0 10 4 1 -1.</_>
        <_>
          2 10 2 1 2.</_></rects>
      <tilted>0</tilted></_>
    <_>
      <rects>
        <_>
          0 10 2 3 -1.</_>
        <_>
          0 11 2 1 3.</_></rects>
      <tilted>0</tilted></_>
    <_>
      <rects>
        <_>
          0 10 8 4 -1.</_>
        <_>
          0 10 4 2 2.</_>
        <_>
          4 12 4 2 2.</_></rects>
      <tilted>0</tilted></_>
    <_>
      <rects>
        <_>
          0 10 12 4 -1.</_>
        <_>
          4 10 4 4 3.</_></rects>
      <tilted>0</tilted></_>
    <_>
      <rects>
        <_>
          0 10 10 4 -1.</_>
        <_>
          5 10 5 4 2.</_></rects>
      <tilted>0</tilted></_>
    <_>
      <rects>
        <_>
          0 10 12 4 -1.</_>
        <_>
          0 10 6 2 2.</_>
        <_>
          6 12 6 2 2.</_></rects>
      <tilted>0</tilted></_>
    <_>
      <rects>
        <_>
          0 11 2 1 -1.</_>
        <_>
          1 11 1 1 2.</_></rects>
      <tilted>0</tilted></_>
    <_>
      <rects>
        <_>
          0 11 2 2 -1.</_>
        <_>
          1 11 1 2 2.</_></rects>
      <tilted>0</tilted></_>
    <_>
      <rects>
        <_>
          0 11 2 3 -1.</_>
        <_>
          1 11 1 3 2.</_></rects>
      <tilted>0</tilted></_>
    <_>
      <rects>
        <_>
          0 11 3 3 -1.</_>
        <_>
          0 12 3 1 3.</_></rects>
      <tilted>0</tilted></_>
    <_>
      <rects>
        <_>
          0 11 12 1 -1.</_>
        <_>
          4 11 4 1 3.</_></rects>
      <tilted>0</tilted></_>
    <_>
      <rects>
        <_>
          0 11 5 3 -1.</_>
        <_>
          0 12 5 1 3.</_></rects>
      <tilted>0</tilted></_>
    <_>
      <rects>
        <_>
          0 11 7 2 -1.</_>
        <_>
          0 12 7 1 2.</_></rects>
      <tilted>0</tilted></_>
    <_>
      <rects>
        <_>
          0 11 12 3 -1.</_>
        <_>
          0 12 12 1 3.</_></rects>
      <tilted>0</tilted></_>
    <_>
      <rects>
        <_>
          0 12 2 1 -1.</_>
        <_>
          1 12 1 1 2.</_></rects>
      <tilted>0</tilted></_>
    <_>
      <rects>
        <_>
          0 12 1 2 -1.</_>
        <_>
          0 13 1 1 2.</_></rects>
      <tilted>0</tilted></_>
    <_>
      <rects>
        <_>
          0 12 4 2 -1.</_>
        <_>
          0 12 2 1 2.</_>
        <_>
          2 13 2 1 2.</_></rects>
      <tilted>0</tilted></_>
    <_>
      <rects>
        <_>
          0 12 6 1 -1.</_>
        <_>
          3 12 3 1 2.</_></rects>
      <tilted>0</tilted></_>
    <_>
      <rects>
        <_>
          0 12 6 2 -1.</_>
        <_>
          3 12 3 2 2.</_></rects>
      <tilted>0</tilted></_>
    <_>
      <rects>
        <_>
          0 12 10 2 -1.</_>
        <_>
          0 12 5 1 2.</_>
        <_>
          5 13 5 1 2.</_></rects>
      <tilted>0</tilted></_>
    <_>
      <rects>
        <_>
          0 13 2 1 -1.</_>
        <_>
          1 13 1 1 2.</_></rects>
      <tilted>0</tilted></_>
    <_>
      <rects>
        <_>
          0 13 6 1 -1.</_>
        <_>
          3 13 3 1 2.</_></rects>
      <tilted>0</tilted></_>
    <_>
      <rects>
        <_>
          0 13 8 1 -1.</_>
        <_>
          4 13 4 1 2.</_></rects>
      <tilted>0</tilted></_>
    <_>
      <rects>
        <_>
          0 13 12 1 -1.</_>
        <_>
          4 13 4 1 3.</_></rects>
      <tilted>0</tilted></_>
    <_>
      <rects>
        <_>
          0 13 14 1 -1.</_>
        <_>
          7 13 7 1 2.</_></rects>
      <tilted>0</tilted></_>
    <_>
      <rects>
        <_>
          1 0 3 1 -1.</_>
        <_>
          2 0 1 1 3.</_></rects>
      <tilted>0</tilted></_>
    <_>
      <rects>
        <_>
          1 0 2 12 -1.</_>
        <_>
          1 0 1 6 2.</_>
        <_>
          2 6 1 6 2.</_></rects>
      <tilted>0</tilted></_>
    <_>
      <rects>
        <_>
          1 0 3 11 -1.</_>
        <_>
          2 0 1 11 3.</_></rects>
      <tilted>0</tilted></_>
    <_>
      <rects>
        <_>
          1 0 4 1 -1.</_>
        <_>
          3 0 2 1 2.</_></rects>
      <tilted>0</tilted></_>
    <_>
      <rects>
        <_>
          1 0 6 1 -1.</_>
        <_>
          3 0 2 1 3.</_></rects>
      <tilted>0</tilted></_>
    <_>
      <rects>
        <_>
          1 0 4 2 -1.</_>
        <_>
          3 0 2 2 2.</_></rects>
      <tilted>0</tilted></_>
    <_>
      <rects>
        <_>
          1 0 4 4 -1.</_>
        <_>
          1 0 2 2 2.</_>
        <_>
          3 2 2 2 2.</_></rects>
      <tilted>0</tilted></_>
    <_>
      <rects>
        <_>
          1 0 4 10 -1.</_>
        <_>
          1 0 2 5 2.</_>
        <_>
          3 5 2 5 2.</_></rects>
      <tilted>0</tilted></_>
    <_>
      <rects>
        <_>
          1 0 4 9 -1.</_>
        <_>
          3 0 2 9 2.</_></rects>
      <tilted>0</tilted></_>
    <_>
      <rects>
        <_>
          1 0 6 1 -1.</_>
        <_>
          4 0 3 1 2.</_></rects>
      <tilted>0</tilted></_>
    <_>
      <rects>
        <_>
          1 0 3 12 -1.</_>
        <_>
          1 4 3 4 3.</_></rects>
      <tilted>0</tilted></_>
    <_>
      <rects>
        <_>
          1 0 6 8 -1.</_>
        <_>
          1 0 3 4 2.</_>
        <_>
          4 4 3 4 2.</_></rects>
      <tilted>0</tilted></_>
    <_>
      <rects>
        <_>
          1 0 6 12 -1.</_>
        <_>
          1 0 3 6 2.</_>
        <_>
          4 6 3 6 2.</_></rects>
      <tilted>0</tilted></_>
    <_>
      <rects>
        <_>
          1 0 3 14 -1.</_>
        <_>
          1 7 3 7 2.</_></rects>
      <tilted>0</tilted></_>
    <_>
      <rects>
        <_>
          1 0 12 1 -1.</_>
        <_>
          5 0 4 1 3.</_></rects>
      <tilted>0</tilted></_>
    <_>
      <rects>
        <_>
          1 0 12 14 -1.</_>
        <_>
          5 0 4 14 3.</_></rects>
      <tilted>0</tilted></_>
    <_>
      <rects>
        <_>
          1 0 10 2 -1.</_>
        <_>
          6 0 5 2 2.</_></rects>
      <tilted>0</tilted></_>
    <_>
      <rects>
        <_>
          1 0 12 4 -1.</_>
        <_>
          1 0 6 2 2.</_>
        <_>
          7 2 6 2 2.</_></rects>
      <tilted>0</tilted></_>
    <_>
      <rects>
        <_>
          1 0 12 6 -1.</_>
        <_>
          1 0 6 3 2.</_>
        <_>
          7 3 6 3 2.</_></rects>
      <tilted>0</tilted></_>
    <_>
      <rects>
        <_>
          1 1 2 2 -1.</_>
        <_>
          2 1 1 2 2.</_></rects>
      <tilted>0</tilted></_>
    <_>
      <rects>
        <_>
          1 1 2 9 -1.</_>
        <_>
          1 4 2 3 3.</_></rects>
      <tilted>0</tilted></_>
    <_>
      <rects>
        <_>
          1 1 6 4 -1.</_>
        <_>
          3 1 2 4 3.</_></rects>
      <tilted>0</tilted></_>
    <_>
      <rects>
        <_>
          1 1 9 12 -1.</_>
        <_>
          4 1 3 12 3.</_></rects>
      <tilted>0</tilted></_>
    <_>
      <rects>
        <_>
          1 1 12 8 -1.</_>
        <_>
          5 1 4 8 3.</_></rects>
      <tilted>0</tilted></_>
    <_>
      <rects>
        <_>
          1 1 12 13 -1.</_>
        <_>
          5 1 4 13 3.</_></rects>
      <tilted>0</tilted></_>
    <_>
      <rects>
        <_>
          1 1 10 4 -1.</_>
        <_>
          1 1 5 2 2.</_>
        <_>
          6 3 5 2 2.</_></rects>
      <tilted>0</tilted></_>
    <_>
      <rects>
        <_>
          1 2 2 12 -1.</_>
        <_>
          2 2 1 12 2.</_></rects>
      <tilted>0</tilted></_>
    <_>
      <rects>
        <_>
          1 2 6 1 -1.</_>
        <_>
          3 2 2 1 3.</_></rects>
      <tilted>0</tilted></_>
    <_>
      <rects>
        <_>
          1 2 4 6 -1.</_>
        <_>
          1 2 2 3 2.</_>
        <_>
          3 5 2 3 2.</_></rects>
      <tilted>0</tilted></_>
    <_>
      <rects>
        <_>
          1 2 12 1 -1.</_>
        <_>
          5 2 4 1 3.</_></rects>
      <tilted>0</tilted></_>
    <_>
      <rects>
        <_>
          1 2 12 2 -1.</_>
        <_>
          5 2 4 2 3.</_></rects>
      <tilted>0</tilted></_>
    <_>
      <rects>
        <_>
          1 2 12 3 -1.</_>
        <_>
          5 2 4 3 3.</_></rects>
      <tilted>0</tilted></_>
    <_>
      <rects>
        <_>
          1 2 12 11 -1.</_>
        <_>
          5 2 4 11 3.</_></rects>
      <tilted>0</tilted></_>
    <_>
      <rects>
        <_>
          1 2 12 12 -1.</_>
        <_>
          5 2 4 12 3.</_></rects>
      <tilted>0</tilted></_>
    <_>
      <rects>
        <_>
          1 2 12 2 -1.</_>
        <_>
          1 2 6 1 2.</_>
        <_>
          7 3 6 1 2.</_></rects>
      <tilted>0</tilted></_>
    <_>
      <rects>
        <_>
          1 2 9 2 -1.</_>
        <_>
          1 3 9 1 2.</_></rects>
      <tilted>0</tilted></_>
    <_>
      <rects>
        <_>
          1 3 2 10 -1.</_>
        <_>
          2 3 1 10 2.</_></rects>
      <tilted>0</tilted></_>
    <_>
      <rects>
        <_>
          1 3 6 10 -1.</_>
        <_>
          3 3 2 10 3.</_></rects>
      <tilted>0</tilted></_>
    <_>
      <rects>
        <_>
          1 3 9 8 -1.</_>
        <_>
          4 3 3 8 3.</_></rects>
      <tilted>0</tilted></_>
    <_>
      <rects>
        <_>
          1 3 5 3 -1.</_>
        <_>
          1 4 5 1 3.</_></rects>
      <tilted>0</tilted></_>
    <_>
      <rects>
        <_>
          1 4 1 6 -1.</_>
        <_>
          1 6 1 2 3.</_></rects>
      <tilted>0</tilted></_>
    <_>
      <rects>
        <_>
          1 4 2 3 -1.</_>
        <_>
          2 4 1 3 2.</_></rects>
      <tilted>0</tilted></_>
    <_>
      <rects>
        <_>
          1 4 6 10 -1.</_>
        <_>
          3 4 2 10 3.</_></rects>
      <tilted>0</tilted></_>
    <_>
      <rects>
        <_>
          1 4 3 6 -1.</_>
        <_>
          1 6 3 2 3.</_></rects>
      <tilted>0</tilted></_>
    <_>
      <rects>
        <_>
          1 4 12 8 -1.</_>
        <_>
          5 4 4 8 3.</_></rects>
      <tilted>0</tilted></_>
    <_>
      <rects>
        <_>
          1 4 12 4 -1.</_>
        <_>
          1 4 6 2 2.</_>
        <_>
          7 6 6 2 2.</_></rects>
      <tilted>0</tilted></_>
    <_>
      <rects>
        <_>
          1 4 11 3 -1.</_>
        <_>
          1 5 11 1 3.</_></rects>
      <tilted>0</tilted></_>
    <_>
      <rects>
        <_>
          1 4 11 4 -1.</_>
        <_>
          1 6 11 2 2.</_></rects>
      <tilted>0</tilted></_>
    <_>
      <rects>
        <_>
          1 4 11 8 -1.</_>
        <_>
          1 8 11 4 2.</_></rects>
      <tilted>0</tilted></_>
    <_>
      <rects>
        <_>
          1 4 12 2 -1.</_>
        <_>
          1 5 12 1 2.</_></rects>
      <tilted>0</tilted></_>
    <_>
      <rects>
        <_>
          1 4 12 10 -1.</_>
        <_>
          1 9 12 5 2.</_></rects>
      <tilted>0</tilted></_>
    <_>
      <rects>
        <_>
          1 4 13 6 -1.</_>
        <_>
          1 7 13 3 2.</_></rects>
      <tilted>0</tilted></_>
    <_>
      <rects>
        <_>
          1 5 2 6 -1.</_>
        <_>
          1 5 1 3 2.</_>
        <_>
          2 8 1 3 2.</_></rects>
      <tilted>0</tilted></_>
    <_>
      <rects>
        <_>
          1 5 4 2 -1.</_>
        <_>
          3 5 2 2 2.</_></rects>
      <tilted>0</tilted></_>
    <_>
      <rects>
        <_>
          1 5 2 9 -1.</_>
        <_>
          1 8 2 3 3.</_></rects>
      <tilted>0</tilted></_>
    <_>
      <rects>
        <_>
          1 5 4 6 -1.</_>
        <_>
          1 7 4 2 3.</_></rects>
      <tilted>0</tilted></_>
    <_>
      <rects>
        <_>
          1 5 12 9 -1.</_>
        <_>
          5 5 4 9 3.</_></rects>
      <tilted>0</tilted></_>
    <_>
      <rects>
        <_>
          1 5 11 8 -1.</_>
        <_>
          1 9 11 4 2.</_></rects>
      <tilted>0</tilted></_>
    <_>
      <rects>
        <_>
          1 6 4 3 -1.</_>
        <_>
          3 6 2 3 2.</_></rects>
      <tilted>0</tilted></_>
    <_>
      <rects>
        <_>
          1 6 4 3 -1.</_>
        <_>
          1 7 4 1 3.</_></rects>
      <tilted>0</tilted></_>
    <_>
      <rects>
        <_>
          1 6 5 8 -1.</_>
        <_>
          1 10 5 4 2.</_></rects>
      <tilted>0</tilted></_>
    <_>
      <rects>
        <_>
          1 6 12 2 -1.</_>
        <_>
          1 6 6 1 2.</_>
        <_>
          7 7 6 1 2.</_></rects>
      <tilted>0</tilted></_>
    <_>
      <rects>
        <_>
          1 6 7 6 -1.</_>
        <_>
          1 9 7 3 2.</_></rects>
      <tilted>0</tilted></_>
    <_>
      <rects>
        <_>
          1 6 10 6 -1.</_>
        <_>
          1 9 10 3 2.</_></rects>
      <tilted>0</tilted></_>
    <_>
      <rects>
        <_>
          1 7 1 2 -1.</_>
        <_>
          1 8 1 1 2.</_></rects>
      <tilted>0</tilted></_>
    <_>
      <rects>
        <_>
          1 7 3 1 -1.</_>
        <_>
          2 7 1 1 3.</_></rects>
      <tilted>0</tilted></_>
    <_>
      <rects>
        <_>
          1 7 2 2 -1.</_>
        <_>
          1 7 1 1 2.</_>
        <_>
          2 8 1 1 2.</_></rects>
      <tilted>0</tilted></_>
    <_>
      <rects>
        <_>
          1 7 2 5 -1.</_>
        <_>
          2 7 1 5 2.</_></rects>
      <tilted>0</tilted></_>
    <_>
      <rects>
        <_>
          1 7 3 7 -1.</_>
        <_>
          2 7 1 7 3.</_></rects>
      <tilted>0</tilted></_>
    <_>
      <rects>
        <_>
          1 7 6 3 -1.</_>
        <_>
          3 7 2 3 3.</_></rects>
      <tilted>0</tilted></_>
    <_>
      <rects>
        <_>
          1 7 4 4 -1.</_>
        <_>
          3 7 2 4 2.</_></rects>
      <tilted>0</tilted></_>
    <_>
      <rects>
        <_>
          1 7 4 7 -1.</_>
        <_>
          3 7 2 7 2.</_></rects>
      <tilted>0</tilted></_>
    <_>
      <rects>
        <_>
          1 8 3 1 -1.</_>
        <_>
          2 8 1 1 3.</_></rects>
      <tilted>0</tilted></_>
    <_>
      <rects>
        <_>
          1 8 3 3 -1.</_>
        <_>
          2 8 1 3 3.</_></rects>
      <tilted>0</tilted></_>
    <_>
      <rects>
        <_>
          1 8 2 4 -1.</_>
        <_>
          1 10 2 2 2.</_></rects>
      <tilted>0</tilted></_>
    <_>
      <rects>
        <_>
          1 8 2 6 -1.</_>
        <_>
          1 10 2 2 3.</_></rects>
      <tilted>0</tilted></_>
    <_>
      <rects>
        <_>
          1 8 4 4 -1.</_>
        <_>
          3 8 2 4 2.</_></rects>
      <tilted>0</tilted></_>
    <_>
      <rects>
        <_>
          1 8 6 4 -1.</_>
        <_>
          3 8 2 4 3.</_></rects>
      <tilted>0</tilted></_>
    <_>
      <rects>
        <_>
          1 9 3 2 -1.</_>
        <_>
          1 10 3 1 2.</_></rects>
      <tilted>0</tilted></_>
    <_>
      <rects>
        <_>
          1 9 12 5 -1.</_>
        <_>
          5 9 4 5 3.</_></rects>
      <tilted>0</tilted></_>
    <_>
      <rects>
        <_>
          1 10 1 3 -1.</_>
        <_>
          1 11 1 1 3.</_></rects>
      <tilted>0</tilted></_>
    <_>
      <rects>
        <_>
          1 10 3 3 -1.</_>
        <_>
          2 10 1 3 3.</_></rects>
      <tilted>0</tilted></_>
    <_>
      <rects>
        <_>
          1 10 6 3 -1.</_>
        <_>
          4 10 3 3 2.</_></rects>
      <tilted>0</tilted></_>
    <_>
      <rects>
        <_>
          1 10 6 4 -1.</_>
        <_>
          4 10 3 4 2.</_></rects>
      <tilted>0</tilted></_>
    <_>
      <rects>
        <_>
          1 10 12 3 -1.</_>
        <_>
          5 10 4 3 3.</_></rects>
      <tilted>0</tilted></_>
    <_>
      <rects>
        <_>
          1 10 12 4 -1.</_>
        <_>
          5 10 4 4 3.</_></rects>
      <tilted>0</tilted></_>
    <_>
      <rects>
        <_>
          1 11 3 1 -1.</_>
        <_>
          2 11 1 1 3.</_></rects>
      <tilted>0</tilted></_>
    <_>
      <rects>
        <_>
          1 11 12 3 -1.</_>
        <_>
          5 11 4 3 3.</_></rects>
      <tilted>0</tilted></_>
    <_>
      <rects>
        <_>
          1 12 1 2 -1.</_>
        <_>
          1 13 1 1 2.</_></rects>
      <tilted>0</tilted></_>
    <_>
      <rects>
        <_>
          1 12 3 1 -1.</_>
        <_>
          2 12 1 1 3.</_></rects>
      <tilted>0</tilted></_>
    <_>
      <rects>
        <_>
          1 12 12 1 -1.</_>
        <_>
          5 12 4 1 3.</_></rects>
      <tilted>0</tilted></_>
    <_>
      <rects>
        <_>
          1 12 8 2 -1.</_>
        <_>
          5 12 4 2 2.</_></rects>
      <tilted>0</tilted></_>
    <_>
      <rects>
        <_>
          1 12 12 2 -1.</_>
        <_>
          5 12 4 2 3.</_></rects>
      <tilted>0</tilted></_>
    <_>
      <rects>
        <_>
          1 13 6 1 -1.</_>
        <_>
          4 13 3 1 2.</_></rects>
      <tilted>0</tilted></_>
    <_>
      <rects>
        <_>
          1 13 12 1 -1.</_>
        <_>
          5 13 4 1 3.</_></rects>
      <tilted>0</tilted></_>
    <_>
      <rects>
        <_>
          2 0 2 2 -1.</_>
        <_>
          3 0 1 2 2.</_></rects>
      <tilted>0</tilted></_>
    <_>
      <rects>
        <_>
          2 0 4 10 -1.</_>
        <_>
          2 0 2 5 2.</_>
        <_>
          4 5 2 5 2.</_></rects>
      <tilted>0</tilted></_>
    <_>
      <rects>
        <_>
          2 0 9 1 -1.</_>
        <_>
          5 0 3 1 3.</_></rects>
      <tilted>0</tilted></_>
    <_>
      <rects>
        <_>
          2 0 8 1 -1.</_>
        <_>
          6 0 4 1 2.</_></rects>
      <tilted>0</tilted></_>
    <_>
      <rects>
        <_>
          2 0 4 2 -1.</_>
        <_>
          2 1 4 1 2.</_></rects>
      <tilted>0</tilted></_>
    <_>
      <rects>
        <_>
          2 0 12 9 -1.</_>
        <_>
          6 0 4 9 3.</_></rects>
      <tilted>0</tilted></_>
    <_>
      <rects>
        <_>
          2 0 10 1 -1.</_>
        <_>
          7 0 5 1 2.</_></rects>
      <tilted>0</tilted></_>
    <_>
      <rects>
        <_>
          2 0 12 1 -1.</_>
        <_>
          8 0 6 1 2.</_></rects>
      <tilted>0</tilted></_>
    <_>
      <rects>
        <_>
          2 0 12 4 -1.</_>
        <_>
          2 0 6 2 2.</_>
        <_>
          8 2 6 2 2.</_></rects>
      <tilted>0</tilted></_>
    <_>
      <rects>
        <_>
          2 1 3 1 -1.</_>
        <_>
          3 1 1 1 3.</_></rects>
      <tilted>0</tilted></_>
    <_>
      <rects>
        <_>
          2 1 2 4 -1.</_>
        <_>
          3 1 1 4 2.</_></rects>
      <tilted>0</tilted></_>
    <_>
      <rects>
        <_>
          2 1 3 8 -1.</_>
        <_>
          3 1 1 8 3.</_></rects>
      <tilted>0</tilted></_>
    <_>
      <rects>
        <_>
          2 1 3 13 -1.</_>
        <_>
          3 1 1 13 3.</_></rects>
      <tilted>0</tilted></_>
    <_>
      <rects>
        <_>
          2 1 2 2 -1.</_>
        <_>
          2 2 2 1 2.</_></rects>
      <tilted>0</tilted></_>
    <_>
      <rects>
        <_>
          2 1 6 6 -1.</_>
        <_>
          4 1 2 6 3.</_></rects>
      <tilted>0</tilted></_>
    <_>
      <rects>
        <_>
          2 1 4 13 -1.</_>
        <_>
          4 1 2 13 2.</_></rects>
      <tilted>0</tilted></_>
    <_>
      <rects>
        <_>
          2 1 9 3 -1.</_>
        <_>
          5 1 3 3 3.</_></rects>
      <tilted>0</tilted></_>
    <_>
      <rects>
        <_>
          2 1 9 13 -1.</_>
        <_>
          5 1 3 13 3.</_></rects>
      <tilted>0</tilted></_>
    <_>
      <rects>
        <_>
          2 1 8 4 -1.</_>
        <_>
          2 1 4 2 2.</_>
        <_>
          6 3 4 2 2.</_></rects>
      <tilted>0</tilted></_>
    <_>
      <rects>
        <_>
          2 1 12 7 -1.</_>
        <_>
          6 1 4 7 3.</_></rects>
      <tilted>0</tilted></_>
    <_>
      <rects>
        <_>
          2 1 9 3 -1.</_>
        <_>
          2 2 9 1 3.</_></rects>
      <tilted>0</tilted></_>
    <_>
      <rects>
        <_>
          2 1 12 6 -1.</_>
        <_>
          2 4 12 3 2.</_></rects>
      <tilted>0</tilted></_>
    <_>
      <rects>
        <_>
          2 2 1 2 -1.</_>
        <_>
          2 3 1 1 2.</_></rects>
      <tilted>0</tilted></_>
    <_>
      <rects>
        <_>
          2 2 2 8 -1.</_>
        <_>
          2 2 1 4 2.</_>
        <_>
          3 6 1 4 2.</_></rects>
      <tilted>0</tilted></_>
    <_>
      <rects>
        <_>
          2 2 2 12 -1.</_>
        <_>
          2 6 2 4 3.</_></rects>
      <tilted>0</tilted></_>
    <_>
      <rects>
        <_>
          2 2 9 2 -1.</_>
        <_>
          5 2 3 2 3.</_></rects>
      <tilted>0</tilted></_>
    <_>
      <rects>
        <_>
          2 2 8 6 -1.</_>
        <_>
          2 5 8 3 2.</_></rects>
      <tilted>0</tilted></_>
    <_>
      <rects>
        <_>
          2 3 1 2 -1.</_>
        <_>
          2 4 1 1 2.</_></rects>
      <tilted>0</tilted></_>
    <_>
      <rects>
        <_>
          2 3 8 1 -1.</_>
        <_>
          6 3 4 1 2.</_></rects>
      <tilted>0</tilted></_>
    <_>
      <rects>
        <_>
          2 3 8 2 -1.</_>
        <_>
          2 3 4 1 2.</_>
        <_>
          6 4 4 1 2.</_></rects>
      <tilted>0</tilted></_>
    <_>
      <rects>
        <_>
          2 3 12 5 -1.</_>
        <_>
          6 3 4 5 3.</_></rects>
      <tilted>0</tilted></_>
    <_>
      <rects>
        <_>
          2 3 10 4 -1.</_>
        <_>
          7 3 5 4 2.</_></rects>
      <tilted>0</tilted></_>
    <_>
      <rects>
        <_>
          2 3 9 4 -1.</_>
        <_>
          2 5 9 2 2.</_></rects>
      <tilted>0</tilted></_>
    <_>
      <rects>
        <_>
          2 3 10 9 -1.</_>
        <_>
          2 6 10 3 3.</_></rects>
      <tilted>0</tilted></_>
    <_>
      <rects>
        <_>
          2 4 3 10 -1.</_>
        <_>
          3 4 1 10 3.</_></rects>
      <tilted>0</tilted></_>
    <_>
      <rects>
        <_>
          2 4 2 4 -1.</_>
        <_>
          2 6 2 2 2.</_></rects>
      <tilted>0</tilted></_>
    <_>
      <rects>
        <_>
          2 4 6 7 -1.</_>
        <_>
          5 4 3 7 2.</_></rects>
      <tilted>0</tilted></_>
    <_>
      <rects>
        <_>
          2 4 5 2 -1.</_>
        <_>
          2 5 5 1 2.</_></rects>
      <tilted>0</tilted></_>
    <_>
      <rects>
        <_>
          2 4 9 10 -1.</_>
        <_>
          2 9 9 5 2.</_></rects>
      <tilted>0</tilted></_>
    <_>
      <rects>
        <_>
          2 5 3 1 -1.</_>
        <_>
          3 5 1 1 3.</_></rects>
      <tilted>0</tilted></_>
    <_>
      <rects>
        <_>
          2 5 2 4 -1.</_>
        <_>
          2 5 1 2 2.</_>
        <_>
          3 7 1 2 2.</_></rects>
      <tilted>0</tilted></_>
    <_>
      <rects>
        <_>
          2 5 3 3 -1.</_>
        <_>
          3 5 1 3 3.</_></rects>
      <tilted>0</tilted></_>
    <_>
      <rects>
        <_>
          2 5 3 9 -1.</_>
        <_>
          3 5 1 9 3.</_></rects>
      <tilted>0</tilted></_>
    <_>
      <rects>
        <_>
          2 5 4 4 -1.</_>
        <_>
          2 5 2 2 2.</_>
        <_>
          4 7 2 2 2.</_></rects>
      <tilted>0</tilted></_>
    <_>
      <rects>
        <_>
          2 5 3 6 -1.</_>
        <_>
          2 7 3 2 3.</_></rects>
      <tilted>0</tilted></_>
    <_>
      <rects>
        <_>
          2 5 8 8 -1.</_>
        <_>
          2 5 4 4 2.</_>
        <_>
          6 9 4 4 2.</_></rects>
      <tilted>0</tilted></_>
    <_>
      <rects>
        <_>
          2 5 12 8 -1.</_>
        <_>
          6 5 4 8 3.</_></rects>
      <tilted>0</tilted></_>
    <_>
      <rects>
        <_>
          2 5 12 9 -1.</_>
        <_>
          6 5 4 9 3.</_></rects>
      <tilted>0</tilted></_>
    <_>
      <rects>
        <_>
          2 5 5 3 -1.</_>
        <_>
          2 6 5 1 3.</_></rects>
      <tilted>0</tilted></_>
    <_>
      <rects>
        <_>
          2 5 12 9 -1.</_>
        <_>
          2 8 12 3 3.</_></rects>
      <tilted>0</tilted></_>
    <_>
      <rects>
        <_>
          2 6 2 6 -1.</_>
        <_>
          2 6 1 3 2.</_>
        <_>
          3 9 1 3 2.</_></rects>
      <tilted>0</tilted></_>
    <_>
      <rects>
        <_>
          2 6 3 4 -1.</_>
        <_>
          3 6 1 4 3.</_></rects>
      <tilted>0</tilted></_>
    <_>
      <rects>
        <_>
          2 6 4 8 -1.</_>
        <_>
          2 6 2 4 2.</_>
        <_>
          4 10 2 4 2.</_></rects>
      <tilted>0</tilted></_>
    <_>
      <rects>
        <_>
          2 6 8 4 -1.</_>
        <_>
          2 6 4 2 2.</_>
        <_>
          6 8 4 2 2.</_></rects>
      <tilted>0</tilted></_>
    <_>
      <rects>
        <_>
          2 6 12 8 -1.</_>
        <_>
          6 6 4 8 3.</_></rects>
      <tilted>0</tilted></_>
    <_>
      <rects>
        <_>
          2 6 7 6 -1.</_>
        <_>
          2 8 7 2 3.</_></rects>
      <tilted>0</tilted></_>
    <_>
      <rects>
        <_>
          2 7 3 1 -1.</_>
        <_>
          3 7 1 1 3.</_></rects>
      <tilted>0</tilted></_>
    <_>
      <rects>
        <_>
          2 7 1 3 -1.</_>
        <_>
          2 8 1 1 3.</_></rects>
      <tilted>0</tilted></_>
    <_>
      <rects>
        <_>
          2 7 3 2 -1.</_>
        <_>
          3 7 1 2 3.</_></rects>
      <tilted>0</tilted></_>
    <_>
      <rects>
        <_>
          2 7 2 6 -1.</_>
        <_>
          2 7 1 3 2.</_>
        <_>
          3 10 1 3 2.</_></rects>
      <tilted>0</tilted></_>
    <_>
      <rects>
        <_>
          2 7 4 6 -1.</_>
        <_>
          2 7 2 3 2.</_>
        <_>
          4 10 2 3 2.</_></rects>
      <tilted>0</tilted></_>
    <_>
      <rects>
        <_>
          2 7 9 7 -1.</_>
        <_>
          5 7 3 7 3.</_></rects>
      <tilted>0</tilted></_>
    <_>
      <rects>
        <_>
          2 7 12 4 -1.</_>
        <_>
          6 7 4 4 3.</_></rects>
      <tilted>0</tilted></_>
    <_>
      <rects>
        <_>
          2 7 10 2 -1.</_>
        <_>
          2 7 5 1 2.</_>
        <_>
          7 8 5 1 2.</_></rects>
      <tilted>0</tilted></_>
    <_>
      <rects>
        <_>
          2 8 3 1 -1.</_>
        <_>
          3 8 1 1 3.</_></rects>
      <tilted>0</tilted></_>
    <_>
      <rects>
        <_>
          2 8 3 5 -1.</_>
        <_>
          3 8 1 5 3.</_></rects>
      <tilted>0</tilted></_>
    <_>
      <rects>
        <_>
          2 8 3 6 -1.</_>
        <_>
          3 8 1 6 3.</_></rects>
      <tilted>0</tilted></_>
    <_>
      <rects>
        <_>
          2 8 10 6 -1.</_>
        <_>
          2 8 5 3 2.</_>
        <_>
          7 11 5 3 2.</_></rects>
      <tilted>0</tilted></_>
    <_>
      <rects>
        <_>
          2 8 12 6 -1.</_>
        <_>
          2 8 6 3 2.</_>
        <_>
          8 11 6 3 2.</_></rects>
      <tilted>0</tilted></_>
    <_>
      <rects>
        <_>
          2 8 7 4 -1.</_>
        <_>
          2 10 7 2 2.</_></rects>
      <tilted>0</tilted></_>
    <_>
      <rects>
        <_>
          2 9 1 3 -1.</_>
        <_>
          2 10 1 1 3.</_></rects>
      <tilted>0</tilted></_>
    <_>
      <rects>
        <_>
          2 9 3 3 -1.</_>
        <_>
          3 9 1 3 3.</_></rects>
      <tilted>0</tilted></_>
    <_>
      <rects>
        <_>
          2 9 2 2 -1.</_>
        <_>
          2 10 2 1 2.</_></rects>
      <tilted>0</tilted></_>
    <_>
      <rects>
        <_>
          2 9 12 2 -1.</_>
        <_>
          6 9 4 2 3.</_></rects>
      <tilted>0</tilted></_>
    <_>
      <rects>
        <_>
          2 10 3 1 -1.</_>
        <_>
          3 10 1 1 3.</_></rects>
      <tilted>0</tilted></_>
    <_>
      <rects>
        <_>
          2 10 3 2 -1.</_>
        <_>
          3 10 1 2 3.</_></rects>
      <tilted>0</tilted></_>
    <_>
      <rects>
        <_>
          2 10 4 1 -1.</_>
        <_>
          4 10 2 1 2.</_></rects>
      <tilted>0</tilted></_>
    <_>
      <rects>
        <_>
          2 10 10 4 -1.</_>
        <_>
          2 10 5 2 2.</_>
        <_>
          7 12 5 2 2.</_></rects>
      <tilted>0</tilted></_>
    <_>
      <rects>
        <_>
          2 10 8 2 -1.</_>
        <_>
          2 11 8 1 2.</_></rects>
      <tilted>0</tilted></_>
    <_>
      <rects>
        <_>
          2 11 3 1 -1.</_>
        <_>
          3 11 1 1 3.</_></rects>
      <tilted>0</tilted></_>
    <_>
      <rects>
        <_>
          2 11 3 2 -1.</_>
        <_>
          3 11 1 2 3.</_></rects>
      <tilted>0</tilted></_>
    <_>
      <rects>
        <_>
          2 11 4 3 -1.</_>
        <_>
          4 11 2 3 2.</_></rects>
      <tilted>0</tilted></_>
    <_>
      <rects>
        <_>
          2 11 6 2 -1.</_>
        <_>
          5 11 3 2 2.</_></rects>
      <tilted>0</tilted></_>
    <_>
      <rects>
        <_>
          2 12 3 2 -1.</_>
        <_>
          3 12 1 2 3.</_></rects>
      <tilted>0</tilted></_>
    <_>
      <rects>
        <_>
          2 12 3 2 -1.</_>
        <_>
          2 13 3 1 2.</_></rects>
      <tilted>0</tilted></_>
    <_>
      <rects>
        <_>
          2 12 9 1 -1.</_>
        <_>
          5 12 3 1 3.</_></rects>
      <tilted>0</tilted></_>
    <_>
      <rects>
        <_>
          2 12 10 2 -1.</_>
        <_>
          2 12 5 1 2.</_>
        <_>
          7 13 5 1 2.</_></rects>
      <tilted>0</tilted></_>
    <_>
      <rects>
        <_>
          2 13 4 1 -1.</_>
        <_>
          4 13 2 1 2.</_></rects>
      <tilted>0</tilted></_>
    <_>
      <rects>
        <_>
          2 13 12 1 -1.</_>
        <_>
          6 13 4 1 3.</_></rects>
      <tilted>0</tilted></_>
    <_>
      <rects>
        <_>
          2 13 12 1 -1.</_>
        <_>
          8 13 6 1 2.</_></rects>
      <tilted>0</tilted></_>
    <_>
      <rects>
        <_>
          3 0 1 2 -1.</_>
        <_>
          3 1 1 1 2.</_></rects>
      <tilted>0</tilted></_>
    <_>
      <rects>
        <_>
          3 0 2 4 -1.</_>
        <_>
          3 0 1 2 2.</_>
        <_>
          4 2 1 2 2.</_></rects>
      <tilted>0</tilted></_>
    <_>
      <rects>
        <_>
          3 0 6 1 -1.</_>
        <_>
          6 0 3 1 2.</_></rects>
      <tilted>0</tilted></_>
    <_>
      <rects>
        <_>
          3 0 9 1 -1.</_>
        <_>
          6 0 3 1 3.</_></rects>
      <tilted>0</tilted></_>
    <_>
      <rects>
        <_>
          3 0 6 2 -1.</_>
        <_>
          3 0 3 1 2.</_>
        <_>
          6 1 3 1 2.</_></rects>
      <tilted>0</tilted></_>
    <_>
      <rects>
        <_>
          3 0 6 6 -1.</_>
        <_>
          3 0 3 3 2.</_>
        <_>
          6 3 3 3 2.</_></rects>
      <tilted>0</tilted></_>
    <_>
      <rects>
        <_>
          3 0 6 7 -1.</_>
        <_>
          6 0 3 7 2.</_></rects>
      <tilted>0</tilted></_>
    <_>
      <rects>
        <_>
          3 0 5 2 -1.</_>
        <_>
          3 1 5 1 2.</_></rects>
      <tilted>0</tilted></_>
    <_>
      <rects>
        <_>
          3 0 10 2 -1.</_>
        <_>
          8 0 5 2 2.</_></rects>
      <tilted>0</tilted></_>
    <_>
      <rects>
        <_>
          3 0 10 9 -1.</_>
        <_>
          8 0 5 9 2.</_></rects>
      <tilted>0</tilted></_>
    <_>
      <rects>
        <_>
          3 0 8 3 -1.</_>
        <_>
          3 1 8 1 3.</_></rects>
      <tilted>0</tilted></_>
    <_>
      <rects>
        <_>
          3 0 10 4 -1.</_>
        <_>
          3 2 10 2 2.</_></rects>
      <tilted>0</tilted></_>
    <_>
      <rects>
        <_>
          3 0 10 6 -1.</_>
        <_>
          3 2 10 2 3.</_></rects>
      <tilted>0</tilted></_>
    <_>
      <rects>
        <_>
          3 0 10 8 -1.</_>
        <_>
          3 4 10 4 2.</_></rects>
      <tilted>0</tilted></_>
    <_>
      <rects>
        <_>
          3 0 11 6 -1.</_>
        <_>
          3 2 11 2 3.</_></rects>
      <tilted>0</tilted></_>
    <_>
      <rects>
        <_>
          3 1 2 1 -1.</_>
        <_>
          4 1 1 1 2.</_></rects>
      <tilted>0</tilted></_>
    <_>
      <rects>
        <_>
          3 1 3 4 -1.</_>
        <_>
          4 1 1 4 3.</_></rects>
      <tilted>0</tilted></_>
    <_>
      <rects>
        <_>
          3 1 3 6 -1.</_>
        <_>
          4 1 1 6 3.</_></rects>
      <tilted>0</tilted></_>
    <_>
      <rects>
        <_>
          3 1 4 4 -1.</_>
        <_>
          3 1 2 2 2.</_>
        <_>
          5 3 2 2 2.</_></rects>
      <tilted>0</tilted></_>
    <_>
      <rects>
        <_>
          3 1 6 5 -1.</_>
        <_>
          5 1 2 5 3.</_></rects>
      <tilted>0</tilted></_>
    <_>
      <rects>
        <_>
          3 1 9 1 -1.</_>
        <_>
          6 1 3 1 3.</_></rects>
      <tilted>0</tilted></_>
    <_>
      <rects>
        <_>
          3 1 9 2 -1.</_>
        <_>
          6 1 3 2 3.</_></rects>
      <tilted>0</tilted></_>
    <_>
      <rects>
        <_>
          3 1 10 4 -1.</_>
        <_>
          3 1 5 2 2.</_>
        <_>
          8 3 5 2 2.</_></rects>
      <tilted>0</tilted></_>
    <_>
      <rects>
        <_>
          3 1 10 7 -1.</_>
        <_>
          8 1 5 7 2.</_></rects>
      <tilted>0</tilted></_>
    <_>
      <rects>
        <_>
          3 1 7 8 -1.</_>
        <_>
          3 5 7 4 2.</_></rects>
      <tilted>0</tilted></_>
    <_>
      <rects>
        <_>
          3 1 11 6 -1.</_>
        <_>
          3 3 11 2 3.</_></rects>
      <tilted>0</tilted></_>
    <_>
      <rects>
        <_>
          3 2 2 4 -1.</_>
        <_>
          3 2 1 2 2.</_>
        <_>
          4 4 1 2 2.</_></rects>
      <tilted>0</tilted></_>
    <_>
      <rects>
        <_>
          3 2 2 9 -1.</_>
        <_>
          4 2 1 9 2.</_></rects>
      <tilted>0</tilted></_>
    <_>
      <rects>
        <_>
          3 2 2 11 -1.</_>
        <_>
          4 2 1 11 2.</_></rects>
      <tilted>0</tilted></_>
    <_>
      <rects>
        <_>
          3 2 6 2 -1.</_>
        <_>
          5 2 2 2 3.</_></rects>
      <tilted>0</tilted></_>
    <_>
      <rects>
        <_>
          3 2 4 4 -1.</_>
        <_>
          3 2 2 2 2.</_>
        <_>
          5 4 2 2 2.</_></rects>
      <tilted>0</tilted></_>
    <_>
      <rects>
        <_>
          3 2 2 9 -1.</_>
        <_>
          3 5 2 3 3.</_></rects>
      <tilted>0</tilted></_>
    <_>
      <rects>
        <_>
          3 2 7 9 -1.</_>
        <_>
          3 5 7 3 3.</_></rects>
      <tilted>0</tilted></_>
    <_>
      <rects>
        <_>
          3 2 8 9 -1.</_>
        <_>
          3 5 8 3 3.</_></rects>
      <tilted>0</tilted></_>
    <_>
      <rects>
        <_>
          3 2 8 12 -1.</_>
        <_>
          3 8 8 6 2.</_></rects>
      <tilted>0</tilted></_>
    <_>
      <rects>
        <_>
          3 2 11 6 -1.</_>
        <_>
          3 4 11 2 3.</_></rects>
      <tilted>0</tilted></_>
    <_>
      <rects>
        <_>
          3 3 1 2 -1.</_>
        <_>
          3 4 1 1 2.</_></rects>
      <tilted>0</tilted></_>
    <_>
      <rects>
        <_>
          3 3 3 2 -1.</_>
        <_>
          4 3 1 2 3.</_></rects>
      <tilted>0</tilted></_>
    <_>
      <rects>
        <_>
          3 3 2 4 -1.</_>
        <_>
          4 3 1 4 2.</_></rects>
      <tilted>0</tilted></_>
    <_>
      <rects>
        <_>
          3 3 2 8 -1.</_>
        <_>
          3 3 1 4 2.</_>
        <_>
          4 7 1 4 2.</_></rects>
      <tilted>0</tilted></_>
    <_>
      <rects>
        <_>
          3 3 6 1 -1.</_>
        <_>
          5 3 2 1 3.</_></rects>
      <tilted>0</tilted></_>
    <_>
      <rects>
        <_>
          3 3 2 3 -1.</_>
        <_>
          3 4 2 1 3.</_></rects>
      <tilted>0</tilted></_>
    <_>
      <rects>
        <_>
          3 3 6 2 -1.</_>
        <_>
          5 3 2 2 3.</_></rects>
      <tilted>0</tilted></_>
    <_>
      <rects>
        <_>
          3 3 9 1 -1.</_>
        <_>
          6 3 3 1 3.</_></rects>
      <tilted>0</tilted></_>
    <_>
      <rects>
        <_>
          3 3 3 4 -1.</_>
        <_>
          3 5 3 2 2.</_></rects>
      <tilted>0</tilted></_>
    <_>
      <rects>
        <_>
          3 3 6 3 -1.</_>
        <_>
          3 4 6 1 3.</_></rects>
      <tilted>0</tilted></_>
    <_>
      <rects>
        <_>
          3 3 6 6 -1.</_>
        <_>
          3 5 6 2 3.</_></rects>
      <tilted>0</tilted></_>
    <_>
      <rects>
        <_>
          3 3 7 3 -1.</_>
        <_>
          3 4 7 1 3.</_></rects>
      <tilted>0</tilted></_>
    <_>
      <rects>
        <_>
          3 3 8 4 -1.</_>
        <_>
          3 5 8 2 2.</_></rects>
      <tilted>0</tilted></_>
    <_>
      <rects>
        <_>
          3 3 9 9 -1.</_>
        <_>
          3 6 9 3 3.</_></rects>
      <tilted>0</tilted></_>
    <_>
      <rects>
        <_>
          3 3 11 3 -1.</_>
        <_>
          3 4 11 1 3.</_></rects>
      <tilted>0</tilted></_>
    <_>
      <rects>
        <_>
          3 4 1 4 -1.</_>
        <_>
          3 6 1 2 2.</_></rects>
      <tilted>0</tilted></_>
    <_>
      <rects>
        <_>
          3 4 1 9 -1.</_>
        <_>
          3 7 1 3 3.</_></rects>
      <tilted>0</tilted></_>
    <_>
      <rects>
        <_>
          3 4 3 9 -1.</_>
        <_>
          4 4 1 9 3.</_></rects>
      <tilted>0</tilted></_>
    <_>
      <rects>
        <_>
          3 4 4 4 -1.</_>
        <_>
          3 4 2 2 2.</_>
        <_>
          5 6 2 2 2.</_></rects>
      <tilted>0</tilted></_>
    <_>
      <rects>
        <_>
          3 4 4 3 -1.</_>
        <_>
          5 4 2 3 2.</_></rects>
      <tilted>0</tilted></_>
    <_>
      <rects>
        <_>
          3 4 6 2 -1.</_>
        <_>
          3 4 3 1 2.</_>
        <_>
          6 5 3 1 2.</_></rects>
      <tilted>0</tilted></_>
    <_>
      <rects>
        <_>
          3 4 4 2 -1.</_>
        <_>
          3 5 4 1 2.</_></rects>
      <tilted>0</tilted></_>
    <_>
      <rects>
        <_>
          3 4 5 2 -1.</_>
        <_>
          3 5 5 1 2.</_></rects>
      <tilted>0</tilted></_>
    <_>
      <rects>
        <_>
          3 4 5 4 -1.</_>
        <_>
          3 6 5 2 2.</_></rects>
      <tilted>0</tilted></_>
    <_>
      <rects>
        <_>
          3 4 6 2 -1.</_>
        <_>
          3 5 6 1 2.</_></rects>
      <tilted>0</tilted></_>
    <_>
      <rects>
        <_>
          3 4 6 4 -1.</_>
        <_>
          3 6 6 2 2.</_></rects>
      <tilted>0</tilted></_>
    <_>
      <rects>
        <_>
          3 4 7 4 -1.</_>
        <_>
          3 6 7 2 2.</_></rects>
      <tilted>0</tilted></_>
    <_>
      <rects>
        <_>
          3 4 8 2 -1.</_>
        <_>
          3 5 8 1 2.</_></rects>
      <tilted>0</tilted></_>
    <_>
      <rects>
        <_>
          3 4 10 3 -1.</_>
        <_>
          3 5 10 1 3.</_></rects>
      <tilted>0</tilted></_>
    <_>
      <rects>
        <_>
          3 5 1 2 -1.</_>
        <_>
          3 6 1 1 2.</_></rects>
      <tilted>0</tilted></_>
    <_>
      <rects>
        <_>
          3 5 1 3 -1.</_>
        <_>
          3 6 1 1 3.</_></rects>
      <tilted>0</tilted></_>
    <_>
      <rects>
        <_>
          3 5 2 2 -1.</_>
        <_>
          3 5 1 1 2.</_>
        <_>
          4 6 1 1 2.</_></rects>
      <tilted>0</tilted></_>
    <_>
      <rects>
        <_>
          3 5 3 2 -1.</_>
        <_>
          4 5 1 2 3.</_></rects>
      <tilted>0</tilted></_>
    <_>
      <rects>
        <_>
          3 5 2 6 -1.</_>
        <_>
          3 5 1 3 2.</_>
        <_>
          4 8 1 3 2.</_></rects>
      <tilted>0</tilted></_>
    <_>
      <rects>
        <_>
          3 5 3 9 -1.</_>
        <_>
          4 5 1 9 3.</_></rects>
      <tilted>0</tilted></_>
    <_>
      <rects>
        <_>
          3 5 4 2 -1.</_>
        <_>
          3 5 2 1 2.</_>
        <_>
          5 6 2 1 2.</_></rects>
      <tilted>0</tilted></_>
    <_>
      <rects>
        <_>
          3 5 4 2 -1.</_>
        <_>
          3 6 4 1 2.</_></rects>
      <tilted>0</tilted></_>
    <_>
      <rects>
        <_>
          3 5 4 6 -1.</_>
        <_>
          3 7 4 2 3.</_></rects>
      <tilted>0</tilted></_>
    <_>
      <rects>
        <_>
          3 5 5 2 -1.</_>
        <_>
          3 6 5 1 2.</_></rects>
      <tilted>0</tilted></_>
    <_>
      <rects>
        <_>
          3 6 1 3 -1.</_>
        <_>
          3 7 1 1 3.</_></rects>
      <tilted>0</tilted></_>
    <_>
      <rects>
        <_>
          3 6 2 2 -1.</_>
        <_>
          3 6 1 1 2.</_>
        <_>
          4 7 1 1 2.</_></rects>
      <tilted>0</tilted></_>
    <_>
      <rects>
        <_>
          3 6 1 4 -1.</_>
        <_>
          3 8 1 2 2.</_></rects>
      <tilted>0</tilted></_>
    <_>
      <rects>
        <_>
          3 6 3 5 -1.</_>
        <_>
          4 6 1 5 3.</_></rects>
      <tilted>0</tilted></_>
    <_>
      <rects>
        <_>
          3 6 5 6 -1.</_>
        <_>
          3 8 5 2 3.</_></rects>
      <tilted>0</tilted></_>
    <_>
      <rects>
        <_>
          3 7 1 2 -1.</_>
        <_>
          3 8 1 1 2.</_></rects>
      <tilted>0</tilted></_>
    <_>
      <rects>
        <_>
          3 7 2 2 -1.</_>
        <_>
          3 7 1 1 2.</_>
        <_>
          4 8 1 1 2.</_></rects>
      <tilted>0</tilted></_>
    <_>
      <rects>
        <_>
          3 7 2 4 -1.</_>
        <_>
          3 7 1 2 2.</_>
        <_>
          4 9 1 2 2.</_></rects>
      <tilted>0</tilted></_>
    <_>
      <rects>
        <_>
          3 7 5 4 -1.</_>
        <_>
          3 9 5 2 2.</_></rects>
      <tilted>0</tilted></_>
    <_>
      <rects>
        <_>
          3 7 5 6 -1.</_>
        <_>
          3 9 5 2 3.</_></rects>
      <tilted>0</tilted></_>
    <_>
      <rects>
        <_>
          3 7 7 3 -1.</_>
        <_>
          3 8 7 1 3.</_></rects>
      <tilted>0</tilted></_>
    <_>
      <rects>
        <_>
          3 7 7 6 -1.</_>
        <_>
          3 10 7 3 2.</_></rects>
      <tilted>0</tilted></_>
    <_>
      <rects>
        <_>
          3 8 2 6 -1.</_>
        <_>
          3 8 1 3 2.</_>
        <_>
          4 11 1 3 2.</_></rects>
      <tilted>0</tilted></_>
    <_>
      <rects>
        <_>
          3 8 3 6 -1.</_>
        <_>
          4 8 1 6 3.</_></rects>
      <tilted>0</tilted></_>
    <_>
      <rects>
        <_>
          3 8 2 6 -1.</_>
        <_>
          3 10 2 2 3.</_></rects>
      <tilted>0</tilted></_>
    <_>
      <rects>
        <_>
          3 8 3 2 -1.</_>
        <_>
          3 9 3 1 2.</_></rects>
      <tilted>0</tilted></_>
    <_>
      <rects>
        <_>
          3 9 2 1 -1.</_>
        <_>
          4 9 1 1 2.</_></rects>
      <tilted>0</tilted></_>
    <_>
      <rects>
        <_>
          3 9 6 3 -1.</_>
        <_>
          5 9 2 3 3.</_></rects>
      <tilted>0</tilted></_>
    <_>
      <rects>
        <_>
          3 10 2 3 -1.</_>
        <_>
          4 10 1 3 2.</_></rects>
      <tilted>0</tilted></_>
    <_>
      <rects>
        <_>
          3 10 3 4 -1.</_>
        <_>
          4 10 1 4 3.</_></rects>
      <tilted>0</tilted></_>
    <_>
      <rects>
        <_>
          3 10 6 3 -1.</_>
        <_>
          6 10 3 3 2.</_></rects>
      <tilted>0</tilted></_>
    <_>
      <rects>
        <_>
          3 10 4 4 -1.</_>
        <_>
          3 12 4 2 2.</_></rects>
      <tilted>0</tilted></_>
    <_>
      <rects>
        <_>
          3 11 1 2 -1.</_>
        <_>
          3 12 1 1 2.</_></rects>
      <tilted>0</tilted></_>
    <_>
      <rects>
        <_>
          3 11 2 2 -1.</_>
        <_>
          4 11 1 2 2.</_></rects>
      <tilted>0</tilted></_>
    <_>
      <rects>
        <_>
          3 11 3 2 -1.</_>
        <_>
          4 11 1 2 3.</_></rects>
      <tilted>0</tilted></_>
    <_>
      <rects>
        <_>
          3 11 2 3 -1.</_>
        <_>
          4 11 1 3 2.</_></rects>
      <tilted>0</tilted></_>
    <_>
      <rects>
        <_>
          3 11 3 2 -1.</_>
        <_>
          3 12 3 1 2.</_></rects>
      <tilted>0</tilted></_>
    <_>
      <rects>
        <_>
          3 11 8 3 -1.</_>
        <_>
          7 11 4 3 2.</_></rects>
      <tilted>0</tilted></_>
    <_>
      <rects>
        <_>
          3 12 3 1 -1.</_>
        <_>
          4 12 1 1 3.</_></rects>
      <tilted>0</tilted></_>
    <_>
      <rects>
        <_>
          3 12 3 2 -1.</_>
        <_>
          4 12 1 2 3.</_></rects>
      <tilted>0</tilted></_>
    <_>
      <rects>
        <_>
          3 12 8 2 -1.</_>
        <_>
          3 12 4 1 2.</_>
        <_>
          7 13 4 1 2.</_></rects>
      <tilted>0</tilted></_>
    <_>
      <rects>
        <_>
          3 12 7 2 -1.</_>
        <_>
          3 13 7 1 2.</_></rects>
      <tilted>0</tilted></_>
    <_>
      <rects>
        <_>
          3 13 3 1 -1.</_>
        <_>
          4 13 1 1 3.</_></rects>
      <tilted>0</tilted></_>
    <_>
      <rects>
        <_>
          4 0 3 1 -1.</_>
        <_>
          5 0 1 1 3.</_></rects>
      <tilted>0</tilted></_>
    <_>
      <rects>
        <_>
          4 0 3 9 -1.</_>
        <_>
          5 0 1 9 3.</_></rects>
      <tilted>0</tilted></_>
    <_>
      <rects>
        <_>
          4 0 3 10 -1.</_>
        <_>
          5 0 1 10 3.</_></rects>
      <tilted>0</tilted></_>
    <_>
      <rects>
        <_>
          4 0 2 3 -1.</_>
        <_>
          4 1 2 1 3.</_></rects>
      <tilted>0</tilted></_>
    <_>
      <rects>
        <_>
          4 0 6 4 -1.</_>
        <_>
          6 0 2 4 3.</_></rects>
      <tilted>0</tilted></_>
    <_>
      <rects>
        <_>
          4 0 2 10 -1.</_>
        <_>
          4 5 2 5 2.</_></rects>
      <tilted>0</tilted></_>
    <_>
      <rects>
        <_>
          4 0 6 1 -1.</_>
        <_>
          7 0 3 1 2.</_></rects>
      <tilted>0</tilted></_>
    <_>
      <rects>
        <_>
          4 0 9 1 -1.</_>
        <_>
          7 0 3 1 3.</_></rects>
      <tilted>0</tilted></_>
    <_>
      <rects>
        <_>
          4 0 6 6 -1.</_>
        <_>
          4 0 3 3 2.</_>
        <_>
          7 3 3 3 2.</_></rects>
      <tilted>0</tilted></_>
    <_>
      <rects>
        <_>
          4 0 4 6 -1.</_>
        <_>
          4 3 4 3 2.</_></rects>
      <tilted>0</tilted></_>
    <_>
      <rects>
        <_>
          4 0 5 2 -1.</_>
        <_>
          4 1 5 1 2.</_></rects>
      <tilted>0</tilted></_>
    <_>
      <rects>
        <_>
          4 0 10 2 -1.</_>
        <_>
          4 0 5 1 2.</_>
        <_>
          9 1 5 1 2.</_></rects>
      <tilted>0</tilted></_>
    <_>
      <rects>
        <_>
          4 1 3 1 -1.</_>
        <_>
          5 1 1 1 3.</_></rects>
      <tilted>0</tilted></_>
    <_>
      <rects>
        <_>
          4 1 3 2 -1.</_>
        <_>
          5 1 1 2 3.</_></rects>
      <tilted>0</tilted></_>
    <_>
      <rects>
        <_>
          4 1 3 3 -1.</_>
        <_>
          5 1 1 3 3.</_></rects>
      <tilted>0</tilted></_>
    <_>
      <rects>
        <_>
          4 1 2 8 -1.</_>
        <_>
          4 1 1 4 2.</_>
        <_>
          5 5 1 4 2.</_></rects>
      <tilted>0</tilted></_>
    <_>
      <rects>
        <_>
          4 1 6 1 -1.</_>
        <_>
          6 1 2 1 3.</_></rects>
      <tilted>0</tilted></_>
    <_>
      <rects>
        <_>
          4 1 6 2 -1.</_>
        <_>
          6 1 2 2 3.</_></rects>
      <tilted>0</tilted></_>
    <_>
      <rects>
        <_>
          4 1 6 3 -1.</_>
        <_>
          6 1 2 3 3.</_></rects>
      <tilted>0</tilted></_>
    <_>
      <rects>
        <_>
          4 1 6 4 -1.</_>
        <_>
          6 1 2 4 3.</_></rects>
      <tilted>0</tilted></_>
    <_>
      <rects>
        <_>
          4 1 4 8 -1.</_>
        <_>
          4 1 2 4 2.</_>
        <_>
          6 5 2 4 2.</_></rects>
      <tilted>0</tilted></_>
    <_>
      <rects>
        <_>
          4 1 6 2 -1.</_>
        <_>
          4 1 3 1 2.</_>
        <_>
          7 2 3 1 2.</_></rects>
      <tilted>0</tilted></_>
    <_>
      <rects>
        <_>
          4 1 5 9 -1.</_>
        <_>
          4 4 5 3 3.</_></rects>
      <tilted>0</tilted></_>
    <_>
      <rects>
        <_>
          4 1 6 4 -1.</_>
        <_>
          4 3 6 2 2.</_></rects>
      <tilted>0</tilted></_>
    <_>
      <rects>
        <_>
          4 1 6 8 -1.</_>
        <_>
          4 5 6 4 2.</_></rects>
      <tilted>0</tilted></_>
    <_>
      <rects>
        <_>
          4 1 7 12 -1.</_>
        <_>
          4 7 7 6 2.</_></rects>
      <tilted>0</tilted></_>
    <_>
      <rects>
        <_>
          4 1 8 3 -1.</_>
        <_>
          4 2 8 1 3.</_></rects>
      <tilted>0</tilted></_>
    <_>
      <rects>
        <_>
          4 1 10 8 -1.</_>
        <_>
          4 5 10 4 2.</_></rects>
      <tilted>0</tilted></_>
    <_>
      <rects>
        <_>
          4 2 3 2 -1.</_>
        <_>
          5 2 1 2 3.</_></rects>
      <tilted>0</tilted></_>
    <_>
      <rects>
        <_>
          4 2 1 6 -1.</_>
        <_>
          4 5 1 3 2.</_></rects>
      <tilted>0</tilted></_>
    <_>
      <rects>
        <_>
          4 2 2 4 -1.</_>
        <_>
          5 2 1 4 2.</_></rects>
      <tilted>0</tilted></_>
    <_>
      <rects>
        <_>
          4 2 2 10 -1.</_>
        <_>
          4 2 1 5 2.</_>
        <_>
          5 7 1 5 2.</_></rects>
      <tilted>0</tilted></_>
    <_>
      <rects>
        <_>
          4 2 6 1 -1.</_>
        <_>
          6 2 2 1 3.</_></rects>
      <tilted>0</tilted></_>
    <_>
      <rects>
        <_>
          4 2 6 2 -1.</_>
        <_>
          6 2 2 2 3.</_></rects>
      <tilted>0</tilted></_>
    <_>
      <rects>
        <_>
          4 2 6 3 -1.</_>
        <_>
          6 2 2 3 3.</_></rects>
      <tilted>0</tilted></_>
    <_>
      <rects>
        <_>
          4 2 6 4 -1.</_>
        <_>
          6 2 2 4 3.</_></rects>
      <tilted>0</tilted></_>
    <_>
      <rects>
        <_>
          4 2 3 2 -1.</_>
        <_>
          4 3 3 1 2.</_></rects>
      <tilted>0</tilted></_>
    <_>
      <rects>
        <_>
          4 2 6 2 -1.</_>
        <_>
          4 2 3 1 2.</_>
        <_>
          7 3 3 1 2.</_></rects>
      <tilted>0</tilted></_>
    <_>
      <rects>
        <_>
          4 2 8 6 -1.</_>
        <_>
          4 5 8 3 2.</_></rects>
      <tilted>0</tilted></_>
    <_>
      <rects>
        <_>
          4 2 9 6 -1.</_>
        <_>
          4 4 9 2 3.</_></rects>
      <tilted>0</tilted></_>
    <_>
      <rects>
        <_>
          4 3 2 2 -1.</_>
        <_>
          4 3 1 1 2.</_>
        <_>
          5 4 1 1 2.</_></rects>
      <tilted>0</tilted></_>
    <_>
      <rects>
        <_>
          4 3 1 4 -1.</_>
        <_>
          4 5 1 2 2.</_></rects>
      <tilted>0</tilted></_>
    <_>
      <rects>
        <_>
          4 3 3 2 -1.</_>
        <_>
          5 3 1 2 3.</_></rects>
      <tilted>0</tilted></_>
    <_>
      <rects>
        <_>
          4 3 2 4 -1.</_>
        <_>
          4 3 1 2 2.</_>
        <_>
          5 5 1 2 2.</_></rects>
      <tilted>0</tilted></_>
    <_>
      <rects>
        <_>
          4 3 3 6 -1.</_>
        <_>
          5 3 1 6 3.</_></rects>
      <tilted>0</tilted></_>
    <_>
      <rects>
        <_>
          4 3 6 1 -1.</_>
        <_>
          6 3 2 1 3.</_></rects>
      <tilted>0</tilted></_>
    <_>
      <rects>
        <_>
          4 3 8 5 -1.</_>
        <_>
          8 3 4 5 2.</_></rects>
      <tilted>0</tilted></_>
    <_>
      <rects>
        <_>
          4 3 6 4 -1.</_>
        <_>
          4 5 6 2 2.</_></rects>
      <tilted>0</tilted></_>
    <_>
      <rects>
        <_>
          4 3 6 6 -1.</_>
        <_>
          4 5 6 2 3.</_></rects>
      <tilted>0</tilted></_>
    <_>
      <rects>
        <_>
          4 4 2 2 -1.</_>
        <_>
          4 4 1 1 2.</_>
        <_>
          5 5 1 1 2.</_></rects>
      <tilted>0</tilted></_>
    <_>
      <rects>
        <_>
          4 4 1 4 -1.</_>
        <_>
          4 6 1 2 2.</_></rects>
      <tilted>0</tilted></_>
    <_>
      <rects>
        <_>
          4 4 2 4 -1.</_>
        <_>
          4 4 1 2 2.</_>
        <_>
          5 6 1 2 2.</_></rects>
      <tilted>0</tilted></_>
    <_>
      <rects>
        <_>
          4 4 2 2 -1.</_>
        <_>
          4 5 2 1 2.</_></rects>
      <tilted>0</tilted></_>
    <_>
      <rects>
        <_>
          4 4 6 1 -1.</_>
        <_>
          6 4 2 1 3.</_></rects>
      <tilted>0</tilted></_>
    <_>
      <rects>
        <_>
          4 4 9 5 -1.</_>
        <_>
          7 4 3 5 3.</_></rects>
      <tilted>0</tilted></_>
    <_>
      <rects>
        <_>
          4 4 4 6 -1.</_>
        <_>
          4 6 4 2 3.</_></rects>
      <tilted>0</tilted></_>
    <_>
      <rects>
        <_>
          4 4 5 6 -1.</_>
        <_>
          4 6 5 2 3.</_></rects>
      <tilted>0</tilted></_>
    <_>
      <rects>
        <_>
          4 4 6 2 -1.</_>
        <_>
          4 5 6 1 2.</_></rects>
      <tilted>0</tilted></_>
    <_>
      <rects>
        <_>
          4 4 6 3 -1.</_>
        <_>
          4 5 6 1 3.</_></rects>
      <tilted>0</tilted></_>
    <_>
      <rects>
        <_>
          4 4 10 2 -1.</_>
        <_>
          4 5 10 1 2.</_></rects>
      <tilted>0</tilted></_>
    <_>
      <rects>
        <_>
          4 5 1 3 -1.</_>
        <_>
          4 6 1 1 3.</_></rects>
      <tilted>0</tilted></_>
    <_>
      <rects>
        <_>
          4 5 2 2 -1.</_>
        <_>
          4 5 1 1 2.</_>
        <_>
          5 6 1 1 2.</_></rects>
      <tilted>0</tilted></_>
    <_>
      <rects>
        <_>
          4 5 3 6 -1.</_>
        <_>
          4 7 3 2 3.</_></rects>
      <tilted>0</tilted></_>
    <_>
      <rects>
        <_>
          4 5 4 8 -1.</_>
        <_>
          4 9 4 4 2.</_></rects>
      <tilted>0</tilted></_>
    <_>
      <rects>
        <_>
          4 5 5 2 -1.</_>
        <_>
          4 6 5 1 2.</_></rects>
      <tilted>0</tilted></_>
    <_>
      <rects>
        <_>
          4 5 5 6 -1.</_>
        <_>
          4 7 5 2 3.</_></rects>
      <tilted>0</tilted></_>
    <_>
      <rects>
        <_>
          4 6 2 2 -1.</_>
        <_>
          4 6 1 1 2.</_>
        <_>
          5 7 1 1 2.</_></rects>
      <tilted>0</tilted></_>
    <_>
      <rects>
        <_>
          4 6 1 6 -1.</_>
        <_>
          4 9 1 3 2.</_></rects>
      <tilted>0</tilted></_>
    <_>
      <rects>
        <_>
          4 6 4 1 -1.</_>
        <_>
          6 6 2 1 2.</_></rects>
      <tilted>0</tilted></_>
    <_>
      <rects>
        <_>
          4 6 6 1 -1.</_>
        <_>
          6 6 2 1 3.</_></rects>
      <tilted>0</tilted></_>
    <_>
      <rects>
        <_>
          4 6 5 8 -1.</_>
        <_>
          4 10 5 4 2.</_></rects>
      <tilted>0</tilted></_>
    <_>
      <rects>
        <_>
          4 6 6 6 -1.</_>
        <_>
          4 9 6 3 2.</_></rects>
      <tilted>0</tilted></_>
    <_>
      <rects>
        <_>
          4 6 7 8 -1.</_>
        <_>
          4 10 7 4 2.</_></rects>
      <tilted>0</tilted></_>
    <_>
      <rects>
        <_>
          4 7 1 2 -1.</_>
        <_>
          4 8 1 1 2.</_></rects>
      <tilted>0</tilted></_>
    <_>
      <rects>
        <_>
          4 7 3 3 -1.</_>
        <_>
          4 8 3 1 3.</_></rects>
      <tilted>0</tilted></_>
    <_>
      <rects>
        <_>
          4 7 3 6 -1.</_>
        <_>
          4 10 3 3 2.</_></rects>
      <tilted>0</tilted></_>
    <_>
      <rects>
        <_>
          4 7 6 6 -1.</_>
        <_>
          4 10 6 3 2.</_></rects>
      <tilted>0</tilted></_>
    <_>
      <rects>
        <_>
          4 7 8 2 -1.</_>
        <_>
          4 8 8 1 2.</_></rects>
      <tilted>0</tilted></_>
    <_>
      <rects>
        <_>
          4 7 9 6 -1.</_>
        <_>
          4 10 9 3 2.</_></rects>
      <tilted>0</tilted></_>
    <_>
      <rects>
        <_>
          4 8 1 3 -1.</_>
        <_>
          4 9 1 1 3.</_></rects>
      <tilted>0</tilted></_>
    <_>
      <rects>
        <_>
          4 8 6 2 -1.</_>
        <_>
          6 8 2 2 3.</_></rects>
      <tilted>0</tilted></_>
    <_>
      <rects>
        <_>
          4 8 8 6 -1.</_>
        <_>
          8 8 4 6 2.</_></rects>
      <tilted>0</tilted></_>
    <_>
      <rects>
        <_>
          4 8 10 4 -1.</_>
        <_>
          9 8 5 4 2.</_></rects>
      <tilted>0</tilted></_>
    <_>
      <rects>
        <_>
          4 8 7 6 -1.</_>
        <_>
          4 11 7 3 2.</_></rects>
      <tilted>0</tilted></_>
    <_>
      <rects>
        <_>
          4 9 6 4 -1.</_>
        <_>
          7 9 3 4 2.</_></rects>
      <tilted>0</tilted></_>
    <_>
      <rects>
        <_>
          4 9 10 5 -1.</_>
        <_>
          9 9 5 5 2.</_></rects>
      <tilted>0</tilted></_>
    <_>
      <rects>
        <_>
          4 9 6 4 -1.</_>
        <_>
          4 11 6 2 2.</_></rects>
      <tilted>0</tilted></_>
    <_>
      <rects>
        <_>
          4 10 2 2 -1.</_>
        <_>
          4 11 2 1 2.</_></rects>
      <tilted>0</tilted></_>
    <_>
      <rects>
        <_>
          4 10 4 2 -1.</_>
        <_>
          4 10 2 1 2.</_>
        <_>
          6 11 2 1 2.</_></rects>
      <tilted>0</tilted></_>
    <_>
      <rects>
        <_>
          4 10 10 1 -1.</_>
        <_>
          9 10 5 1 2.</_></rects>
      <tilted>0</tilted></_>
    <_>
      <rects>
        <_>
          4 11 2 2 -1.</_>
        <_>
          4 12 2 1 2.</_></rects>
      <tilted>0</tilted></_>
    <_>
      <rects>
        <_>
          4 11 2 3 -1.</_>
        <_>
          4 12 2 1 3.</_></rects>
      <tilted>0</tilted></_>
    <_>
      <rects>
        <_>
          4 11 6 2 -1.</_>
        <_>
          4 11 3 1 2.</_>
        <_>
          7 12 3 1 2.</_></rects>
      <tilted>0</tilted></_>
    <_>
      <rects>
        <_>
          4 11 9 2 -1.</_>
        <_>
          7 11 3 2 3.</_></rects>
      <tilted>0</tilted></_>
    <_>
      <rects>
        <_>
          4 11 4 2 -1.</_>
        <_>
          4 12 4 1 2.</_></rects>
      <tilted>0</tilted></_>
    <_>
      <rects>
        <_>
          4 11 10 3 -1.</_>
        <_>
          9 11 5 3 2.</_></rects>
      <tilted>0</tilted></_>
    <_>
      <rects>
        <_>
          4 12 6 2 -1.</_>
        <_>
          6 12 2 2 3.</_></rects>
      <tilted>0</tilted></_>
    <_>
      <rects>
        <_>
          4 12 10 2 -1.</_>
        <_>
          9 12 5 2 2.</_></rects>
      <tilted>0</tilted></_>
    <_>
      <rects>
        <_>
          4 13 2 1 -1.</_>
        <_>
          5 13 1 1 2.</_></rects>
      <tilted>0</tilted></_>
    <_>
      <rects>
        <_>
          4 13 3 1 -1.</_>
        <_>
          5 13 1 1 3.</_></rects>
      <tilted>0</tilted></_>
    <_>
      <rects>
        <_>
          4 13 10 1 -1.</_>
        <_>
          9 13 5 1 2.</_></rects>
      <tilted>0</tilted></_>
    <_>
      <rects>
        <_>
          5 0 2 2 -1.</_>
        <_>
          6 0 1 2 2.</_></rects>
      <tilted>0</tilted></_>
    <_>
      <rects>
        <_>
          5 0 3 2 -1.</_>
        <_>
          6 0 1 2 3.</_></rects>
      <tilted>0</tilted></_>
    <_>
      <rects>
        <_>
          5 0 1 6 -1.</_>
        <_>
          5 2 1 2 3.</_></rects>
      <tilted>0</tilted></_>
    <_>
      <rects>
        <_>
          5 0 3 3 -1.</_>
        <_>
          6 0 1 3 3.</_></rects>
      <tilted>0</tilted></_>
    <_>
      <rects>
        <_>
          5 0 2 4 -1.</_>
        <_>
          6 0 1 4 2.</_></rects>
      <tilted>0</tilted></_>
    <_>
      <rects>
        <_>
          5 0 3 7 -1.</_>
        <_>
          6 0 1 7 3.</_></rects>
      <tilted>0</tilted></_>
    <_>
      <rects>
        <_>
          5 0 3 9 -1.</_>
        <_>
          6 0 1 9 3.</_></rects>
      <tilted>0</tilted></_>
    <_>
      <rects>
        <_>
          5 0 2 2 -1.</_>
        <_>
          5 1 2 1 2.</_></rects>
      <tilted>0</tilted></_>
    <_>
      <rects>
        <_>
          5 0 2 3 -1.</_>
        <_>
          5 1 2 1 3.</_></rects>
      <tilted>0</tilted></_>
    <_>
      <rects>
        <_>
          5 0 4 2 -1.</_>
        <_>
          5 0 2 1 2.</_>
        <_>
          7 1 2 1 2.</_></rects>
      <tilted>0</tilted></_>
    <_>
      <rects>
        <_>
          5 0 6 3 -1.</_>
        <_>
          7 0 2 3 3.</_></rects>
      <tilted>0</tilted></_>
    <_>
      <rects>
        <_>
          5 0 6 5 -1.</_>
        <_>
          7 0 2 5 3.</_></rects>
      <tilted>0</tilted></_>
    <_>
      <rects>
        <_>
          5 0 3 2 -1.</_>
        <_>
          5 1 3 1 2.</_></rects>
      <tilted>0</tilted></_>
    <_>
      <rects>
        <_>
          5 0 3 3 -1.</_>
        <_>
          5 1 3 1 3.</_></rects>
      <tilted>0</tilted></_>
    <_>
      <rects>
        <_>
          5 0 3 12 -1.</_>
        <_>
          5 6 3 6 2.</_></rects>
      <tilted>0</tilted></_>
    <_>
      <rects>
        <_>
          5 0 4 2 -1.</_>
        <_>
          5 1 4 1 2.</_></rects>
      <tilted>0</tilted></_>
    <_>
      <rects>
        <_>
          5 0 4 3 -1.</_>
        <_>
          5 1 4 1 3.</_></rects>
      <tilted>0</tilted></_>
    <_>
      <rects>
        <_>
          5 0 8 2 -1.</_>
        <_>
          5 0 4 1 2.</_>
        <_>
          9 1 4 1 2.</_></rects>
      <tilted>0</tilted></_>
    <_>
      <rects>
        <_>
          5 0 5 2 -1.</_>
        <_>
          5 1 5 1 2.</_></rects>
      <tilted>0</tilted></_>
    <_>
      <rects>
        <_>
          5 0 5 3 -1.</_>
        <_>
          5 1 5 1 3.</_></rects>
      <tilted>0</tilted></_>
    <_>
      <rects>
        <_>
          5 0 5 12 -1.</_>
        <_>
          5 6 5 6 2.</_></rects>
      <tilted>0</tilted></_>
    <_>
      <rects>
        <_>
          5 1 2 1 -1.</_>
        <_>
          6 1 1 1 2.</_></rects>
      <tilted>0</tilted></_>
    <_>
      <rects>
        <_>
          5 1 1 2 -1.</_>
        <_>
          5 2 1 1 2.</_></rects>
      <tilted>0</tilted></_>
    <_>
      <rects>
        <_>
          5 1 2 2 -1.</_>
        <_>
          5 1 1 1 2.</_>
        <_>
          6 2 1 1 2.</_></rects>
      <tilted>0</tilted></_>
    <_>
      <rects>
        <_>
          5 1 3 2 -1.</_>
        <_>
          6 1 1 2 3.</_></rects>
      <tilted>0</tilted></_>
    <_>
      <rects>
        <_>
          5 1 1 8 -1.</_>
        <_>
          5 5 1 4 2.</_></rects>
      <tilted>0</tilted></_>
    <_>
      <rects>
        <_>
          5 1 3 4 -1.</_>
        <_>
          6 1 1 4 3.</_></rects>
      <tilted>0</tilted></_>
    <_>
      <rects>
        <_>
          5 1 3 8 -1.</_>
        <_>
          6 1 1 8 3.</_></rects>
      <tilted>0</tilted></_>
    <_>
      <rects>
        <_>
          5 1 3 11 -1.</_>
        <_>
          6 1 1 11 3.</_></rects>
      <tilted>0</tilted></_>
    <_>
      <rects>
        <_>
          5 1 2 3 -1.</_>
        <_>
          5 2 2 1 3.</_></rects>
      <tilted>0</tilted></_>
    <_>
      <rects>
        <_>
          5 1 4 2 -1.</_>
        <_>
          7 1 2 2 2.</_></rects>
      <tilted>0</tilted></_>
    <_>
      <rects>
        <_>
          5 1 6 3 -1.</_>
        <_>
          7 1 2 3 3.</_></rects>
      <tilted>0</tilted></_>
    <_>
      <rects>
        <_>
          5 1 4 10 -1.</_>
        <_>
          5 1 2 5 2.</_>
        <_>
          7 6 2 5 2.</_></rects>
      <tilted>0</tilted></_>
    <_>
      <rects>
        <_>
          5 1 3 4 -1.</_>
        <_>
          5 3 3 2 2.</_></rects>
      <tilted>0</tilted></_>
    <_>
      <rects>
        <_>
          5 1 4 6 -1.</_>
        <_>
          5 4 4 3 2.</_></rects>
      <tilted>0</tilted></_>
    <_>
      <rects>
        <_>
          5 1 4 8 -1.</_>
        <_>
          5 5 4 4 2.</_></rects>
      <tilted>0</tilted></_>
    <_>
      <rects>
        <_>
          5 1 5 3 -1.</_>
        <_>
          5 2 5 1 3.</_></rects>
      <tilted>0</tilted></_>
    <_>
      <rects>
        <_>
          5 2 3 3 -1.</_>
        <_>
          6 2 1 3 3.</_></rects>
      <tilted>0</tilted></_>
    <_>
      <rects>
        <_>
          5 2 4 1 -1.</_>
        <_>
          7 2 2 1 2.</_></rects>
      <tilted>0</tilted></_>
    <_>
      <rects>
        <_>
          5 2 6 1 -1.</_>
        <_>
          7 2 2 1 3.</_></rects>
      <tilted>0</tilted></_>
    <_>
      <rects>
        <_>
          5 2 2 6 -1.</_>
        <_>
          5 5 2 3 2.</_></rects>
      <tilted>0</tilted></_>
    <_>
      <rects>
        <_>
          5 2 6 6 -1.</_>
        <_>
          7 2 2 6 3.</_></rects>
      <tilted>0</tilted></_>
    <_>
      <rects>
        <_>
          5 2 6 2 -1.</_>
        <_>
          8 2 3 2 2.</_></rects>
      <tilted>0</tilted></_>
    <_>
      <rects>
        <_>
          5 2 4 10 -1.</_>
        <_>
          5 7 4 5 2.</_></rects>
      <tilted>0</tilted></_>
    <_>
      <rects>
        <_>
          5 2 6 6 -1.</_>
        <_>
          5 5 6 3 2.</_></rects>
      <tilted>0</tilted></_>
    <_>
      <rects>
        <_>
          5 2 8 10 -1.</_>
        <_>
          5 7 8 5 2.</_></rects>
      <tilted>0</tilted></_>
    <_>
      <rects>
        <_>
          5 3 2 1 -1.</_>
        <_>
          6 3 1 1 2.</_></rects>
      <tilted>0</tilted></_>
    <_>
      <rects>
        <_>
          5 3 1 3 -1.</_>
        <_>
          5 4 1 1 3.</_></rects>
      <tilted>0</tilted></_>
    <_>
      <rects>
        <_>
          5 3 2 2 -1.</_>
        <_>
          5 3 1 1 2.</_>
        <_>
          6 4 1 1 2.</_></rects>
      <tilted>0</tilted></_>
    <_>
      <rects>
        <_>
          5 3 3 5 -1.</_>
        <_>
          6 3 1 5 3.</_></rects>
      <tilted>0</tilted></_>
    <_>
      <rects>
        <_>
          5 3 2 3 -1.</_>
        <_>
          5 4 2 1 3.</_></rects>
      <tilted>0</tilted></_>
    <_>
      <rects>
        <_>
          5 3 3 2 -1.</_>
        <_>
          5 4 3 1 2.</_></rects>
      <tilted>0</tilted></_>
    <_>
      <rects>
        <_>
          5 3 3 10 -1.</_>
        <_>
          5 8 3 5 2.</_></rects>
      <tilted>0</tilted></_>
    <_>
      <rects>
        <_>
          5 3 6 11 -1.</_>
        <_>
          8 3 3 11 2.</_></rects>
      <tilted>0</tilted></_>
    <_>
      <rects>
        <_>
          5 3 6 3 -1.</_>
        <_>
          5 4 6 1 3.</_></rects>
      <tilted>0</tilted></_>
    <_>
      <rects>
        <_>
          5 3 8 3 -1.</_>
        <_>
          5 4 8 1 3.</_></rects>
      <tilted>0</tilted></_>
    <_>
      <rects>
        <_>
          5 4 1 3 -1.</_>
        <_>
          5 5 1 1 3.</_></rects>
      <tilted>0</tilted></_>
    <_>
      <rects>
        <_>
          5 4 2 2 -1.</_>
        <_>
          5 4 1 1 2.</_>
        <_>
          6 5 1 1 2.</_></rects>
      <tilted>0</tilted></_>
    <_>
      <rects>
        <_>
          5 4 3 2 -1.</_>
        <_>
          6 4 1 2 3.</_></rects>
      <tilted>0</tilted></_>
    <_>
      <rects>
        <_>
          5 4 3 5 -1.</_>
        <_>
          6 4 1 5 3.</_></rects>
      <tilted>0</tilted></_>
    <_>
      <rects>
        <_>
          5 4 8 10 -1.</_>
        <_>
          5 9 8 5 2.</_></rects>
      <tilted>0</tilted></_>
    <_>
      <rects>
        <_>
          5 5 1 6 -1.</_>
        <_>
          5 7 1 2 3.</_></rects>
      <tilted>0</tilted></_>
    <_>
      <rects>
        <_>
          5 5 2 6 -1.</_>
        <_>
          5 7 2 2 3.</_></rects>
      <tilted>0</tilted></_>
    <_>
      <rects>
        <_>
          5 5 4 2 -1.</_>
        <_>
          5 6 4 1 2.</_></rects>
      <tilted>0</tilted></_>
    <_>
      <rects>
        <_>
          5 6 2 1 -1.</_>
        <_>
          6 6 1 1 2.</_></rects>
      <tilted>0</tilted></_>
    <_>
      <rects>
        <_>
          5 6 1 3 -1.</_>
        <_>
          5 7 1 1 3.</_></rects>
      <tilted>0</tilted></_>
    <_>
      <rects>
        <_>
          5 6 1 4 -1.</_>
        <_>
          5 8 1 2 2.</_></rects>
      <tilted>0</tilted></_>
    <_>
      <rects>
        <_>
          5 6 1 8 -1.</_>
        <_>
          5 10 1 4 2.</_></rects>
      <tilted>0</tilted></_>
    <_>
      <rects>
        <_>
          5 6 2 2 -1.</_>
        <_>
          5 7 2 1 2.</_></rects>
      <tilted>0</tilted></_>
    <_>
      <rects>
        <_>
          5 6 2 4 -1.</_>
        <_>
          5 8 2 2 2.</_></rects>
      <tilted>0</tilted></_>
    <_>
      <rects>
        <_>
          5 6 4 8 -1.</_>
        <_>
          5 6 2 4 2.</_>
        <_>
          7 10 2 4 2.</_></rects>
      <tilted>0</tilted></_>
    <_>
      <rects>
        <_>
          5 6 4 8 -1.</_>
        <_>
          5 10 4 4 2.</_></rects>
      <tilted>0</tilted></_>
    <_>
      <rects>
        <_>
          5 6 7 3 -1.</_>
        <_>
          5 7 7 1 3.</_></rects>
      <tilted>0</tilted></_>
    <_>
      <rects>
        <_>
          5 6 8 2 -1.</_>
        <_>
          5 7 8 1 2.</_></rects>
      <tilted>0</tilted></_>
    <_>
      <rects>
        <_>
          5 7 1 2 -1.</_>
        <_>
          5 8 1 1 2.</_></rects>
      <tilted>0</tilted></_>
    <_>
      <rects>
        <_>
          5 7 2 3 -1.</_>
        <_>
          5 8 2 1 3.</_></rects>
      <tilted>0</tilted></_>
    <_>
      <rects>
        <_>
          5 7 2 6 -1.</_>
        <_>
          5 9 2 2 3.</_></rects>
      <tilted>0</tilted></_>
    <_>
      <rects>
        <_>
          5 7 4 4 -1.</_>
        <_>
          5 9 4 2 2.</_></rects>
      <tilted>0</tilted></_>
    <_>
      <rects>
        <_>
          5 7 6 6 -1.</_>
        <_>
          5 10 6 3 2.</_></rects>
      <tilted>0</tilted></_>
    <_>
      <rects>
        <_>
          5 8 2 2 -1.</_>
        <_>
          5 8 1 1 2.</_>
        <_>
          6 9 1 1 2.</_></rects>
      <tilted>0</tilted></_>
    <_>
      <rects>
        <_>
          5 8 1 4 -1.</_>
        <_>
          5 10 1 2 2.</_></rects>
      <tilted>0</tilted></_>
    <_>
      <rects>
        <_>
          5 8 8 6 -1.</_>
        <_>
          9 8 4 6 2.</_></rects>
      <tilted>0</tilted></_>
    <_>
      <rects>
        <_>
          5 8 5 2 -1.</_>
        <_>
          5 9 5 1 2.</_></rects>
      <tilted>0</tilted></_>
    <_>
      <rects>
        <_>
          5 8 7 3 -1.</_>
        <_>
          5 9 7 1 3.</_></rects>
      <tilted>0</tilted></_>
    <_>
      <rects>
        <_>
          5 9 1 2 -1.</_>
        <_>
          5 10 1 1 2.</_></rects>
      <tilted>0</tilted></_>
    <_>
      <rects>
        <_>
          5 9 3 1 -1.</_>
        <_>
          6 9 1 1 3.</_></rects>
      <tilted>0</tilted></_>
    <_>
      <rects>
        <_>
          5 9 2 2 -1.</_>
        <_>
          5 9 1 1 2.</_>
        <_>
          6 10 1 1 2.</_></rects>
      <tilted>0</tilted></_>
    <_>
      <rects>
        <_>
          5 9 2 3 -1.</_>
        <_>
          5 10 2 1 3.</_></rects>
      <tilted>0</tilted></_>
    <_>
      <rects>
        <_>
          5 9 4 4 -1.</_>
        <_>
          5 11 4 2 2.</_></rects>
      <tilted>0</tilted></_>
    <_>
      <rects>
        <_>
          5 9 8 5 -1.</_>
        <_>
          9 9 4 5 2.</_></rects>
      <tilted>0</tilted></_>
    <_>
      <rects>
        <_>
          5 10 2 4 -1.</_>
        <_>
          5 10 1 2 2.</_>
        <_>
          6 12 1 2 2.</_></rects>
      <tilted>0</tilted></_>
    <_>
      <rects>
        <_>
          5 11 2 2 -1.</_>
        <_>
          5 11 1 1 2.</_>
        <_>
          6 12 1 1 2.</_></rects>
      <tilted>0</tilted></_>
    <_>
      <rects>
        <_>
          5 11 3 3 -1.</_>
        <_>
          6 11 1 3 3.</_></rects>
      <tilted>0</tilted></_>
    <_>
      <rects>
        <_>
          5 11 9 3 -1.</_>
        <_>
          5 12 9 1 3.</_></rects>
      <tilted>0</tilted></_>
    <_>
      <rects>
        <_>
          5 12 2 1 -1.</_>
        <_>
          6 12 1 1 2.</_></rects>
      <tilted>0</tilted></_>
    <_>
      <rects>
        <_>
          5 12 2 2 -1.</_>
        <_>
          5 12 1 1 2.</_>
        <_>
          6 13 1 1 2.</_></rects>
      <tilted>0</tilted></_>
    <_>
      <rects>
        <_>
          5 12 3 2 -1.</_>
        <_>
          6 12 1 2 3.</_></rects>
      <tilted>0</tilted></_>
    <_>
      <rects>
        <_>
          5 12 2 2 -1.</_>
        <_>
          5 13 2 1 2.</_></rects>
      <tilted>0</tilted></_>
    <_>
      <rects>
        <_>
          5 13 2 1 -1.</_>
        <_>
          6 13 1 1 2.</_></rects>
      <tilted>0</tilted></_>
    <_>
      <rects>
        <_>
          5 13 3 1 -1.</_>
        <_>
          6 13 1 1 3.</_></rects>
      <tilted>0</tilted></_>
    <_>
      <rects>
        <_>
          5 13 4 1 -1.</_>
        <_>
          7 13 2 1 2.</_></rects>
      <tilted>0</tilted></_>
    <_>
      <rects>
        <_>
          6 0 1 2 -1.</_>
        <_>
          6 1 1 1 2.</_></rects>
      <tilted>0</tilted></_>
    <_>
      <rects>
        <_>
          6 0 1 3 -1.</_>
        <_>
          6 1 1 1 3.</_></rects>
      <tilted>0</tilted></_>
    <_>
      <rects>
        <_>
          6 0 1 6 -1.</_>
        <_>
          6 2 1 2 3.</_></rects>
      <tilted>0</tilted></_>
    <_>
      <rects>
        <_>
          6 0 1 6 -1.</_>
        <_>
          6 3 1 3 2.</_></rects>
      <tilted>0</tilted></_>
    <_>
      <rects>
        <_>
          6 0 3 3 -1.</_>
        <_>
          7 0 1 3 3.</_></rects>
      <tilted>0</tilted></_>
    <_>
      <rects>
        <_>
          6 0 1 12 -1.</_>
        <_>
          6 6 1 6 2.</_></rects>
      <tilted>0</tilted></_>
    <_>
      <rects>
        <_>
          6 0 4 1 -1.</_>
        <_>
          8 0 2 1 2.</_></rects>
      <tilted>0</tilted></_>
    <_>
      <rects>
        <_>
          6 0 2 2 -1.</_>
        <_>
          6 1 2 1 2.</_></rects>
      <tilted>0</tilted></_>
    <_>
      <rects>
        <_>
          6 0 2 3 -1.</_>
        <_>
          6 1 2 1 3.</_></rects>
      <tilted>0</tilted></_>
    <_>
      <rects>
        <_>
          6 0 2 4 -1.</_>
        <_>
          6 2 2 2 2.</_></rects>
      <tilted>0</tilted></_>
    <_>
      <rects>
        <_>
          6 0 6 6 -1.</_>
        <_>
          8 0 2 6 3.</_></rects>
      <tilted>0</tilted></_>
    <_>
      <rects>
        <_>
          6 0 6 1 -1.</_>
        <_>
          9 0 3 1 2.</_></rects>
      <tilted>0</tilted></_>
    <_>
      <rects>
        <_>
          6 0 3 2 -1.</_>
        <_>
          6 1 3 1 2.</_></rects>
      <tilted>0</tilted></_>
    <_>
      <rects>
        <_>
          6 0 3 3 -1.</_>
        <_>
          6 1 3 1 3.</_></rects>
      <tilted>0</tilted></_>
    <_>
      <rects>
        <_>
          6 0 6 6 -1.</_>
        <_>
          6 0 3 3 2.</_>
        <_>
          9 3 3 3 2.</_></rects>
      <tilted>0</tilted></_>
    <_>
      <rects>
        <_>
          6 0 6 8 -1.</_>
        <_>
          6 0 3 4 2.</_>
        <_>
          9 4 3 4 2.</_></rects>
      <tilted>0</tilted></_>
    <_>
      <rects>
        <_>
          6 0 8 1 -1.</_>
        <_>
          10 0 4 1 2.</_></rects>
      <tilted>0</tilted></_>
    <_>
      <rects>
        <_>
          6 0 4 8 -1.</_>
        <_>
          6 4 4 4 2.</_></rects>
      <tilted>0</tilted></_>
    <_>
      <rects>
        <_>
          6 0 8 14 -1.</_>
        <_>
          10 0 4 14 2.</_></rects>
      <tilted>0</tilted></_>
    <_>
      <rects>
        <_>
          6 0 6 3 -1.</_>
        <_>
          6 1 6 1 3.</_></rects>
      <tilted>0</tilted></_>
    <_>
      <rects>
        <_>
          6 0 7 3 -1.</_>
        <_>
          6 1 7 1 3.</_></rects>
      <tilted>0</tilted></_>
    <_>
      <rects>
        <_>
          6 1 1 6 -1.</_>
        <_>
          6 4 1 3 2.</_></rects>
      <tilted>0</tilted></_>
    <_>
      <rects>
        <_>
          6 1 4 2 -1.</_>
        <_>
          6 1 2 1 2.</_>
        <_>
          8 2 2 1 2.</_></rects>
      <tilted>0</tilted></_>
    <_>
      <rects>
        <_>
          6 1 4 2 -1.</_>
        <_>
          8 1 2 2 2.</_></rects>
      <tilted>0</tilted></_>
    <_>
      <rects>
        <_>
          6 1 2 4 -1.</_>
        <_>
          6 3 2 2 2.</_></rects>
      <tilted>0</tilted></_>
    <_>
      <rects>
        <_>
          6 1 6 2 -1.</_>
        <_>
          8 1 2 2 3.</_></rects>
      <tilted>0</tilted></_>
    <_>
      <rects>
        <_>
          6 1 3 3 -1.</_>
        <_>
          6 2 3 1 3.</_></rects>
      <tilted>0</tilted></_>
    <_>
      <rects>
        <_>
          6 1 3 4 -1.</_>
        <_>
          6 3 3 2 2.</_></rects>
      <tilted>0</tilted></_>
    <_>
      <rects>
        <_>
          6 1 3 6 -1.</_>
        <_>
          6 3 3 2 3.</_></rects>
      <tilted>0</tilted></_>
    <_>
      <rects>
        <_>
          6 1 8 4 -1.</_>
        <_>
          6 1 4 2 2.</_>
        <_>
          10 3 4 2 2.</_></rects>
      <tilted>0</tilted></_>
    <_>
      <rects>
        <_>
          6 1 8 10 -1.</_>
        <_>
          6 1 4 5 2.</_>
        <_>
          10 6 4 5 2.</_></rects>
      <tilted>0</tilted></_>
    <_>
      <rects>
        <_>
          6 1 5 4 -1.</_>
        <_>
          6 3 5 2 2.</_></rects>
      <tilted>0</tilted></_>
    <_>
      <rects>
        <_>
          6 1 5 6 -1.</_>
        <_>
          6 4 5 3 2.</_></rects>
      <tilted>0</tilted></_>
    <_>
      <rects>
        <_>
          6 1 6 3 -1.</_>
        <_>
          6 2 6 1 3.</_></rects>
      <tilted>0</tilted></_>
    <_>
      <rects>
        <_>
          6 2 2 2 -1.</_>
        <_>
          6 2 1 1 2.</_>
        <_>
          7 3 1 1 2.</_></rects>
      <tilted>0</tilted></_>
    <_>
      <rects>
        <_>
          6 2 3 2 -1.</_>
        <_>
          7 2 1 2 3.</_></rects>
      <tilted>0</tilted></_>
    <_>
      <rects>
        <_>
          6 2 1 10 -1.</_>
        <_>
          6 7 1 5 2.</_></rects>
      <tilted>0</tilted></_>
    <_>
      <rects>
        <_>
          6 2 3 7 -1.</_>
        <_>
          7 2 1 7 3.</_></rects>
      <tilted>0</tilted></_>
    <_>
      <rects>
        <_>
          6 2 6 1 -1.</_>
        <_>
          8 2 2 1 3.</_></rects>
      <tilted>0</tilted></_>
    <_>
      <rects>
        <_>
          6 2 2 4 -1.</_>
        <_>
          6 4 2 2 2.</_></rects>
      <tilted>0</tilted></_>
    <_>
      <rects>
        <_>
          6 2 3 2 -1.</_>
        <_>
          6 3 3 1 2.</_></rects>
      <tilted>0</tilted></_>
    <_>
      <rects>
        <_>
          6 2 5 4 -1.</_>
        <_>
          6 4 5 2 2.</_></rects>
      <tilted>0</tilted></_>
    <_>
      <rects>
        <_>
          6 3 3 2 -1.</_>
        <_>
          7 3 1 2 3.</_></rects>
      <tilted>0</tilted></_>
    <_>
      <rects>
        <_>
          6 3 3 5 -1.</_>
        <_>
          7 3 1 5 3.</_></rects>
      <tilted>0</tilted></_>
    <_>
      <rects>
        <_>
          6 3 6 9 -1.</_>
        <_>
          9 3 3 9 2.</_></rects>
      <tilted>0</tilted></_>
    <_>
      <rects>
        <_>
          6 4 3 1 -1.</_>
        <_>
          7 4 1 1 3.</_></rects>
      <tilted>0</tilted></_>
    <_>
      <rects>
        <_>
          6 4 2 2 -1.</_>
        <_>
          6 4 1 1 2.</_>
        <_>
          7 5 1 1 2.</_></rects>
      <tilted>0</tilted></_>
    <_>
      <rects>
        <_>
          6 4 2 4 -1.</_>
        <_>
          6 4 1 2 2.</_>
        <_>
          7 6 1 2 2.</_></rects>
      <tilted>0</tilted></_>
    <_>
      <rects>
        <_>
          6 4 2 10 -1.</_>
        <_>
          6 4 1 5 2.</_>
        <_>
          7 9 1 5 2.</_></rects>
      <tilted>0</tilted></_>
    <_>
      <rects>
        <_>
          6 4 2 7 -1.</_>
        <_>
          7 4 1 7 2.</_></rects>
      <tilted>0</tilted></_>
    <_>
      <rects>
        <_>
          6 4 4 6 -1.</_>
        <_>
          6 4 2 3 2.</_>
        <_>
          8 7 2 3 2.</_></rects>
      <tilted>0</tilted></_>
    <_>
      <rects>
        <_>
          6 4 3 2 -1.</_>
        <_>
          6 5 3 1 2.</_></rects>
      <tilted>0</tilted></_>
    <_>
      <rects>
        <_>
          6 4 3 3 -1.</_>
        <_>
          6 5 3 1 3.</_></rects>
      <tilted>0</tilted></_>
    <_>
      <rects>
        <_>
          6 4 6 2 -1.</_>
        <_>
          6 4 3 1 2.</_>
        <_>
          9 5 3 1 2.</_></rects>
      <tilted>0</tilted></_>
    <_>
      <rects>
        <_>
          6 4 8 2 -1.</_>
        <_>
          6 4 4 1 2.</_>
        <_>
          10 5 4 1 2.</_></rects>
      <tilted>0</tilted></_>
    <_>
      <rects>
        <_>
          6 5 1 2 -1.</_>
        <_>
          6 6 1 1 2.</_></rects>
      <tilted>0</tilted></_>
    <_>
      <rects>
        <_>
          6 5 3 1 -1.</_>
        <_>
          7 5 1 1 3.</_></rects>
      <tilted>0</tilted></_>
    <_>
      <rects>
        <_>
          6 5 1 3 -1.</_>
        <_>
          6 6 1 1 3.</_></rects>
      <tilted>0</tilted></_>
    <_>
      <rects>
        <_>
          6 5 2 2 -1.</_>
        <_>
          6 5 1 1 2.</_>
        <_>
          7 6 1 1 2.</_></rects>
      <tilted>0</tilted></_>
    <_>
      <rects>
        <_>
          6 5 6 1 -1.</_>
        <_>
          8 5 2 1 3.</_></rects>
      <tilted>0</tilted></_>
    <_>
      <rects>
        <_>
          6 5 6 2 -1.</_>
        <_>
          8 5 2 2 3.</_></rects>
      <tilted>0</tilted></_>
    <_>
      <rects>
        <_>
          6 5 4 4 -1.</_>
        <_>
          6 5 2 2 2.</_>
        <_>
          8 7 2 2 2.</_></rects>
      <tilted>0</tilted></_>
    <_>
      <rects>
        <_>
          6 5 4 6 -1.</_>
        <_>
          6 5 2 3 2.</_>
        <_>
          8 8 2 3 2.</_></rects>
      <tilted>0</tilted></_>
    <_>
      <rects>
        <_>
          6 5 8 2 -1.</_>
        <_>
          6 6 8 1 2.</_></rects>
      <tilted>0</tilted></_>
    <_>
      <rects>
        <_>
          6 6 2 1 -1.</_>
        <_>
          7 6 1 1 2.</_></rects>
      <tilted>0</tilted></_>
    <_>
      <rects>
        <_>
          6 6 1 2 -1.</_>
        <_>
          6 7 1 1 2.</_></rects>
      <tilted>0</tilted></_>
    <_>
      <rects>
        <_>
          6 6 3 1 -1.</_>
        <_>
          7 6 1 1 3.</_></rects>
      <tilted>0</tilted></_>
    <_>
      <rects>
        <_>
          6 6 1 4 -1.</_>
        <_>
          6 8 1 2 2.</_></rects>
      <tilted>0</tilted></_>
    <_>
      <rects>
        <_>
          6 6 2 8 -1.</_>
        <_>
          6 6 1 4 2.</_>
        <_>
          7 10 1 4 2.</_></rects>
      <tilted>0</tilted></_>
    <_>
      <rects>
        <_>
          6 6 3 6 -1.</_>
        <_>
          7 6 1 6 3.</_></rects>
      <tilted>0</tilted></_>
    <_>
      <rects>
        <_>
          6 6 2 6 -1.</_>
        <_>
          6 8 2 2 3.</_></rects>
      <tilted>0</tilted></_>
    <_>
      <rects>
        <_>
          6 6 8 2 -1.</_>
        <_>
          6 7 8 1 2.</_></rects>
      <tilted>0</tilted></_>
    <_>
      <rects>
        <_>
          6 6 8 8 -1.</_>
        <_>
          6 10 8 4 2.</_></rects>
      <tilted>0</tilted></_>
    <_>
      <rects>
        <_>
          6 7 1 2 -1.</_>
        <_>
          6 8 1 1 2.</_></rects>
      <tilted>0</tilted></_>
    <_>
      <rects>
        <_>
          6 7 1 4 -1.</_>
        <_>
          6 9 1 2 2.</_></rects>
      <tilted>0</tilted></_>
    <_>
      <rects>
        <_>
          6 7 1 6 -1.</_>
        <_>
          6 9 1 2 3.</_></rects>
      <tilted>0</tilted></_>
    <_>
      <rects>
        <_>
          6 7 2 2 -1.</_>
        <_>
          6 8 2 1 2.</_></rects>
      <tilted>0</tilted></_>
    <_>
      <rects>
        <_>
          6 7 6 1 -1.</_>
        <_>
          8 7 2 1 3.</_></rects>
      <tilted>0</tilted></_>
    <_>
      <rects>
        <_>
          6 7 6 4 -1.</_>
        <_>
          6 9 6 2 2.</_></rects>
      <tilted>0</tilted></_>
    <_>
      <rects>
        <_>
          6 8 1 2 -1.</_>
        <_>
          6 9 1 1 2.</_></rects>
      <tilted>0</tilted></_>
    <_>
      <rects>
        <_>
          6 8 1 6 -1.</_>
        <_>
          6 11 1 3 2.</_></rects>
      <tilted>0</tilted></_>
    <_>
      <rects>
        <_>
          6 8 6 5 -1.</_>
        <_>
          8 8 2 5 3.</_></rects>
      <tilted>0</tilted></_>
    <_>
      <rects>
        <_>
          6 8 6 2 -1.</_>
        <_>
          6 9 6 1 2.</_></rects>
      <tilted>0</tilted></_>
    <_>
      <rects>
        <_>
          6 9 2 2 -1.</_>
        <_>
          6 10 2 1 2.</_></rects>
      <tilted>0</tilted></_>
    <_>
      <rects>
        <_>
          6 10 1 2 -1.</_>
        <_>
          6 11 1 1 2.</_></rects>
      <tilted>0</tilted></_>
    <_>
      <rects>
        <_>
          6 10 1 4 -1.</_>
        <_>
          6 12 1 2 2.</_></rects>
      <tilted>0</tilted></_>
    <_>
      <rects>
        <_>
          6 11 3 2 -1.</_>
        <_>
          7 11 1 2 3.</_></rects>
      <tilted>0</tilted></_>
    <_>
      <rects>
        <_>
          6 11 3 3 -1.</_>
        <_>
          7 11 1 3 3.</_></rects>
      <tilted>0</tilted></_>
    <_>
      <rects>
        <_>
          6 11 6 3 -1.</_>
        <_>
          8 11 2 3 3.</_></rects>
      <tilted>0</tilted></_>
    <_>
      <rects>
        <_>
          6 11 5 2 -1.</_>
        <_>
          6 12 5 1 2.</_></rects>
      <tilted>0</tilted></_>
    <_>
      <rects>
        <_>
          6 12 2 1 -1.</_>
        <_>
          7 12 1 1 2.</_></rects>
      <tilted>0</tilted></_>
    <_>
      <rects>
        <_>
          6 12 1 2 -1.</_>
        <_>
          6 13 1 1 2.</_></rects>
      <tilted>0</tilted></_>
    <_>
      <rects>
        <_>
          6 12 2 2 -1.</_>
        <_>
          7 12 1 2 2.</_></rects>
      <tilted>0</tilted></_>
    <_>
      <rects>
        <_>
          6 12 3 2 -1.</_>
        <_>
          7 12 1 2 3.</_></rects>
      <tilted>0</tilted></_>
    <_>
      <rects>
        <_>
          6 12 8 1 -1.</_>
        <_>
          10 12 4 1 2.</_></rects>
      <tilted>0</tilted></_>
    <_>
      <rects>
        <_>
          6 12 8 2 -1.</_>
        <_>
          10 12 4 2 2.</_></rects>
      <tilted>0</tilted></_>
    <_>
      <rects>
        <_>
          6 13 2 1 -1.</_>
        <_>
          7 13 1 1 2.</_></rects>
      <tilted>0</tilted></_>
    <_>
      <rects>
        <_>
          6 13 8 1 -1.</_>
        <_>
          10 13 4 1 2.</_></rects>
      <tilted>0</tilted></_>
    <_>
      <rects>
        <_>
          7 0 1 2 -1.</_>
        <_>
          7 1 1 1 2.</_></rects>
      <tilted>0</tilted></_>
    <_>
      <rects>
        <_>
          7 0 3 1 -1.</_>
        <_>
          8 0 1 1 3.</_></rects>
      <tilted>0</tilted></_>
    <_>
      <rects>
        <_>
          7 0 1 3 -1.</_>
        <_>
          7 1 1 1 3.</_></rects>
      <tilted>0</tilted></_>
    <_>
      <rects>
        <_>
          7 0 2 2 -1.</_>
        <_>
          7 0 1 1 2.</_>
        <_>
          8 1 1 1 2.</_></rects>
      <tilted>0</tilted></_>
    <_>
      <rects>
        <_>
          7 0 2 2 -1.</_>
        <_>
          8 0 1 2 2.</_></rects>
      <tilted>0</tilted></_>
    <_>
      <rects>
        <_>
          7 0 1 6 -1.</_>
        <_>
          7 2 1 2 3.</_></rects>
      <tilted>0</tilted></_>
    <_>
      <rects>
        <_>
          7 0 2 3 -1.</_>
        <_>
          8 0 1 3 2.</_></rects>
      <tilted>0</tilted></_>
    <_>
      <rects>
        <_>
          7 0 2 8 -1.</_>
        <_>
          8 0 1 8 2.</_></rects>
      <tilted>0</tilted></_>
    <_>
      <rects>
        <_>
          7 0 3 9 -1.</_>
        <_>
          8 0 1 9 3.</_></rects>
      <tilted>0</tilted></_>
    <_>
      <rects>
        <_>
          7 0 2 2 -1.</_>
        <_>
          7 1 2 1 2.</_></rects>
      <tilted>0</tilted></_>
    <_>
      <rects>
        <_>
          7 0 6 1 -1.</_>
        <_>
          9 0 2 1 3.</_></rects>
      <tilted>0</tilted></_>
    <_>
      <rects>
        <_>
          7 0 2 6 -1.</_>
        <_>
          7 2 2 2 3.</_></rects>
      <tilted>0</tilted></_>
    <_>
      <rects>
        <_>
          7 0 2 12 -1.</_>
        <_>
          7 6 2 6 2.</_></rects>
      <tilted>0</tilted></_>
    <_>
      <rects>
        <_>
          7 0 6 7 -1.</_>
        <_>
          9 0 2 7 3.</_></rects>
      <tilted>0</tilted></_>
    <_>
      <rects>
        <_>
          7 0 6 1 -1.</_>
        <_>
          10 0 3 1 2.</_></rects>
      <tilted>0</tilted></_>
    <_>
      <rects>
        <_>
          7 1 1 3 -1.</_>
        <_>
          7 2 1 1 3.</_></rects>
      <tilted>0</tilted></_>
    <_>
      <rects>
        <_>
          7 1 2 2 -1.</_>
        <_>
          7 1 1 1 2.</_>
        <_>
          8 2 1 1 2.</_></rects>
      <tilted>0</tilted></_>
    <_>
      <rects>
        <_>
          7 1 2 4 -1.</_>
        <_>
          7 3 2 2 2.</_></rects>
      <tilted>0</tilted></_>
    <_>
      <rects>
        <_>
          7 1 6 3 -1.</_>
        <_>
          9 1 2 3 3.</_></rects>
      <tilted>0</tilted></_>
    <_>
      <rects>
        <_>
          7 1 6 6 -1.</_>
        <_>
          9 1 2 6 3.</_></rects>
      <tilted>0</tilted></_>
    <_>
      <rects>
        <_>
          7 1 4 12 -1.</_>
        <_>
          7 1 2 6 2.</_>
        <_>
          9 7 2 6 2.</_></rects>
      <tilted>0</tilted></_>
    <_>
      <rects>
        <_>
          7 2 3 1 -1.</_>
        <_>
          8 2 1 1 3.</_></rects>
      <tilted>0</tilted></_>
    <_>
      <rects>
        <_>
          7 2 1 4 -1.</_>
        <_>
          7 4 1 2 2.</_></rects>
      <tilted>0</tilted></_>
    <_>
      <rects>
        <_>
          7 2 3 2 -1.</_>
        <_>
          8 2 1 2 3.</_></rects>
      <tilted>0</tilted></_>
    <_>
      <rects>
        <_>
          7 2 4 1 -1.</_>
        <_>
          9 2 2 1 2.</_></rects>
      <tilted>0</tilted></_>
    <_>
      <rects>
        <_>
          7 2 2 2 -1.</_>
        <_>
          7 3 2 1 2.</_></rects>
      <tilted>0</tilted></_>
    <_>
      <rects>
        <_>
          7 2 2 6 -1.</_>
        <_>
          7 5 2 3 2.</_></rects>
      <tilted>0</tilted></_>
    <_>
      <rects>
        <_>
          7 2 6 2 -1.</_>
        <_>
          7 2 3 1 2.</_>
        <_>
          10 3 3 1 2.</_></rects>
      <tilted>0</tilted></_>
    <_>
      <rects>
        <_>
          7 2 7 3 -1.</_>
        <_>
          7 3 7 1 3.</_></rects>
      <tilted>0</tilted></_>
    <_>
      <rects>
        <_>
          7 3 1 2 -1.</_>
        <_>
          7 4 1 1 2.</_></rects>
      <tilted>0</tilted></_>
    <_>
      <rects>
        <_>
          7 3 2 2 -1.</_>
        <_>
          7 3 1 1 2.</_>
        <_>
          8 4 1 1 2.</_></rects>
      <tilted>0</tilted></_>
    <_>
      <rects>
        <_>
          7 3 2 2 -1.</_>
        <_>
          8 3 1 2 2.</_></rects>
      <tilted>0</tilted></_>
    <_>
      <rects>
        <_>
          7 3 3 3 -1.</_>
        <_>
          7 4 3 1 3.</_></rects>
      <tilted>0</tilted></_>
    <_>
      <rects>
        <_>
          7 4 2 1 -1.</_>
        <_>
          8 4 1 1 2.</_></rects>
      <tilted>0</tilted></_>
    <_>
      <rects>
        <_>
          7 4 1 2 -1.</_>
        <_>
          7 5 1 1 2.</_></rects>
      <tilted>0</tilted></_>
    <_>
      <rects>
        <_>
          7 4 3 1 -1.</_>
        <_>
          8 4 1 1 3.</_></rects>
      <tilted>0</tilted></_>
    <_>
      <rects>
        <_>
          7 4 2 2 -1.</_>
        <_>
          7 4 1 1 2.</_>
        <_>
          8 5 1 1 2.</_></rects>
      <tilted>0</tilted></_>
    <_>
      <rects>
        <_>
          7 4 3 8 -1.</_>
        <_>
          8 4 1 8 3.</_></rects>
      <tilted>0</tilted></_>
    <_>
      <rects>
        <_>
          7 4 3 9 -1.</_>
        <_>
          8 4 1 9 3.</_></rects>
      <tilted>0</tilted></_>
    <_>
      <rects>
        <_>
          7 4 4 2 -1.</_>
        <_>
          7 4 2 1 2.</_>
        <_>
          9 5 2 1 2.</_></rects>
      <tilted>0</tilted></_>
    <_>
      <rects>
        <_>
          7 4 4 4 -1.</_>
        <_>
          7 4 2 2 2.</_>
        <_>
          9 6 2 2 2.</_></rects>
      <tilted>0</tilted></_>
    <_>
      <rects>
        <_>
          7 4 4 6 -1.</_>
        <_>
          7 4 2 3 2.</_>
        <_>
          9 7 2 3 2.</_></rects>
      <tilted>0</tilted></_>
    <_>
      <rects>
        <_>
          7 5 2 2 -1.</_>
        <_>
          8 5 1 2 2.</_></rects>
      <tilted>0</tilted></_>
    <_>
      <rects>
        <_>
          7 5 2 8 -1.</_>
        <_>
          7 5 1 4 2.</_>
        <_>
          8 9 1 4 2.</_></rects>
      <tilted>0</tilted></_>
    <_>
      <rects>
        <_>
          7 5 4 2 -1.</_>
        <_>
          7 5 2 1 2.</_>
        <_>
          9 6 2 1 2.</_></rects>
      <tilted>0</tilted></_>
    <_>
      <rects>
        <_>
          7 5 4 4 -1.</_>
        <_>
          7 5 2 2 2.</_>
        <_>
          9 7 2 2 2.</_></rects>
      <tilted>0</tilted></_>
    <_>
      <rects>
        <_>
          7 5 4 6 -1.</_>
        <_>
          7 5 2 3 2.</_>
        <_>
          9 8 2 3 2.</_></rects>
      <tilted>0</tilted></_>
    <_>
      <rects>
        <_>
          7 5 6 6 -1.</_>
        <_>
          9 5 2 6 3.</_></rects>
      <tilted>0</tilted></_>
    <_>
      <rects>
        <_>
          7 6 3 7 -1.</_>
        <_>
          8 6 1 7 3.</_></rects>
      <tilted>0</tilted></_>
    <_>
      <rects>
        <_>
          7 6 4 8 -1.</_>
        <_>
          7 6 2 4 2.</_>
        <_>
          9 10 2 4 2.</_></rects>
      <tilted>0</tilted></_>
    <_>
      <rects>
        <_>
          7 6 6 6 -1.</_>
        <_>
          9 6 2 6 3.</_></rects>
      <tilted>0</tilted></_>
    <_>
      <rects>
        <_>
          7 6 3 3 -1.</_>
        <_>
          7 7 3 1 3.</_></rects>
      <tilted>0</tilted></_>
    <_>
      <rects>
        <_>
          7 6 5 6 -1.</_>
        <_>
          7 8 5 2 3.</_></rects>
      <tilted>0</tilted></_>
    <_>
      <rects>
        <_>
          7 7 1 2 -1.</_>
        <_>
          7 8 1 1 2.</_></rects>
      <tilted>0</tilted></_>
    <_>
      <rects>
        <_>
          7 7 1 3 -1.</_>
        <_>
          7 8 1 1 3.</_></rects>
      <tilted>0</tilted></_>
    <_>
      <rects>
        <_>
          7 7 6 1 -1.</_>
        <_>
          9 7 2 1 3.</_></rects>
      <tilted>0</tilted></_>
    <_>
      <rects>
        <_>
          7 7 2 6 -1.</_>
        <_>
          7 10 2 3 2.</_></rects>
      <tilted>0</tilted></_>
    <_>
      <rects>
        <_>
          7 7 6 7 -1.</_>
        <_>
          9 7 2 7 3.</_></rects>
      <tilted>0</tilted></_>
    <_>
      <rects>
        <_>
          7 7 3 2 -1.</_>
        <_>
          7 8 3 1 2.</_></rects>
      <tilted>0</tilted></_>
    <_>
      <rects>
        <_>
          7 8 3 4 -1.</_>
        <_>
          7 10 3 2 2.</_></rects>
      <tilted>0</tilted></_>
    <_>
      <rects>
        <_>
          7 8 6 4 -1.</_>
        <_>
          10 8 3 4 2.</_></rects>
      <tilted>0</tilted></_>
    <_>
      <rects>
        <_>
          7 9 2 2 -1.</_>
        <_>
          8 9 1 2 2.</_></rects>
      <tilted>0</tilted></_>
    <_>
      <rects>
        <_>
          7 9 3 2 -1.</_>
        <_>
          8 9 1 2 3.</_></rects>
      <tilted>0</tilted></_>
    <_>
      <rects>
        <_>
          7 10 2 4 -1.</_>
        <_>
          8 10 1 4 2.</_></rects>
      <tilted>0</tilted></_>
    <_>
      <rects>
        <_>
          7 11 3 3 -1.</_>
        <_>
          8 11 1 3 3.</_></rects>
      <tilted>0</tilted></_>
    <_>
      <rects>
        <_>
          7 12 2 2 -1.</_>
        <_>
          7 13 2 1 2.</_></rects>
      <tilted>0</tilted></_>
    <_>
      <rects>
        <_>
          7 12 6 1 -1.</_>
        <_>
          10 12 3 1 2.</_></rects>
      <tilted>0</tilted></_>
    <_>
      <rects>
        <_>
          7 12 3 2 -1.</_>
        <_>
          7 13 3 1 2.</_></rects>
      <tilted>0</tilted></_>
    <_>
      <rects>
        <_>
          7 13 3 1 -1.</_>
        <_>
          8 13 1 1 3.</_></rects>
      <tilted>0</tilted></_>
    <_>
      <rects>
        <_>
          7 13 6 1 -1.</_>
        <_>
          10 13 3 1 2.</_></rects>
      <tilted>0</tilted></_>
    <_>
      <rects>
        <_>
          8 0 1 12 -1.</_>
        <_>
          8 4 1 4 3.</_></rects>
      <tilted>0</tilted></_>
    <_>
      <rects>
        <_>
          8 0 6 2 -1.</_>
        <_>
          10 0 2 2 3.</_></rects>
      <tilted>0</tilted></_>
    <_>
      <rects>
        <_>
          8 0 2 8 -1.</_>
        <_>
          8 4 2 4 2.</_></rects>
      <tilted>0</tilted></_>
    <_>
      <rects>
        <_>
          8 0 6 1 -1.</_>
        <_>
          11 0 3 1 2.</_></rects>
      <tilted>0</tilted></_>
    <_>
      <rects>
        <_>
          8 0 6 4 -1.</_>
        <_>
          8 0 3 2 2.</_>
        <_>
          11 2 3 2 2.</_></rects>
      <tilted>0</tilted></_>
    <_>
      <rects>
        <_>
          8 0 6 6 -1.</_>
        <_>
          8 0 3 3 2.</_>
        <_>
          11 3 3 3 2.</_></rects>
      <tilted>0</tilted></_>
    <_>
      <rects>
        <_>
          8 0 3 12 -1.</_>
        <_>
          8 6 3 6 2.</_></rects>
      <tilted>0</tilted></_>
    <_>
      <rects>
        <_>
          8 0 5 6 -1.</_>
        <_>
          8 2 5 2 3.</_></rects>
      <tilted>0</tilted></_>
    <_>
      <rects>
        <_>
          8 1 2 1 -1.</_>
        <_>
          9 1 1 1 2.</_></rects>
      <tilted>0</tilted></_>
    <_>
      <rects>
        <_>
          8 1 1 2 -1.</_>
        <_>
          8 2 1 1 2.</_></rects>
      <tilted>0</tilted></_>
    <_>
      <rects>
        <_>
          8 1 1 3 -1.</_>
        <_>
          8 2 1 1 3.</_></rects>
      <tilted>0</tilted></_>
    <_>
      <rects>
        <_>
          8 1 2 2 -1.</_>
        <_>
          9 1 1 2 2.</_></rects>
      <tilted>0</tilted></_>
    <_>
      <rects>
        <_>
          8 1 2 3 -1.</_>
        <_>
          9 1 1 3 2.</_></rects>
      <tilted>0</tilted></_>
    <_>
      <rects>
        <_>
          8 1 2 6 -1.</_>
        <_>
          8 1 1 3 2.</_>
        <_>
          9 4 1 3 2.</_></rects>
      <tilted>0</tilted></_>
    <_>
      <rects>
        <_>
          8 1 3 13 -1.</_>
        <_>
          9 1 1 13 3.</_></rects>
      <tilted>0</tilted></_>
    <_>
      <rects>
        <_>
          8 1 2 8 -1.</_>
        <_>
          8 5 2 4 2.</_></rects>
      <tilted>0</tilted></_>
    <_>
      <rects>
        <_>
          8 1 4 9 -1.</_>
        <_>
          10 1 2 9 2.</_></rects>
      <tilted>0</tilted></_>
    <_>
      <rects>
        <_>
          8 1 3 9 -1.</_>
        <_>
          8 4 3 3 3.</_></rects>
      <tilted>0</tilted></_>
    <_>
      <rects>
        <_>
          8 2 2 1 -1.</_>
        <_>
          9 2 1 1 2.</_></rects>
      <tilted>0</tilted></_>
    <_>
      <rects>
        <_>
          8 2 3 1 -1.</_>
        <_>
          9 2 1 1 3.</_></rects>
      <tilted>0</tilted></_>
    <_>
      <rects>
        <_>
          8 2 4 2 -1.</_>
        <_>
          8 2 2 1 2.</_>
        <_>
          10 3 2 1 2.</_></rects>
      <tilted>0</tilted></_>
    <_>
      <rects>
        <_>
          8 2 2 9 -1.</_>
        <_>
          8 5 2 3 3.</_></rects>
      <tilted>0</tilted></_>
    <_>
      <rects>
        <_>
          8 2 6 3 -1.</_>
        <_>
          11 2 3 3 2.</_></rects>
      <tilted>0</tilted></_>
    <_>
      <rects>
        <_>
          8 2 6 10 -1.</_>
        <_>
          11 2 3 10 2.</_></rects>
      <tilted>0</tilted></_>
    <_>
      <rects>
        <_>
          8 3 1 3 -1.</_>
        <_>
          8 4 1 1 3.</_></rects>
      <tilted>0</tilted></_>
    <_>
      <rects>
        <_>
          8 3 1 6 -1.</_>
        <_>
          8 5 1 2 3.</_></rects>
      <tilted>0</tilted></_>
    <_>
      <rects>
        <_>
          8 3 2 4 -1.</_>
        <_>
          8 3 1 2 2.</_>
        <_>
          9 5 1 2 2.</_></rects>
      <tilted>0</tilted></_>
    <_>
      <rects>
        <_>
          8 3 1 6 -1.</_>
        <_>
          8 6 1 3 2.</_></rects>
      <tilted>0</tilted></_>
    <_>
      <rects>
        <_>
          8 3 3 7 -1.</_>
        <_>
          9 3 1 7 3.</_></rects>
      <tilted>0</tilted></_>
    <_>
      <rects>
        <_>
          8 3 2 3 -1.</_>
        <_>
          8 4 2 1 3.</_></rects>
      <tilted>0</tilted></_>
    <_>
      <rects>
        <_>
          8 3 4 6 -1.</_>
        <_>
          8 3 2 3 2.</_>
        <_>
          10 6 2 3 2.</_></rects>
      <tilted>0</tilted></_>
    <_>
      <rects>
        <_>
          8 4 3 1 -1.</_>
        <_>
          9 4 1 1 3.</_></rects>
      <tilted>0</tilted></_>
    <_>
      <rects>
        <_>
          8 4 1 3 -1.</_>
        <_>
          8 5 1 1 3.</_></rects>
      <tilted>0</tilted></_>
    <_>
      <rects>
        <_>
          8 4 2 2 -1.</_>
        <_>
          8 4 1 1 2.</_>
        <_>
          9 5 1 1 2.</_></rects>
      <tilted>0</tilted></_>
    <_>
      <rects>
        <_>
          8 4 2 4 -1.</_>
        <_>
          8 4 1 2 2.</_>
        <_>
          9 6 1 2 2.</_></rects>
      <tilted>0</tilted></_>
    <_>
      <rects>
        <_>
          8 4 4 2 -1.</_>
        <_>
          8 4 2 1 2.</_>
        <_>
          10 5 2 1 2.</_></rects>
      <tilted>0</tilted></_>
    <_>
      <rects>
        <_>
          8 4 4 10 -1.</_>
        <_>
          8 4 2 5 2.</_>
        <_>
          10 9 2 5 2.</_></rects>
      <tilted>0</tilted></_>
    <_>
      <rects>
        <_>
          8 4 4 9 -1.</_>
        <_>
          10 4 2 9 2.</_></rects>
      <tilted>0</tilted></_>
    <_>
      <rects>
        <_>
          8 5 1 3 -1.</_>
        <_>
          8 6 1 1 3.</_></rects>
      <tilted>0</tilted></_>
    <_>
      <rects>
        <_>
          8 5 2 4 -1.</_>
        <_>
          8 5 1 2 2.</_>
        <_>
          9 7 1 2 2.</_></rects>
      <tilted>0</tilted></_>
    <_>
      <rects>
        <_>
          8 5 2 2 -1.</_>
        <_>
          8 6 2 1 2.</_></rects>
      <tilted>0</tilted></_>
    <_>
      <rects>
        <_>
          8 5 4 9 -1.</_>
        <_>
          10 5 2 9 2.</_></rects>
      <tilted>0</tilted></_>
    <_>
      <rects>
        <_>
          8 5 3 3 -1.</_>
        <_>
          8 6 3 1 3.</_></rects>
      <tilted>0</tilted></_>
    <_>
      <rects>
        <_>
          8 5 6 4 -1.</_>
        <_>
          11 5 3 4 2.</_></rects>
      <tilted>0</tilted></_>
    <_>
      <rects>
        <_>
          8 6 2 2 -1.</_>
        <_>
          8 6 1 1 2.</_>
        <_>
          9 7 1 1 2.</_></rects>
      <tilted>0</tilted></_>
    <_>
      <rects>
        <_>
          8 6 3 4 -1.</_>
        <_>
          9 6 1 4 3.</_></rects>
      <tilted>0</tilted></_>
    <_>
      <rects>
        <_>
          8 6 6 3 -1.</_>
        <_>
          10 6 2 3 3.</_></rects>
      <tilted>0</tilted></_>
    <_>
      <rects>
        <_>
          8 6 3 3 -1.</_>
        <_>
          8 7 3 1 3.</_></rects>
      <tilted>0</tilted></_>
    <_>
      <rects>
        <_>
          8 6 6 2 -1.</_>
        <_>
          11 6 3 2 2.</_></rects>
      <tilted>0</tilted></_>
    <_>
      <rects>
        <_>
          8 6 6 8 -1.</_>
        <_>
          11 6 3 8 2.</_></rects>
      <tilted>0</tilted></_>
    <_>
      <rects>
        <_>
          8 7 1 2 -1.</_>
        <_>
          8 8 1 1 2.</_></rects>
      <tilted>0</tilted></_>
    <_>
      <rects>
        <_>
          8 7 2 3 -1.</_>
        <_>
          9 7 1 3 2.</_></rects>
      <tilted>0</tilted></_>
    <_>
      <rects>
        <_>
          8 7 3 3 -1.</_>
        <_>
          9 7 1 3 3.</_></rects>
      <tilted>0</tilted></_>
    <_>
      <rects>
        <_>
          8 7 4 5 -1.</_>
        <_>
          10 7 2 5 2.</_></rects>
      <tilted>0</tilted></_>
    <_>
      <rects>
        <_>
          8 7 6 1 -1.</_>
        <_>
          11 7 3 1 2.</_></rects>
      <tilted>0</tilted></_>
    <_>
      <rects>
        <_>
          8 7 6 7 -1.</_>
        <_>
          11 7 3 7 2.</_></rects>
      <tilted>0</tilted></_>
    <_>
      <rects>
        <_>
          8 8 3 1 -1.</_>
        <_>
          9 8 1 1 3.</_></rects>
      <tilted>0</tilted></_>
    <_>
      <rects>
        <_>
          8 8 2 2 -1.</_>
        <_>
          9 8 1 2 2.</_></rects>
      <tilted>0</tilted></_>
    <_>
      <rects>
        <_>
          8 8 4 6 -1.</_>
        <_>
          8 8 2 3 2.</_>
        <_>
          10 11 2 3 2.</_></rects>
      <tilted>0</tilted></_>
    <_>
      <rects>
        <_>
          8 8 6 2 -1.</_>
        <_>
          8 9 6 1 2.</_></rects>
      <tilted>0</tilted></_>
    <_>
      <rects>
        <_>
          8 9 3 1 -1.</_>
        <_>
          9 9 1 1 3.</_></rects>
      <tilted>0</tilted></_>
    <_>
      <rects>
        <_>
          8 9 3 5 -1.</_>
        <_>
          9 9 1 5 3.</_></rects>
      <tilted>0</tilted></_>
    <_>
      <rects>
        <_>
          8 9 4 2 -1.</_>
        <_>
          8 9 2 1 2.</_>
        <_>
          10 10 2 1 2.</_></rects>
      <tilted>0</tilted></_>
    <_>
      <rects>
        <_>
          8 9 4 5 -1.</_>
        <_>
          10 9 2 5 2.</_></rects>
      <tilted>0</tilted></_>
    <_>
      <rects>
        <_>
          8 9 6 4 -1.</_>
        <_>
          11 9 3 4 2.</_></rects>
      <tilted>0</tilted></_>
    <_>
      <rects>
        <_>
          8 11 3 1 -1.</_>
        <_>
          9 11 1 1 3.</_></rects>
      <tilted>0</tilted></_>
    <_>
      <rects>
        <_>
          8 11 3 2 -1.</_>
        <_>
          9 11 1 2 3.</_></rects>
      <tilted>0</tilted></_>
    <_>
      <rects>
        <_>
          8 11 3 3 -1.</_>
        <_>
          9 11 1 3 3.</_></rects>
      <tilted>0</tilted></_>
    <_>
      <rects>
        <_>
          8 11 2 2 -1.</_>
        <_>
          8 12 2 1 2.</_></rects>
      <tilted>0</tilted></_>
    <_>
      <rects>
        <_>
          8 11 4 3 -1.</_>
        <_>
          10 11 2 3 2.</_></rects>
      <tilted>0</tilted></_>
    <_>
      <rects>
        <_>
          8 11 3 2 -1.</_>
        <_>
          8 12 3 1 2.</_></rects>
      <tilted>0</tilted></_>
    <_>
      <rects>
        <_>
          8 11 4 3 -1.</_>
        <_>
          8 12 4 1 3.</_></rects>
      <tilted>0</tilted></_>
    <_>
      <rects>
        <_>
          8 12 1 2 -1.</_>
        <_>
          8 13 1 1 2.</_></rects>
      <tilted>0</tilted></_>
    <_>
      <rects>
        <_>
          8 12 3 2 -1.</_>
        <_>
          9 12 1 2 3.</_></rects>
      <tilted>0</tilted></_>
    <_>
      <rects>
        <_>
          8 13 3 1 -1.</_>
        <_>
          9 13 1 1 3.</_></rects>
      <tilted>0</tilted></_>
    <_>
      <rects>
        <_>
          9 0 1 6 -1.</_>
        <_>
          9 2 1 2 3.</_></rects>
      <tilted>0</tilted></_>
    <_>
      <rects>
        <_>
          9 0 3 7 -1.</_>
        <_>
          10 0 1 7 3.</_></rects>
      <tilted>0</tilted></_>
    <_>
      <rects>
        <_>
          9 0 4 8 -1.</_>
        <_>
          9 0 2 4 2.</_>
        <_>
          11 4 2 4 2.</_></rects>
      <tilted>0</tilted></_>
    <_>
      <rects>
        <_>
          9 0 4 10 -1.</_>
        <_>
          9 0 2 5 2.</_>
        <_>
          11 5 2 5 2.</_></rects>
      <tilted>0</tilted></_>
    <_>
      <rects>
        <_>
          9 0 5 4 -1.</_>
        <_>
          9 2 5 2 2.</_></rects>
      <tilted>0</tilted></_>
    <_>
      <rects>
        <_>
          9 1 2 1 -1.</_>
        <_>
          10 1 1 1 2.</_></rects>
      <tilted>0</tilted></_>
    <_>
      <rects>
        <_>
          9 1 1 8 -1.</_>
        <_>
          9 5 1 4 2.</_></rects>
      <tilted>0</tilted></_>
    <_>
      <rects>
        <_>
          9 1 4 13 -1.</_>
        <_>
          11 1 2 13 2.</_></rects>
      <tilted>0</tilted></_>
    <_>
      <rects>
        <_>
          9 1 4 6 -1.</_>
        <_>
          9 3 4 2 3.</_></rects>
      <tilted>0</tilted></_>
    <_>
      <rects>
        <_>
          9 2 2 4 -1.</_>
        <_>
          9 2 1 2 2.</_>
        <_>
          10 4 1 2 2.</_></rects>
      <tilted>0</tilted></_>
    <_>
      <rects>
        <_>
          9 2 2 10 -1.</_>
        <_>
          10 2 1 10 2.</_></rects>
      <tilted>0</tilted></_>
    <_>
      <rects>
        <_>
          9 3 2 6 -1.</_>
        <_>
          9 3 1 3 2.</_>
        <_>
          10 6 1 3 2.</_></rects>
      <tilted>0</tilted></_>
    <_>
      <rects>
        <_>
          9 3 2 7 -1.</_>
        <_>
          10 3 1 7 2.</_></rects>
      <tilted>0</tilted></_>
    <_>
      <rects>
        <_>
          9 3 2 9 -1.</_>
        <_>
          9 6 2 3 3.</_></rects>
      <tilted>0</tilted></_>
    <_>
      <rects>
        <_>
          9 4 3 1 -1.</_>
        <_>
          10 4 1 1 3.</_></rects>
      <tilted>0</tilted></_>
    <_>
      <rects>
        <_>
          9 4 1 3 -1.</_>
        <_>
          9 5 1 1 3.</_></rects>
      <tilted>0</tilted></_>
    <_>
      <rects>
        <_>
          9 4 2 2 -1.</_>
        <_>
          9 4 1 1 2.</_>
        <_>
          10 5 1 1 2.</_></rects>
      <tilted>0</tilted></_>
    <_>
      <rects>
        <_>
          9 4 1 4 -1.</_>
        <_>
          9 6 1 2 2.</_></rects>
      <tilted>0</tilted></_>
    <_>
      <rects>
        <_>
          9 4 3 7 -1.</_>
        <_>
          10 4 1 7 3.</_></rects>
      <tilted>0</tilted></_>
    <_>
      <rects>
        <_>
          9 4 3 10 -1.</_>
        <_>
          9 9 3 5 2.</_></rects>
      <tilted>0</tilted></_>
    <_>
      <rects>
        <_>
          9 4 4 10 -1.</_>
        <_>
          9 9 4 5 2.</_></rects>
      <tilted>0</tilted></_>
    <_>
      <rects>
        <_>
          9 5 1 3 -1.</_>
        <_>
          9 6 1 1 3.</_></rects>
      <tilted>0</tilted></_>
    <_>
      <rects>
        <_>
          9 5 2 2 -1.</_>
        <_>
          9 5 1 1 2.</_>
        <_>
          10 6 1 1 2.</_></rects>
      <tilted>0</tilted></_>
    <_>
      <rects>
        <_>
          9 5 1 4 -1.</_>
        <_>
          9 7 1 2 2.</_></rects>
      <tilted>0</tilted></_>
    <_>
      <rects>
        <_>
          9 5 2 4 -1.</_>
        <_>
          9 5 1 2 2.</_>
        <_>
          10 7 1 2 2.</_></rects>
      <tilted>0</tilted></_>
    <_>
      <rects>
        <_>
          9 5 2 3 -1.</_>
        <_>
          9 6 2 1 3.</_></rects>
      <tilted>0</tilted></_>
    <_>
      <rects>
        <_>
          9 5 4 2 -1.</_>
        <_>
          9 5 2 1 2.</_>
        <_>
          11 6 2 1 2.</_></rects>
      <tilted>0</tilted></_>
    <_>
      <rects>
        <_>
          9 5 2 6 -1.</_>
        <_>
          9 7 2 2 3.</_></rects>
      <tilted>0</tilted></_>
    <_>
      <rects>
        <_>
          9 5 4 6 -1.</_>
        <_>
          9 8 4 3 2.</_></rects>
      <tilted>0</tilted></_>
    <_>
      <rects>
        <_>
          9 6 3 1 -1.</_>
        <_>
          10 6 1 1 3.</_></rects>
      <tilted>0</tilted></_>
    <_>
      <rects>
        <_>
          9 6 1 3 -1.</_>
        <_>
          9 7 1 1 3.</_></rects>
      <tilted>0</tilted></_>
    <_>
      <rects>
        <_>
          9 6 2 2 -1.</_>
        <_>
          9 6 1 1 2.</_>
        <_>
          10 7 1 1 2.</_></rects>
      <tilted>0</tilted></_>
    <_>
      <rects>
        <_>
          9 6 3 3 -1.</_>
        <_>
          10 6 1 3 3.</_></rects>
      <tilted>0</tilted></_>
    <_>
      <rects>
        <_>
          9 6 3 8 -1.</_>
        <_>
          10 6 1 8 3.</_></rects>
      <tilted>0</tilted></_>
    <_>
      <rects>
        <_>
          9 6 4 4 -1.</_>
        <_>
          11 6 2 4 2.</_></rects>
      <tilted>0</tilted></_>
    <_>
      <rects>
        <_>
          9 6 5 8 -1.</_>
        <_>
          9 10 5 4 2.</_></rects>
      <tilted>0</tilted></_>
    <_>
      <rects>
        <_>
          9 7 1 2 -1.</_>
        <_>
          9 8 1 1 2.</_></rects>
      <tilted>0</tilted></_>
    <_>
      <rects>
        <_>
          9 7 3 3 -1.</_>
        <_>
          10 7 1 3 3.</_></rects>
      <tilted>0</tilted></_>
    <_>
      <rects>
        <_>
          9 7 3 4 -1.</_>
        <_>
          10 7 1 4 3.</_></rects>
      <tilted>0</tilted></_>
    <_>
      <rects>
        <_>
          9 7 4 6 -1.</_>
        <_>
          11 7 2 6 2.</_></rects>
      <tilted>0</tilted></_>
    <_>
      <rects>
        <_>
          9 8 3 2 -1.</_>
        <_>
          10 8 1 2 3.</_></rects>
      <tilted>0</tilted></_>
    <_>
      <rects>
        <_>
          9 8 2 4 -1.</_>
        <_>
          9 8 1 2 2.</_>
        <_>
          10 10 1 2 2.</_></rects>
      <tilted>0</tilted></_>
    <_>
      <rects>
        <_>
          9 9 2 2 -1.</_>
        <_>
          9 9 1 1 2.</_>
        <_>
          10 10 1 1 2.</_></rects>
      <tilted>0</tilted></_>
    <_>
      <rects>
        <_>
          9 10 3 1 -1.</_>
        <_>
          10 10 1 1 3.</_></rects>
      <tilted>0</tilted></_>
    <_>
      <rects>
        <_>
          9 10 2 2 -1.</_>
        <_>
          10 10 1 2 2.</_></rects>
      <tilted>0</tilted></_>
    <_>
      <rects>
        <_>
          9 11 2 2 -1.</_>
        <_>
          9 11 1 1 2.</_>
        <_>
          10 12 1 1 2.</_></rects>
      <tilted>0</tilted></_>
    <_>
      <rects>
        <_>
          9 11 3 3 -1.</_>
        <_>
          10 11 1 3 3.</_></rects>
      <tilted>0</tilted></_>
    <_>
      <rects>
        <_>
          9 12 2 1 -1.</_>
        <_>
          10 12 1 1 2.</_></rects>
      <tilted>0</tilted></_>
    <_>
      <rects>
        <_>
          9 12 3 1 -1.</_>
        <_>
          10 12 1 1 3.</_></rects>
      <tilted>0</tilted></_>
    <_>
      <rects>
        <_>
          9 12 3 2 -1.</_>
        <_>
          10 12 1 2 3.</_></rects>
      <tilted>0</tilted></_>
    <_>
      <rects>
        <_>
          10 0 2 1 -1.</_>
        <_>
          11 0 1 1 2.</_></rects>
      <tilted>0</tilted></_>
    <_>
      <rects>
        <_>
          10 0 3 2 -1.</_>
        <_>
          11 0 1 2 3.</_></rects>
      <tilted>0</tilted></_>
    <_>
      <rects>
        <_>
          10 0 2 4 -1.</_>
        <_>
          10 0 1 2 2.</_>
        <_>
          11 2 1 2 2.</_></rects>
      <tilted>0</tilted></_>
    <_>
      <rects>
        <_>
          10 0 1 6 -1.</_>
        <_>
          10 3 1 3 2.</_></rects>
      <tilted>0</tilted></_>
    <_>
      <rects>
        <_>
          10 0 4 1 -1.</_>
        <_>
          12 0 2 1 2.</_></rects>
      <tilted>0</tilted></_>
    <_>
      <rects>
        <_>
          10 0 4 4 -1.</_>
        <_>
          10 0 2 2 2.</_>
        <_>
          12 2 2 2 2.</_></rects>
      <tilted>0</tilted></_>
    <_>
      <rects>
        <_>
          10 0 4 6 -1.</_>
        <_>
          12 0 2 6 2.</_></rects>
      <tilted>0</tilted></_>
    <_>
      <rects>
        <_>
          10 0 4 2 -1.</_>
        <_>
          10 1 4 1 2.</_></rects>
      <tilted>0</tilted></_>
    <_>
      <rects>
        <_>
          10 0 4 3 -1.</_>
        <_>
          10 1 4 1 3.</_></rects>
      <tilted>0</tilted></_>
    <_>
      <rects>
        <_>
          10 0 4 14 -1.</_>
        <_>
          10 7 4 7 2.</_></rects>
      <tilted>0</tilted></_>
    <_>
      <rects>
        <_>
          10 1 1 2 -1.</_>
        <_>
          10 2 1 1 2.</_></rects>
      <tilted>0</tilted></_>
    <_>
      <rects>
        <_>
          10 1 2 6 -1.</_>
        <_>
          10 3 2 2 3.</_></rects>
      <tilted>0</tilted></_>
    <_>
      <rects>
        <_>
          10 1 4 3 -1.</_>
        <_>
          12 1 2 3 2.</_></rects>
      <tilted>0</tilted></_>
    <_>
      <rects>
        <_>
          10 2 4 4 -1.</_>
        <_>
          10 2 2 2 2.</_>
        <_>
          12 4 2 2 2.</_></rects>
      <tilted>0</tilted></_>
    <_>
      <rects>
        <_>
          10 2 4 12 -1.</_>
        <_>
          12 2 2 12 2.</_></rects>
      <tilted>0</tilted></_>
    <_>
      <rects>
        <_>
          10 2 3 8 -1.</_>
        <_>
          10 6 3 4 2.</_></rects>
      <tilted>0</tilted></_>
    <_>
      <rects>
        <_>
          10 2 3 12 -1.</_>
        <_>
          10 6 3 4 3.</_></rects>
      <tilted>0</tilted></_>
    <_>
      <rects>
        <_>
          10 3 2 1 -1.</_>
        <_>
          11 3 1 1 2.</_></rects>
      <tilted>0</tilted></_>
    <_>
      <rects>
        <_>
          10 3 3 2 -1.</_>
        <_>
          11 3 1 2 3.</_></rects>
      <tilted>0</tilted></_>
    <_>
      <rects>
        <_>
          10 3 1 9 -1.</_>
        <_>
          10 6 1 3 3.</_></rects>
      <tilted>0</tilted></_>
    <_>
      <rects>
        <_>
          10 3 4 6 -1.</_>
        <_>
          10 3 2 3 2.</_>
        <_>
          12 6 2 3 2.</_></rects>
      <tilted>0</tilted></_>
    <_>
      <rects>
        <_>
          10 4 1 3 -1.</_>
        <_>
          10 5 1 1 3.</_></rects>
      <tilted>0</tilted></_>
    <_>
      <rects>
        <_>
          10 4 1 4 -1.</_>
        <_>
          10 6 1 2 2.</_></rects>
      <tilted>0</tilted></_>
    <_>
      <rects>
        <_>
          10 4 2 4 -1.</_>
        <_>
          10 4 1 2 2.</_>
        <_>
          11 6 1 2 2.</_></rects>
      <tilted>0</tilted></_>
    <_>
      <rects>
        <_>
          10 4 2 3 -1.</_>
        <_>
          10 5 2 1 3.</_></rects>
      <tilted>0</tilted></_>
    <_>
      <rects>
        <_>
          10 5 3 1 -1.</_>
        <_>
          11 5 1 1 3.</_></rects>
      <tilted>0</tilted></_>
    <_>
      <rects>
        <_>
          10 5 2 2 -1.</_>
        <_>
          10 5 1 1 2.</_>
        <_>
          11 6 1 1 2.</_></rects>
      <tilted>0</tilted></_>
    <_>
      <rects>
        <_>
          10 5 1 6 -1.</_>
        <_>
          10 7 1 2 3.</_></rects>
      <tilted>0</tilted></_>
    <_>
      <rects>
        <_>
          10 5 2 4 -1.</_>
        <_>
          10 5 1 2 2.</_>
        <_>
          11 7 1 2 2.</_></rects>
      <tilted>0</tilted></_>
    <_>
      <rects>
        <_>
          10 5 2 6 -1.</_>
        <_>
          10 5 1 3 2.</_>
        <_>
          11 8 1 3 2.</_></rects>
      <tilted>0</tilted></_>
    <_>
      <rects>
        <_>
          10 5 4 8 -1.</_>
        <_>
          10 5 2 4 2.</_>
        <_>
          12 9 2 4 2.</_></rects>
      <tilted>0</tilted></_>
    <_>
      <rects>
        <_>
          10 6 1 2 -1.</_>
        <_>
          10 7 1 1 2.</_></rects>
      <tilted>0</tilted></_>
    <_>
      <rects>
        <_>
          10 6 3 1 -1.</_>
        <_>
          11 6 1 1 3.</_></rects>
      <tilted>0</tilted></_>
    <_>
      <rects>
        <_>
          10 6 2 2 -1.</_>
        <_>
          10 6 1 1 2.</_>
        <_>
          11 7 1 1 2.</_></rects>
      <tilted>0</tilted></_>
    <_>
      <rects>
        <_>
          10 6 2 2 -1.</_>
        <_>
          11 6 1 2 2.</_></rects>
      <tilted>0</tilted></_>
    <_>
      <rects>
        <_>
          10 6 1 4 -1.</_>
        <_>
          10 8 1 2 2.</_></rects>
      <tilted>0</tilted></_>
    <_>
      <rects>
        <_>
          10 6 3 2 -1.</_>
        <_>
          11 6 1 2 3.</_></rects>
      <tilted>0</tilted></_>
    <_>
      <rects>
        <_>
          10 6 1 6 -1.</_>
        <_>
          10 8 1 2 3.</_></rects>
      <tilted>0</tilted></_>
    <_>
      <rects>
        <_>
          10 6 3 8 -1.</_>
        <_>
          11 6 1 8 3.</_></rects>
      <tilted>0</tilted></_>
    <_>
      <rects>
        <_>
          10 7 2 1 -1.</_>
        <_>
          11 7 1 1 2.</_></rects>
      <tilted>0</tilted></_>
    <_>
      <rects>
        <_>
          10 7 3 1 -1.</_>
        <_>
          11 7 1 1 3.</_></rects>
      <tilted>0</tilted></_>
    <_>
      <rects>
        <_>
          10 7 3 2 -1.</_>
        <_>
          11 7 1 2 3.</_></rects>
      <tilted>0</tilted></_>
    <_>
      <rects>
        <_>
          10 7 3 3 -1.</_>
        <_>
          11 7 1 3 3.</_></rects>
      <tilted>0</tilted></_>
    <_>
      <rects>
        <_>
          10 7 3 4 -1.</_>
        <_>
          11 7 1 4 3.</_></rects>
      <tilted>0</tilted></_>
    <_>
      <rects>
        <_>
          10 7 3 6 -1.</_>
        <_>
          10 9 3 2 3.</_></rects>
      <tilted>0</tilted></_>
    <_>
      <rects>
        <_>
          10 8 2 1 -1.</_>
        <_>
          11 8 1 1 2.</_></rects>
      <tilted>0</tilted></_>
    <_>
      <rects>
        <_>
          10 8 2 2 -1.</_>
        <_>
          10 9 2 1 2.</_></rects>
      <tilted>0</tilted></_>
    <_>
      <rects>
        <_>
          10 8 2 3 -1.</_>
        <_>
          10 9 2 1 3.</_></rects>
      <tilted>0</tilted></_>
    <_>
      <rects>
        <_>
          10 8 2 4 -1.</_>
        <_>
          10 10 2 2 2.</_></rects>
      <tilted>0</tilted></_>
    <_>
      <rects>
        <_>
          10 9 1 3 -1.</_>
        <_>
          10 10 1 1 3.</_></rects>
      <tilted>0</tilted></_>
    <_>
      <rects>
        <_>
          10 9 2 4 -1.</_>
        <_>
          11 9 1 4 2.</_></rects>
      <tilted>0</tilted></_>
    <_>
      <rects>
        <_>
          10 9 4 4 -1.</_>
        <_>
          10 11 4 2 2.</_></rects>
      <tilted>0</tilted></_>
    <_>
      <rects>
        <_>
          10 10 2 3 -1.</_>
        <_>
          11 10 1 3 2.</_></rects>
      <tilted>0</tilted></_>
    <_>
      <rects>
        <_>
          10 10 4 4 -1.</_>
        <_>
          10 10 2 2 2.</_>
        <_>
          12 12 2 2 2.</_></rects>
      <tilted>0</tilted></_>
    <_>
      <rects>
        <_>
          10 11 4 3 -1.</_>
        <_>
          10 12 4 1 3.</_></rects>
      <tilted>0</tilted></_>
    <_>
      <rects>
        <_>
          10 13 3 1 -1.</_>
        <_>
          11 13 1 1 3.</_></rects>
      <tilted>0</tilted></_>
    <_>
      <rects>
        <_>
          11 0 1 12 -1.</_>
        <_>
          11 4 1 4 3.</_></rects>
      <tilted>0</tilted></_>
    <_>
      <rects>
        <_>
          11 0 2 2 -1.</_>
        <_>
          11 1 2 1 2.</_></rects>
      <tilted>0</tilted></_>
    <_>
      <rects>
        <_>
          11 1 1 2 -1.</_>
        <_>
          11 2 1 1 2.</_></rects>
      <tilted>0</tilted></_>
    <_>
      <rects>
        <_>
          11 1 2 4 -1.</_>
        <_>
          11 1 1 2 2.</_>
        <_>
          12 3 1 2 2.</_></rects>
      <tilted>0</tilted></_>
    <_>
      <rects>
        <_>
          11 1 2 3 -1.</_>
        <_>
          11 2 2 1 3.</_></rects>
      <tilted>0</tilted></_>
    <_>
      <rects>
        <_>
          11 3 3 5 -1.</_>
        <_>
          12 3 1 5 3.</_></rects>
      <tilted>0</tilted></_>
    <_>
      <rects>
        <_>
          11 4 1 6 -1.</_>
        <_>
          11 6 1 2 3.</_></rects>
      <tilted>0</tilted></_>
    <_>
      <rects>
        <_>
          11 4 1 8 -1.</_>
        <_>
          11 8 1 4 2.</_></rects>
      <tilted>0</tilted></_>
    <_>
      <rects>
        <_>
          11 4 3 4 -1.</_>
        <_>
          11 6 3 2 2.</_></rects>
      <tilted>0</tilted></_>
    <_>
      <rects>
        <_>
          11 5 3 9 -1.</_>
        <_>
          12 5 1 9 3.</_></rects>
      <tilted>0</tilted></_>
    <_>
      <rects>
        <_>
          11 6 1 2 -1.</_>
        <_>
          11 7 1 1 2.</_></rects>
      <tilted>0</tilted></_>
    <_>
      <rects>
        <_>
          11 6 3 2 -1.</_>
        <_>
          12 6 1 2 3.</_></rects>
      <tilted>0</tilted></_>
    <_>
      <rects>
        <_>
          11 7 1 3 -1.</_>
        <_>
          11 8 1 1 3.</_></rects>
      <tilted>0</tilted></_>
    <_>
      <rects>
        <_>
          11 8 1 2 -1.</_>
        <_>
          11 9 1 1 2.</_></rects>
      <tilted>0</tilted></_>
    <_>
      <rects>
        <_>
          11 8 2 4 -1.</_>
        <_>
          11 8 1 2 2.</_>
        <_>
          12 10 1 2 2.</_></rects>
      <tilted>0</tilted></_>
    <_>
      <rects>
        <_>
          11 8 2 4 -1.</_>
        <_>
          11 10 2 2 2.</_></rects>
      <tilted>0</tilted></_>
    <_>
      <rects>
        <_>
          11 8 2 6 -1.</_>
        <_>
          11 10 2 2 3.</_></rects>
      <tilted>0</tilted></_>
    <_>
      <rects>
        <_>
          11 8 3 6 -1.</_>
        <_>
          11 10 3 2 3.</_></rects>
      <tilted>0</tilted></_>
    <_>
      <rects>
        <_>
          11 9 2 1 -1.</_>
        <_>
          12 9 1 1 2.</_></rects>
      <tilted>0</tilted></_>
    <_>
      <rects>
        <_>
          11 10 1 2 -1.</_>
        <_>
          11 11 1 1 2.</_></rects>
      <tilted>0</tilted></_>
    <_>
      <rects>
        <_>
          11 10 2 2 -1.</_>
        <_>
          11 11 2 1 2.</_></rects>
      <tilted>0</tilted></_>
    <_>
      <rects>
        <_>
          11 11 2 2 -1.</_>
        <_>
          11 11 1 1 2.</_>
        <_>
          12 12 1 1 2.</_></rects>
      <tilted>0</tilted></_>
    <_>
      <rects>
        <_>
          11 11 2 2 -1.</_>
        <_>
          12 11 1 2 2.</_></rects>
      <tilted>0</tilted></_>
    <_>
      <rects>
        <_>
          11 13 2 1 -1.</_>
        <_>
          12 13 1 1 2.</_></rects>
      <tilted>0</tilted></_>
    <_>
      <rects>
        <_>
          12 0 2 1 -1.</_>
        <_>
          13 0 1 1 2.</_></rects>
      <tilted>0</tilted></_>
    <_>
      <rects>
        <_>
          12 0 2 2 -1.</_>
        <_>
          12 0 1 1 2.</_>
        <_>
          13 1 1 1 2.</_></rects>
      <tilted>0</tilted></_>
    <_>
      <rects>
        <_>
          12 0 2 14 -1.</_>
        <_>
          12 7 2 7 2.</_></rects>
      <tilted>0</tilted></_>
    <_>
      <rects>
        <_>
          12 1 2 1 -1.</_>
        <_>
          13 1 1 1 2.</_></rects>
      <tilted>0</tilted></_>
    <_>
      <rects>
        <_>
          12 1 2 2 -1.</_>
        <_>
          13 1 1 2 2.</_></rects>
      <tilted>0</tilted></_>
    <_>
      <rects>
        <_>
          12 2 2 4 -1.</_>
        <_>
          13 2 1 4 2.</_></rects>
      <tilted>0</tilted></_>
    <_>
      <rects>
        <_>
          12 3 2 11 -1.</_>
        <_>
          13 3 1 11 2.</_></rects>
      <tilted>0</tilted></_>
    <_>
      <rects>
        <_>
          12 5 2 1 -1.</_>
        <_>
          13 5 1 1 2.</_></rects>
      <tilted>0</tilted></_>
    <_>
      <rects>
        <_>
          12 5 2 4 -1.</_>
        <_>
          12 5 1 2 2.</_>
        <_>
          13 7 1 2 2.</_></rects>
      <tilted>0</tilted></_>
    <_>
      <rects>
        <_>
          12 6 2 1 -1.</_>
        <_>
          13 6 1 1 2.</_></rects>
      <tilted>0</tilted></_>
    <_>
      <rects>
        <_>
          12 6 2 2 -1.</_>
        <_>
          12 6 1 1 2.</_>
        <_>
          13 7 1 1 2.</_></rects>
      <tilted>0</tilted></_>
    <_>
      <rects>
        <_>
          12 6 2 8 -1.</_>
        <_>
          12 6 1 4 2.</_>
        <_>
          13 10 1 4 2.</_></rects>
      <tilted>0</tilted></_>
    <_>
      <rects>
        <_>
          12 8 2 4 -1.</_>
        <_>
          13 8 1 4 2.</_></rects>
      <tilted>0</tilted></_>
    <_>
      <rects>
        <_>
          12 9 1 3 -1.</_>
        <_>
          12 10 1 1 3.</_></rects>
      <tilted>0</tilted></_>
    <_>
      <rects>
        <_>
          12 11 2 2 -1.</_>
        <_>
          13 11 1 2 2.</_></rects>
      <tilted>0</tilted></_>
    <_>
      <rects>
        <_>
          12 12 2 2 -1.</_>
        <_>
          13 12 1 2 2.</_></rects>
      <tilted>0</tilted></_>
    <_>
      <rects>
        <_>
          12 13 2 1 -1.</_>
        <_>
          13 13 1 1 2.</_></rects>
      <tilted>0</tilted></_>
    <_>
      <rects>
        <_>
          13 0 1 2 -1.</_>
        <_>
          13 1 1 1 2.</_></rects>
      <tilted>0</tilted></_>
    <_>
      <rects>
        <_>
          13 2 1 4 -1.</_>
        <_>
          13 4 1 2 2.</_></rects>
      <tilted>0</tilted></_>
    <_>
      <rects>
        <_>
          13 4 1 10 -1.</_>
        <_>
          13 9 1 5 2.</_></rects>
      <tilted>0</tilted></_>
    <_>
      <rects>
        <_>
          13 10 1 3 -1.</_>
        <_>
          13 11 1 1 3.</_></rects>
      <tilted>0</tilted></_></features></cascade>
</opencv_storage>
